#ifndef TINYML_MODEL_H
#define TINYML_MODEL_H


unsigned int tinyml_model_len = 8380;
unsigned char tinyml_model[] = {
0x1c, 0x00, 0x00, 0x00, 0x54, 0x46, 0x4c, 0x33, 0x14, 0x00, 0x20, 0x00,
 0x1c, 0x00, 0x18, 0x00, 0x14, 0x00, 0x10, 0x00, 0x0c, 0x00, 0x00, 0x00,
 0x08, 0x00, 0x04, 0x00, 0x14, 0x00, 0x00, 0x00, 0x1c, 0x00, 0x00, 0x00,
 0x84, 0x00, 0x00, 0x00, 0xdc, 0x00, 0x00, 0x00, 0x14, 0x1c, 0x00, 0x00,
 0x24, 0x1c, 0x00, 0x00, 0x58, 0x20, 0x00, 0x00, 0x03, 0x00, 0x00, 0x00,
 0x01, 0x00, 0x00, 0x00, 0x04, 0x00, 0x00, 0x00, 0xa2, 0xe3, 0xff, 0xff,
 0x0c, 0x00, 0x00, 0x00, 0x1c, 0x00, 0x00, 0x00, 0x38, 0x00, 0x00, 0x00,
 0x0f, 0x00, 0x00, 0x00, 0x73, 0x65, 0x72, 0x76, 0x69, 0x6e, 0x67, 0x5f,
 0x64, 0x65, 0x66, 0x61, 0x75, 0x6c, 0x74, 0x00, 0x01, 0x00, 0x00, 0x00,
 0x04, 0x00, 0x00, 0x00, 0x98, 0xff, 0xff, 0xff, 0x07, 0x00, 0x00, 0x00,
 0x04, 0x00, 0x00, 0x00, 0x07, 0x00, 0x00, 0x00, 0x64, 0x65, 0x6e, 0x73,
 0x65, 0x5f, 0x31, 0x00, 0x01, 0x00, 0x00, 0x00, 0x04, 0x00, 0x00, 0x00,
 0x6e, 0xe4, 0xff, 0xff, 0x04, 0x00, 0x00, 0x00, 0x0b, 0x00, 0x00, 0x00,
 0x64, 0x65, 0x6e, 0x73, 0x65, 0x5f, 0x69, 0x6e, 0x70, 0x75, 0x74, 0x00,
 0x02, 0x00, 0x00, 0x00, 0x34, 0x00, 0x00, 0x00, 0x04, 0x00, 0x00, 0x00,
 0xdc, 0xff, 0xff, 0xff, 0x0a, 0x00, 0x00, 0x00, 0x04, 0x00, 0x00, 0x00,
 0x13, 0x00, 0x00, 0x00, 0x43, 0x4f, 0x4e, 0x56, 0x45, 0x52, 0x53, 0x49,
 0x4f, 0x4e, 0x5f, 0x4d, 0x45, 0x54, 0x41, 0x44, 0x41, 0x54, 0x41, 0x00,
 0x08, 0x00, 0x0c, 0x00, 0x08, 0x00, 0x04, 0x00, 0x08, 0x00, 0x00, 0x00,
 0x09, 0x00, 0x00, 0x00, 0x04, 0x00, 0x00, 0x00, 0x13, 0x00, 0x00, 0x00,
 0x6d, 0x69, 0x6e, 0x5f, 0x72, 0x75, 0x6e, 0x74, 0x69, 0x6d, 0x65, 0x5f,
 0x76, 0x65, 0x72, 0x73, 0x69, 0x6f, 0x6e, 0x00, 0x0b, 0x00, 0x00, 0x00,
 0x34, 0x1b, 0x00, 0x00, 0x2c, 0x1b, 0x00, 0x00, 0x18, 0x1b, 0x00, 0x00,
 0x60, 0x1a, 0x00, 0x00, 0x50, 0x01, 0x00, 0x00, 0xa0, 0x00, 0x00, 0x00,
 0x98, 0x00, 0x00, 0x00, 0x90, 0x00, 0x00, 0x00, 0x88, 0x00, 0x00, 0x00,
 0x68, 0x00, 0x00, 0x00, 0x04, 0x00, 0x00, 0x00, 0x12, 0xe5, 0xff, 0xff,
 0x04, 0x00, 0x00, 0x00, 0x54, 0x00, 0x00, 0x00, 0x0c, 0x00, 0x00, 0x00,
 0x08, 0x00, 0x0e, 0x00, 0x08, 0x00, 0x04, 0x00, 0x08, 0x00, 0x00, 0x00,
 0x10, 0x00, 0x00, 0x00, 0x24, 0x00, 0x00, 0x00, 0x00, 0x00, 0x06, 0x00,
 0x08, 0x00, 0x04, 0x00, 0x06, 0x00, 0x00, 0x00, 0x04, 0x00, 0x00, 0x00,
 0x00, 0x00, 0x00, 0x00, 0x00, 0x00, 0x0a, 0x00, 0x10, 0x00, 0x0c, 0x00,
 0x08, 0x00, 0x04, 0x00, 0x0a, 0x00, 0x00, 0x00, 0x02, 0x00, 0x00, 0x00,
 0x02, 0x00, 0x00, 0x00, 0x04, 0x00, 0x00, 0x00, 0x06, 0x00, 0x00, 0x00,
 0x32, 0x2e, 0x31, 0x35, 0x2e, 0x30, 0x00, 0x00, 0x72, 0xe5, 0xff, 0xff,
 0x04, 0x00, 0x00, 0x00, 0x10, 0x00, 0x00, 0x00, 0x31, 0x2e, 0x31, 0x34,
 0x2e, 0x30, 0x00, 0x00, 0x00, 0x00, 0x00, 0x00, 0x00, 0x00, 0x00, 0x00,
 0x5c, 0xe1, 0xff, 0xff, 0x60, 0xe1, 0xff, 0xff, 0x64, 0xe1, 0xff, 0xff,
 0x9a, 0xe5, 0xff, 0xff, 0x04, 0x00, 0x00, 0x00, 0xa0, 0x00, 0x00, 0x00,
 0xc2, 0x02, 0xb0, 0xbe, 0x40, 0x23, 0xab, 0x3c, 0x1c, 0x74, 0xc0, 0xbe,
 0x6b, 0xae, 0x57, 0x3e, 0x54, 0xc8, 0x8a, 0xbe, 0x01, 0xeb, 0x33, 0x3e,
 0xe2, 0xb2, 0x10, 0xbe, 0x68, 0x79, 0x3e, 0xbf, 0x5f, 0x72, 0x66, 0xbd,
 0x23, 0x3e, 0xa1, 0x3e, 0x7d, 0x14, 0xb5, 0xbe, 0x4f, 0x50, 0xc7, 0xbe,
 0x75, 0x17, 0x59, 0xbe, 0x7d, 0xdb, 0x24, 0x3f, 0xeb, 0x7b, 0x55, 0x3e,
 0xa0, 0xec, 0x91, 0xbe, 0x05, 0xd7, 0xbf, 0xbe, 0x8d, 0x90, 0xac, 0x3d,
 0x49, 0xcb, 0xd7, 0x3d, 0x27, 0xe1, 0xf0, 0xbe, 0x92, 0x49, 0x0d, 0xbf,
 0x4d, 0xb3, 0x30, 0x3e, 0x27, 0xa4, 0x8a, 0xbe, 0x56, 0xb9, 0x8e, 0xbe,
 0x78, 0x9f, 0x8c, 0xbe, 0x4a, 0x0f, 0x17, 0xbd, 0x25, 0x4b, 0xb8, 0x3e,
 0x6e, 0xde, 0xee, 0x3d, 0x1c, 0x37, 0x04, 0x3e, 0xe8, 0x3d, 0xce, 0xbd,
 0x22, 0x51, 0x32, 0x3e, 0x31, 0x35, 0xa0, 0xbe, 0x97, 0x1e, 0xdb, 0x3d,
 0x80, 0x12, 0x64, 0x3c, 0xed, 0xe8, 0x5e, 0x3e, 0xc0, 0xac, 0x94, 0xbd,
 0x27, 0xd5, 0xf3, 0xbe, 0x63, 0x46, 0x73, 0xbe, 0x91, 0x44, 0x96, 0x3e,
 0x4c, 0xf9, 0x17, 0x3f, 0x46, 0xe6, 0xff, 0xff, 0x04, 0x00, 0x00, 0x00,
 0x00, 0x19, 0x00, 0x00, 0x19, 0xe0, 0xe5, 0xbd, 0x97, 0x26, 0x1c, 0xbd,
 0x4b, 0xfe, 0xfb, 0x3d, 0x77, 0xa8, 0xd5, 0xbd, 0xe8, 0x4c, 0x1b, 0x3e,
 0x06, 0x29, 0x29, 0xbe, 0x72, 0x75, 0xc0, 0x3d, 0xdf, 0x53, 0x30, 0xbe,
 0xca, 0x81, 0xf3, 0x3c, 0xa7, 0x0c, 0x19, 0xbe, 0xc5, 0x5e, 0xe5, 0x3c,
 0x81, 0xa8, 0x4e, 0xbe, 0x29, 0x82, 0x22, 0x3d, 0x9c, 0x7c, 0xab, 0x3e,
 0xad, 0x30, 0x0e, 0xbe, 0x5a, 0x5f, 0x40, 0x3d, 0x02, 0x84, 0xfb, 0x3c,
 0xc5, 0x1c, 0x85, 0xbd, 0xf9, 0xf8, 0x90, 0xbe, 0x90, 0x65, 0x34, 0xbe,
 0x72, 0xe6, 0x74, 0xbe, 0x92, 0x72, 0xe5, 0x3d, 0x54, 0x01, 0xf6, 0x3c,
 0xc6, 0x77, 0xdd, 0x3d, 0xe6, 0xe9, 0x3b, 0x3c, 0x0f, 0xb5, 0x79, 0x3e,
 0xd1, 0xdd, 0x57, 0x3e, 0x97, 0xf7, 0x41, 0x3e, 0x5f, 0xdb, 0x3d, 0xbe,
 0x2d, 0x5b, 0xa3, 0x3d, 0x56, 0x72, 0xfe, 0xbd, 0x48, 0x74, 0xaf, 0x3c,
 0x14, 0xb8, 0xc8, 0x3d, 0x97, 0x65, 0x21, 0x3e, 0xb9, 0xdf, 0x93, 0x3c,
 0x25, 0x12, 0x59, 0x3e, 0xf4, 0xd9, 0x21, 0x3d, 0xb0, 0xcc, 0x60, 0x3e,
 0xbc, 0x39, 0xab, 0x3d, 0x9d, 0x18, 0x91, 0x3e, 0xee, 0xf7, 0x9d, 0xbd,
 0x72, 0x72, 0x7d, 0x3b, 0x50, 0x47, 0x11, 0x3e, 0xdf, 0xf3, 0x22, 0xbe,
 0x8d, 0x7c, 0xf2, 0x3c, 0x36, 0x24, 0x4a, 0xbd, 0x67, 0xbc, 0x53, 0xbe,
 0x64, 0xac, 0x6a, 0x3e, 0x88, 0xb0, 0xbe, 0xbd, 0x64, 0x44, 0x36, 0xbd,
 0x0a, 0x08, 0x91, 0x3d, 0x69, 0xc0, 0x67, 0xbe, 0x42, 0x06, 0x00, 0x3e,
 0xfa, 0xda, 0x2d, 0xbe, 0x57, 0xd1, 0x20, 0x3e, 0x01, 0x2d, 0xc1, 0x3d,
 0xcd, 0x24, 0x11, 0xbe, 0x1c, 0x76, 0x21, 0x3e, 0xd4, 0xde, 0x39, 0xbe,
 0x5b, 0x3f, 0x98, 0x3e, 0xdc, 0x09, 0x0a, 0xbe, 0xab, 0x8a, 0x8d, 0x3e,
 0xdc, 0x81, 0xd5, 0x3d, 0x18, 0xf6, 0xa8, 0x3e, 0x46, 0x24, 0x12, 0x3e,
 0xa9, 0xf0, 0x9d, 0xbe, 0x85, 0x8c, 0xab, 0xbd, 0xb1, 0x92, 0x70, 0x3e,
 0x4c, 0xe7, 0x64, 0xbd, 0x47, 0x30, 0x86, 0xbe, 0xe3, 0xb0, 0x62, 0x3e,
 0x48, 0xe9, 0x8b, 0x3e, 0x0c, 0xcb, 0x54, 0xbe, 0x33, 0x62, 0x26, 0x3e,
 0x0a, 0xbe, 0xab, 0x3d, 0xb6, 0x80, 0x1a, 0xbe, 0x41, 0x02, 0x89, 0x3e,
 0xbe, 0xfd, 0x34, 0xbe, 0x07, 0x30, 0x10, 0x3e, 0xf2, 0xc0, 0xf0, 0xbb,
 0x67, 0x80, 0x8a, 0xbe, 0x00, 0x87, 0x42, 0xbe, 0x68, 0xca, 0x09, 0xbe,
 0x2b, 0x0e, 0xb6, 0x3d, 0xfa, 0x07, 0x7e, 0xbe, 0x57, 0xc9, 0x01, 0xbd,
 0xed, 0x2a, 0x73, 0x3d, 0x28, 0xf3, 0x10, 0xbe, 0x40, 0x23, 0x13, 0xbe,
 0xd5, 0x7b, 0xe7, 0xbd, 0x87, 0xe6, 0x66, 0x3e, 0x23, 0xeb, 0xdf, 0x3d,
 0x6a, 0x4c, 0xd3, 0xbd, 0xb3, 0x3e, 0x17, 0xbe, 0x57, 0xc1, 0x38, 0x3e,
 0x93, 0xc2, 0x40, 0x3c, 0x19, 0x0f, 0x40, 0xbe, 0x55, 0x46, 0x4c, 0xbe,
 0x62, 0xf5, 0x64, 0xbe, 0x32, 0x1d, 0x2a, 0xbe, 0x89, 0x67, 0x5f, 0x3e,
 0xfa, 0xbd, 0x20, 0x3c, 0x39, 0xea, 0x84, 0x3e, 0x45, 0x8a, 0x68, 0xbd,
 0x60, 0xf3, 0xe3, 0x3c, 0x15, 0x85, 0xac, 0x3d, 0x6a, 0x67, 0xac, 0xbd,
 0xbd, 0x78, 0x8d, 0xbd, 0xcc, 0x66, 0x8b, 0xbd, 0xef, 0x2b, 0x34, 0x3e,
 0x2f, 0xe7, 0xaf, 0x3d, 0x72, 0x47, 0x95, 0xbb, 0xf6, 0x7f, 0xd3, 0xbd,
 0x49, 0xa7, 0xbd, 0x3d, 0x94, 0x14, 0x88, 0xbd, 0x77, 0x0d, 0x87, 0xbe,
 0xfa, 0xc1, 0xd8, 0xbc, 0xb0, 0xd7, 0xda, 0x3a, 0xe7, 0x44, 0x46, 0x3e,
 0xff, 0xfd, 0x49, 0x3d, 0x55, 0x03, 0x51, 0xbe, 0x71, 0x64, 0xce, 0xbc,
 0x15, 0x1b, 0xf3, 0x3d, 0xa5, 0x5c, 0x25, 0x3e, 0x0d, 0xae, 0x61, 0x3d,
 0xcf, 0x04, 0x2e, 0xbe, 0x31, 0x4b, 0x35, 0x3e, 0x19, 0xfa, 0x44, 0xbe,
 0xdd, 0x57, 0x58, 0xbe, 0x46, 0x00, 0x4b, 0x3c, 0xa4, 0x97, 0x53, 0x3e,
 0x3a, 0x85, 0x48, 0xbe, 0xcb, 0x69, 0x98, 0xbe, 0x55, 0x7d, 0x24, 0x3e,
 0x8e, 0xc0, 0xf1, 0x3d, 0xd1, 0x9c, 0x50, 0x3e, 0x7c, 0xc1, 0x1d, 0xbe,
 0xf1, 0x10, 0x78, 0x3c, 0xfb, 0xea, 0xed, 0xbd, 0xba, 0xb2, 0x4e, 0x3e,
 0x2c, 0x9d, 0xfd, 0x3d, 0x7e, 0xdf, 0x58, 0x3e, 0x6c, 0x48, 0xc8, 0xbc,
 0xae, 0x9a, 0x12, 0xbd, 0xc6, 0xb6, 0x79, 0xbd, 0x92, 0x28, 0x91, 0x3d,
 0xbc, 0xc2, 0x47, 0x3e, 0xfb, 0x8b, 0x8c, 0xbe, 0x1b, 0x5e, 0x4b, 0x3e,
 0xb5, 0x71, 0x17, 0x3d, 0x40, 0x45, 0x8d, 0x3d, 0x79, 0xa6, 0x5a, 0x3e,
 0xe5, 0x92, 0x38, 0x3e, 0x56, 0x4c, 0x8a, 0x3e, 0x4c, 0x3c, 0xa8, 0x3d,
 0x7a, 0x96, 0x8d, 0x3e, 0x7b, 0x43, 0xe3, 0x3d, 0x45, 0x5e, 0xd0, 0x3c,
 0xf7, 0x0b, 0x74, 0xbe, 0x50, 0xc6, 0xfc, 0x3d, 0xfc, 0x4e, 0x6a, 0x3e,
 0x7f, 0xb4, 0x21, 0x3e, 0x42, 0x47, 0xa3, 0x3d, 0x88, 0x88, 0x0b, 0xbe,
 0x4c, 0x33, 0x15, 0x3d, 0x24, 0x5d, 0xf8, 0xbd, 0x0b, 0xf2, 0x86, 0x3e,
 0x45, 0xe4, 0x4b, 0x3c, 0xd5, 0x60, 0x6f, 0xbe, 0x59, 0xda, 0x87, 0x3d,
 0x32, 0xd6, 0x35, 0x3c, 0xb7, 0x34, 0xeb, 0xbd, 0x06, 0x79, 0x42, 0xbe,
 0x06, 0x5b, 0x8c, 0xbd, 0x2a, 0xee, 0x9d, 0xba, 0x01, 0x05, 0x74, 0xbe,
 0xb5, 0x05, 0x3f, 0x3e, 0x19, 0x40, 0xb4, 0xbd, 0xc4, 0xc3, 0x09, 0xbc,
 0x51, 0xff, 0x88, 0x3d, 0xab, 0xa0, 0x4c, 0x3d, 0x07, 0xd0, 0x8c, 0x3d,
 0xd5, 0xe4, 0x88, 0xbd, 0x77, 0xda, 0x92, 0xbe, 0x61, 0x1d, 0x1f, 0x3e,
 0x67, 0xec, 0x0d, 0xbe, 0xf6, 0xe6, 0x78, 0xbe, 0xfa, 0xb3, 0xce, 0x3d,
 0xde, 0x38, 0x58, 0xbe, 0x50, 0xbe, 0x88, 0xbe, 0xbf, 0x7c, 0x9a, 0xbc,
 0xc3, 0xec, 0xe9, 0xbd, 0x43, 0x04, 0xbe, 0xbd, 0x83, 0xce, 0x47, 0xbd,
 0xa5, 0xb3, 0x34, 0xbe, 0x05, 0x04, 0x44, 0x3d, 0x2e, 0x0c, 0x8d, 0xbd,
 0xc9, 0xf8, 0xbe, 0x3d, 0x0d, 0x02, 0x2c, 0x3e, 0x40, 0xc6, 0x27, 0xbd,
 0xac, 0xba, 0x33, 0xbe, 0x3f, 0x1a, 0x93, 0xbe, 0x7f, 0x13, 0x31, 0x3d,
 0x3d, 0x49, 0x26, 0xbe, 0x13, 0xf8, 0x23, 0xbd, 0xe6, 0x14, 0x1a, 0x3e,
 0xc1, 0xb1, 0xf0, 0xbd, 0x9f, 0x16, 0x64, 0xbe, 0xb8, 0xee, 0x77, 0x3e,
 0x27, 0x2d, 0x33, 0xbe, 0x0c, 0x54, 0x62, 0xbd, 0x86, 0x26, 0x7b, 0xbb,
 0x4e, 0x07, 0xea, 0xbe, 0xbf, 0x8e, 0x67, 0x3e, 0x62, 0x75, 0xee, 0xbd,
 0x6c, 0x0b, 0x09, 0xbe, 0xd7, 0xbb, 0xad, 0x3e, 0xf5, 0xde, 0x83, 0x3e,
 0x75, 0x1c, 0x3d, 0xbe, 0xfd, 0xe0, 0x8f, 0x3e, 0xe2, 0xb3, 0x1c, 0xbe,
 0xa5, 0x8d, 0x98, 0x3d, 0x46, 0x55, 0xc9, 0xbc, 0xef, 0xd6, 0x33, 0x3e,
 0xb5, 0xf6, 0xd2, 0x3c, 0xe6, 0x48, 0x00, 0xbe, 0x18, 0x9d, 0x09, 0xbd,
 0x7d, 0xbb, 0x91, 0xbe, 0xb2, 0x6b, 0xc6, 0xbd, 0xe6, 0xfb, 0x7b, 0xbc,
 0xf0, 0x88, 0xd0, 0x3d, 0x22, 0x64, 0xfb, 0xbd, 0x7c, 0x87, 0x53, 0xbe,
 0x04, 0xa5, 0x13, 0x3e, 0x8f, 0x13, 0x0f, 0x3e, 0x40, 0x38, 0x13, 0x3e,
 0x72, 0x1e, 0x99, 0x3d, 0x68, 0xbe, 0xaf, 0xbd, 0x25, 0xff, 0xd3, 0xbd,
 0xc6, 0xa7, 0x76, 0x3e, 0xe2, 0x9e, 0x66, 0x3d, 0x08, 0xca, 0x88, 0x3e,
 0xfa, 0x14, 0x29, 0xbd, 0xf3, 0x24, 0x65, 0x3e, 0xfd, 0x3a, 0xe2, 0xbd,
 0x56, 0xa6, 0xbc, 0x3d, 0x80, 0x6e, 0xeb, 0xbd, 0xb2, 0x94, 0x21, 0x3e,
 0xf0, 0xfa, 0x8a, 0x3e, 0x8b, 0x61, 0xff, 0xbc, 0x05, 0xa2, 0x45, 0xbe,
 0xf3, 0xac, 0x36, 0x3e, 0x07, 0x7b, 0x51, 0xbe, 0xcf, 0xc9, 0x39, 0xbd,
 0x1c, 0x20, 0x81, 0xbe, 0x1e, 0xe3, 0x10, 0xbd, 0x08, 0xbb, 0x9d, 0xbe,
 0x75, 0x39, 0x4a, 0x3c, 0xf6, 0xfb, 0xc7, 0x3d, 0x11, 0x02, 0x30, 0x3e,
 0x33, 0x11, 0x83, 0x3d, 0x4b, 0x6b, 0x29, 0xbe, 0x45, 0x57, 0x39, 0xbd,
 0x75, 0xdd, 0x20, 0xbe, 0x57, 0x19, 0x2f, 0xbd, 0x97, 0x29, 0x86, 0x3e,
 0xe6, 0x49, 0xc8, 0xbd, 0x56, 0x8f, 0x8e, 0xbe, 0xdc, 0x0d, 0xd6, 0x3c,
 0xaf, 0x41, 0xb9, 0x3c, 0x7a, 0x6b, 0x02, 0xbf, 0x22, 0xc4, 0x82, 0x3c,
 0x28, 0x18, 0x0e, 0xbf, 0x8a, 0xed, 0x03, 0xbf, 0x47, 0x7b, 0x4d, 0xbe,
 0x6a, 0xce, 0xbd, 0xbe, 0x20, 0xdf, 0x08, 0xbe, 0xd5, 0x56, 0xf3, 0x3d,
 0x09, 0x57, 0x2a, 0xbe, 0xcc, 0x1d, 0x8a, 0xbe, 0x36, 0x53, 0x78, 0xbc,
 0xea, 0x77, 0x1f, 0xbe, 0x31, 0x7a, 0x61, 0x3e, 0x39, 0xda, 0x73, 0x3e,
 0xcf, 0x2d, 0xf5, 0xbb, 0x58, 0x8a, 0x81, 0xbe, 0xc4, 0x33, 0x7c, 0x3e,
 0x1a, 0x70, 0x8b, 0x3e, 0xe7, 0x26, 0x94, 0xbe, 0x63, 0x6e, 0x05, 0xbe,
 0x42, 0xaa, 0x94, 0xbe, 0x5d, 0x8f, 0x87, 0xbe, 0x8d, 0x15, 0x1d, 0xbe,
 0x70, 0x2c, 0x9f, 0x3d, 0x60, 0x97, 0x44, 0x3e, 0xcc, 0x72, 0x1e, 0x3d,
 0x5a, 0xca, 0x68, 0xbc, 0xb2, 0xcf, 0xf6, 0x3d, 0xdc, 0xdf, 0x2e, 0x3f,
 0x21, 0x23, 0x7d, 0x3f, 0x46, 0x88, 0x18, 0x3e, 0xa9, 0x14, 0x8d, 0x3b,
 0xc7, 0x2a, 0x8d, 0x3e, 0xf3, 0x8f, 0x2b, 0x3d, 0x87, 0x51, 0xb8, 0x3e,
 0x44, 0x78, 0x4a, 0xbe, 0xfc, 0xf2, 0x05, 0x3e, 0x2d, 0x09, 0x1d, 0x3d,
 0xb7, 0x0d, 0x84, 0xbd, 0x5c, 0x8f, 0xfa, 0x3d, 0x61, 0x9c, 0x11, 0xbf,
 0x54, 0x11, 0x74, 0x3c, 0x61, 0xfa, 0x65, 0xbe, 0x47, 0xd7, 0x2d, 0x3e,
 0xe2, 0xdc, 0x16, 0xbe, 0xfc, 0xfe, 0x8b, 0xbe, 0xdd, 0xf6, 0x82, 0xbe,
 0x0d, 0xcd, 0x70, 0xbe, 0x04, 0xc0, 0x58, 0x3e, 0x27, 0x87, 0x50, 0xbd,
 0x0a, 0xe2, 0x85, 0x3e, 0x7c, 0xc1, 0xa6, 0x3d, 0xa4, 0x15, 0x74, 0xbe,
 0x14, 0xb1, 0x83, 0xbe, 0xae, 0x17, 0x7c, 0x3e, 0xba, 0xa6, 0x86, 0xbe,
 0x77, 0xfe, 0x0f, 0xbd, 0x25, 0x48, 0x61, 0x3d, 0xd7, 0x5d, 0x47, 0x3e,
 0xc8, 0xba, 0xed, 0x3d, 0x8b, 0xc9, 0x55, 0xbd, 0x61, 0xa7, 0x6b, 0xbe,
 0x25, 0x09, 0xc7, 0x3d, 0x84, 0xc9, 0x09, 0xbe, 0xf8, 0x95, 0x78, 0x3e,
 0xa5, 0x93, 0x28, 0x3e, 0x60, 0x29, 0xf3, 0xbc, 0xcb, 0x31, 0xf3, 0x3d,
 0xc1, 0xfb, 0x85, 0x3e, 0x00, 0xf0, 0x4d, 0x3d, 0xce, 0x87, 0xb1, 0x3b,
 0xbd, 0x3b, 0x1b, 0xbe, 0x9c, 0x18, 0x85, 0x3e, 0x9d, 0xcc, 0x1b, 0xbe,
 0xac, 0xea, 0xee, 0xbd, 0x48, 0x51, 0x3f, 0x3e, 0xa9, 0xbe, 0x24, 0x3e,
 0x17, 0xbc, 0x5b, 0xbe, 0x4f, 0x72, 0x88, 0x3c, 0x6b, 0xd5, 0x82, 0xbe,
 0x1c, 0xfd, 0xce, 0x3b, 0xb0, 0xa7, 0xeb, 0xbd, 0x1a, 0xd9, 0x76, 0xbe,
 0x7e, 0x34, 0x6b, 0xbe, 0x98, 0xce, 0x80, 0xbe, 0x27, 0xef, 0x83, 0xbc,
 0x78, 0x28, 0xf9, 0x3d, 0x63, 0xc5, 0x2f, 0xbe, 0xc9, 0xa8, 0x19, 0xbe,
 0x94, 0x99, 0x3a, 0xbd, 0x3a, 0xb6, 0x91, 0x3e, 0x70, 0x32, 0x63, 0x3e,
 0x58, 0xaf, 0xd2, 0xbd, 0x97, 0x6b, 0x6e, 0xbe, 0xce, 0xca, 0x82, 0xbc,
 0x99, 0x98, 0x23, 0xbe, 0x1b, 0xe0, 0x7a, 0x3e, 0xbb, 0x6e, 0x68, 0x3e,
 0xd6, 0xcd, 0x2a, 0x3d, 0x0d, 0xf8, 0xeb, 0x3c, 0x62, 0xe4, 0x28, 0x3e,
 0x98, 0xd7, 0xab, 0x3d, 0xda, 0x3b, 0xc5, 0x3d, 0x19, 0x28, 0xfd, 0xbd,
 0x65, 0x36, 0x62, 0xbe, 0x2e, 0x62, 0x86, 0xbe, 0xc0, 0xb0, 0xc5, 0x3c,
 0xa2, 0xe0, 0x16, 0xbd, 0x26, 0x46, 0x3a, 0x3c, 0xaa, 0xb3, 0xaf, 0xbd,
 0x23, 0xf8, 0x4b, 0xbe, 0x7b, 0x9a, 0x8e, 0x3e, 0x54, 0x48, 0x73, 0xbe,
 0x3d, 0xa4, 0x0f, 0x3d, 0x01, 0x09, 0x7e, 0x3d, 0x7c, 0x02, 0x8a, 0x3e,
 0x9e, 0x0f, 0xb5, 0xbd, 0x82, 0x5d, 0x2a, 0xbe, 0x86, 0xa6, 0xf8, 0xbd,
 0x9b, 0xe1, 0x39, 0x3e, 0xa7, 0x14, 0xaa, 0x3d, 0xbb, 0x62, 0x48, 0x3e,
 0x0a, 0xd0, 0x5a, 0x3e, 0x41, 0x11, 0x9e, 0xbd, 0x32, 0x7a, 0xb3, 0xbc,
 0xf5, 0xbe, 0x31, 0xbe, 0xe1, 0x15, 0x59, 0xbe, 0x30, 0x4e, 0xba, 0xbd,
 0x44, 0x34, 0x6e, 0x3e, 0xef, 0x70, 0x15, 0xbe, 0x00, 0x8c, 0xdf, 0x3c,
 0x29, 0xf7, 0x41, 0xbe, 0xfc, 0x9b, 0x7c, 0x3e, 0x10, 0xb3, 0x59, 0xbe,
 0xf2, 0x21, 0x04, 0x3e, 0x90, 0x55, 0x63, 0x3d, 0xb3, 0x43, 0x23, 0xbe,
 0x70, 0x93, 0xc6, 0x3d, 0x0c, 0x21, 0x74, 0xbe, 0xd4, 0x69, 0x20, 0x3e,
 0x58, 0x24, 0xcf, 0xbd, 0xa0, 0x42, 0x7d, 0xbe, 0xd8, 0x76, 0x99, 0x3d,
 0x18, 0xb6, 0x6c, 0xbe, 0x91, 0xcc, 0x05, 0xbe, 0xdc, 0x24, 0xc6, 0x3d,
 0x00, 0x30, 0xdb, 0xb9, 0xd8, 0xc0, 0x7d, 0x3e, 0x6e, 0x3b, 0x0c, 0x3e,
 0x40, 0xe0, 0x04, 0x3d, 0x76, 0xf1, 0x0c, 0x3e, 0xb8, 0xc3, 0x2b, 0xbe,
 0x42, 0xa4, 0x5f, 0xbe, 0xc0, 0xf0, 0x28, 0x3c, 0x66, 0x53, 0xd5, 0xbd,
 0xe0, 0xcb, 0x3c, 0x3c, 0xbf, 0xf0, 0x7d, 0xbe, 0x74, 0x21, 0x27, 0x3e,
 0xf6, 0xf8, 0x8a, 0xbe, 0x7e, 0x55, 0x50, 0x3e, 0xb4, 0x0e, 0x68, 0x3e,
 0x66, 0x39, 0xe0, 0xbd, 0x02, 0x38, 0xbc, 0xbd, 0x57, 0x65, 0x0b, 0xbe,
 0xa6, 0xf1, 0xd2, 0xbd, 0x40, 0x5f, 0xa6, 0xbd, 0x4a, 0xab, 0xcf, 0xbd,
 0x20, 0x1a, 0xc9, 0x3d, 0x64, 0xdc, 0x7b, 0xbd, 0xec, 0xe2, 0x81, 0x3e,
 0xca, 0xec, 0x0e, 0x3e, 0x8f, 0x71, 0x57, 0xbd, 0xfe, 0x6c, 0x7f, 0xbe,
 0xdf, 0x8e, 0x0a, 0x3e, 0x64, 0x72, 0x48, 0xbe, 0xb2, 0xa3, 0xdb, 0xbe,
 0x2e, 0x98, 0xa5, 0x3d, 0xd8, 0xdd, 0xef, 0xbd, 0xf7, 0x39, 0x49, 0xbe,
 0xa3, 0xd5, 0xb4, 0x3e, 0xbe, 0xb8, 0x8b, 0xbe, 0x21, 0x29, 0x4c, 0xbe,
 0x30, 0xd5, 0x85, 0xbe, 0xc7, 0x15, 0xaa, 0xbd, 0x7d, 0x12, 0x25, 0x3e,
 0x78, 0x84, 0xba, 0xbd, 0x6e, 0x43, 0xa1, 0xbd, 0xbb, 0x02, 0xb5, 0x3d,
 0x67, 0x81, 0x9d, 0xbe, 0xc3, 0xe9, 0x8d, 0xbd, 0x57, 0x26, 0x8e, 0xbe,
 0xb5, 0xe8, 0x6c, 0xbe, 0x4e, 0x7b, 0x89, 0xbe, 0xa8, 0x3a, 0x12, 0x3f,
 0xe8, 0x49, 0x30, 0x3e, 0x8c, 0x1f, 0xfb, 0x3d, 0x81, 0xe2, 0x20, 0x3e,
 0xf8, 0xcc, 0x89, 0x3d, 0xf6, 0x67, 0xdf, 0x3e, 0x3d, 0xd0, 0x1c, 0x3f,
 0x73, 0x38, 0xa7, 0x3e, 0x3b, 0x3c, 0xc4, 0x3e, 0xcf, 0x5f, 0x87, 0x3e,
 0x0c, 0x29, 0xbd, 0x3e, 0xc8, 0x95, 0x28, 0x3e, 0xb2, 0x61, 0xd6, 0x3e,
 0x07, 0x31, 0x33, 0x3e, 0xb4, 0x2c, 0xea, 0x3e, 0x44, 0x12, 0x35, 0x3d,
 0x8e, 0x27, 0xc1, 0x3e, 0xa0, 0x91, 0xb8, 0xbd, 0xd2, 0xa1, 0x22, 0xbe,
 0x5a, 0xa2, 0xa9, 0x3c, 0x4e, 0x4b, 0x5b, 0xbd, 0xf2, 0x53, 0xd3, 0x3e,
 0x49, 0x0e, 0x54, 0x3e, 0xcb, 0x9b, 0x54, 0x3e, 0x39, 0x7f, 0xfd, 0xbc,
 0x0a, 0x8f, 0xde, 0x3e, 0xd0, 0xe4, 0xce, 0x3e, 0xe6, 0x05, 0xb7, 0xbe,
 0xdb, 0x8e, 0x51, 0xbe, 0xee, 0x96, 0x01, 0x3f, 0x59, 0xb1, 0xeb, 0xbd,
 0xe3, 0x4b, 0xc8, 0xbe, 0xa5, 0x6b, 0x73, 0xbe, 0x9a, 0x79, 0x3f, 0x3d,
 0xcd, 0x55, 0x94, 0x3e, 0x38, 0x38, 0x30, 0x3e, 0x48, 0xd8, 0x1f, 0x3d,
 0xa8, 0x5b, 0x60, 0xbe, 0x81, 0x53, 0x10, 0x3e, 0xdb, 0x56, 0x13, 0x3d,
 0xb7, 0x05, 0x15, 0xbe, 0x3e, 0xb9, 0xb2, 0x3b, 0xd8, 0xcf, 0x45, 0xbe,
 0x13, 0x79, 0x78, 0xbe, 0xee, 0x7f, 0x4f, 0xbe, 0x0e, 0x18, 0x8c, 0xbe,
 0xdd, 0xa6, 0x08, 0xbe, 0x51, 0xe1, 0x61, 0xbf, 0x2b, 0x57, 0x1c, 0x3e,
 0x9a, 0x82, 0xee, 0xbe, 0x8e, 0xfc, 0x84, 0xbd, 0xca, 0xeb, 0x1d, 0x3e,
 0xbe, 0x95, 0x77, 0x3e, 0x3a, 0x4f, 0xe8, 0x3e, 0xf4, 0x1b, 0x21, 0x3e,
 0xc9, 0x23, 0x22, 0x3e, 0xc5, 0x18, 0x62, 0x3e, 0x96, 0xb6, 0xd5, 0x3c,
 0x80, 0xcf, 0xd0, 0xbb, 0x0e, 0x58, 0xc7, 0x3e, 0xdd, 0xab, 0x16, 0x3e,
 0x0a, 0x65, 0x97, 0x3e, 0x1b, 0x6b, 0x6a, 0xbe, 0xfc, 0xb1, 0x0f, 0x3e,
 0xf1, 0x70, 0x0d, 0xbe, 0x1c, 0x08, 0x81, 0xbd, 0x12, 0x78, 0xff, 0xbe,
 0xb6, 0x00, 0xc2, 0x3d, 0xe9, 0xa3, 0xd5, 0x3d, 0x5f, 0x5d, 0x73, 0x3d,
 0xd7, 0x05, 0x0a, 0x3e, 0x35, 0xc9, 0x6d, 0x3e, 0x7e, 0x49, 0xec, 0xbe,
 0xcc, 0xa6, 0x07, 0xbf, 0x50, 0xa5, 0xb4, 0x3e, 0xfe, 0x33, 0xdb, 0xbd,
 0x3f, 0xf6, 0xd7, 0x3d, 0x7a, 0x58, 0xbe, 0x3c, 0x19, 0xcc, 0x1b, 0xbe,
 0x7b, 0x36, 0x8d, 0xbe, 0xef, 0x0d, 0x03, 0xbf, 0x33, 0xb4, 0xec, 0x3e,
 0x39, 0xd1, 0x33, 0x3c, 0xff, 0x5c, 0x66, 0x3e, 0x22, 0x15, 0xe0, 0x3d,
 0xff, 0x1e, 0xc2, 0x3e, 0x9b, 0x4a, 0xbf, 0x3c, 0x44, 0xf1, 0x2a, 0xbf,
 0x9e, 0x60, 0x0c, 0x3d, 0xae, 0x95, 0x01, 0xbe, 0xc2, 0x48, 0x31, 0x3e,
 0x0c, 0xfa, 0x48, 0x3e, 0x07, 0x70, 0x1b, 0xbf, 0xe2, 0x0f, 0x32, 0xbe,
 0x37, 0x47, 0x00, 0x3f, 0xc3, 0x2a, 0x30, 0xbe, 0xc1, 0x63, 0xc4, 0xbd,
 0xfb, 0x0c, 0x40, 0xbe, 0xfc, 0x65, 0xaf, 0xbd, 0x13, 0xb8, 0x36, 0xbe,
 0x84, 0x10, 0x67, 0x3e, 0x31, 0xe6, 0x10, 0x3d, 0x6d, 0xfa, 0x2c, 0x3e,
 0x2f, 0x4e, 0x9f, 0x3d, 0xb4, 0xb1, 0x82, 0x3e, 0x8e, 0xc9, 0xb0, 0xbd,
 0x63, 0x8b, 0x1f, 0xbd, 0x94, 0x35, 0x63, 0xbd, 0x8b, 0x10, 0x33, 0x3e,
 0xf6, 0x5b, 0xea, 0xbd, 0xcb, 0x14, 0x98, 0xbe, 0x13, 0x0b, 0xed, 0x3d,
 0x02, 0x86, 0x96, 0x3d, 0x40, 0xe8, 0x03, 0xbe, 0x1c, 0xc6, 0x44, 0x3e,
 0xf4, 0xa3, 0x47, 0x3b, 0xf1, 0x12, 0x04, 0x3e, 0xbb, 0xd7, 0x11, 0xbe,
 0x88, 0x30, 0x63, 0xbd, 0x88, 0x4f, 0x20, 0x3e, 0x5e, 0x61, 0x8d, 0x3e,
 0xf3, 0x9d, 0x1c, 0xbe, 0x43, 0xfd, 0xa7, 0xbd, 0xd3, 0xaa, 0x9f, 0x3e,
 0x87, 0x5a, 0x8b, 0xbc, 0xd4, 0xad, 0x4e, 0xbe, 0xfb, 0x2f, 0x68, 0x3d,
 0x74, 0xfd, 0xce, 0x3e, 0xe2, 0x72, 0x2c, 0x3e, 0x7b, 0x8b, 0x19, 0xbe,
 0xed, 0xc8, 0x2e, 0xbe, 0x7f, 0xe9, 0x35, 0x3e, 0xb1, 0x83, 0x88, 0x3e,
 0x00, 0xee, 0x04, 0x3e, 0x8d, 0xc8, 0xb7, 0xbd, 0xad, 0x6c, 0x71, 0x3e,
 0xa5, 0x83, 0x66, 0xbd, 0xc4, 0xab, 0x6f, 0x3e, 0x20, 0xc2, 0xe7, 0x3c,
 0xf0, 0xad, 0x3b, 0x3d, 0xe5, 0x4b, 0x17, 0xbe, 0xfc, 0x04, 0xd8, 0xbd,
 0x48, 0xd9, 0x57, 0x3d, 0x78, 0x68, 0x75, 0x3d, 0xa4, 0x39, 0xe3, 0x3d,
 0x0a, 0x10, 0x32, 0xbe, 0x1d, 0xd7, 0x7a, 0xbe, 0xa4, 0xf7, 0x83, 0xbe,
 0x60, 0x92, 0x96, 0x3c, 0x08, 0x16, 0x80, 0xbd, 0xa2, 0x11, 0x9f, 0xbd,
 0x75, 0xa1, 0x80, 0xbe, 0xe0, 0xb3, 0x22, 0x3c, 0xb0, 0x6b, 0x48, 0xbe,
 0xb8, 0x98, 0x31, 0x3e, 0x32, 0x10, 0x1b, 0xbe, 0xa0, 0xc0, 0x14, 0x3c,
 0xc0, 0x57, 0xc2, 0x3b, 0x3a, 0x74, 0x14, 0x3e, 0x3c, 0x2c, 0x0c, 0xbe,
 0xb8, 0x02, 0x6d, 0x3d, 0x20, 0x94, 0x15, 0x3c, 0xe3, 0x32, 0x6b, 0xbe,
 0x0c, 0xf7, 0x6e, 0xbe, 0x2c, 0x76, 0x1b, 0x3e, 0x36, 0xb8, 0x96, 0xbd,
 0x7c, 0x78, 0x7f, 0x3e, 0xca, 0x94, 0xb3, 0xbd, 0xa4, 0xa7, 0x19, 0xbe,
 0x65, 0xcd, 0x81, 0xbe, 0x6a, 0x1d, 0x27, 0x3e, 0x18, 0xcb, 0x68, 0x3e,
 0x2c, 0xb6, 0x6e, 0x3e, 0xdc, 0x41, 0x42, 0xbd, 0x84, 0xc7, 0xab, 0xbd,
 0xf6, 0x34, 0xc1, 0xbd, 0xd6, 0x69, 0x94, 0xbd, 0x60, 0x23, 0xb9, 0x3c,
 0x9e, 0x3f, 0xe3, 0x3d, 0xb3, 0xfd, 0xa9, 0x3e, 0xfc, 0x4f, 0xda, 0x3d,
 0xc8, 0x75, 0x33, 0x3e, 0x97, 0xaf, 0x03, 0x3e, 0xab, 0x77, 0x8e, 0xbc,
 0x96, 0xc5, 0xd9, 0xbd, 0xc7, 0x03, 0x0a, 0xbf, 0x0d, 0xf9, 0x1e, 0xbf,
 0xdc, 0xc0, 0x43, 0xbe, 0x56, 0x57, 0xd4, 0xbd, 0xeb, 0xa0, 0x16, 0xbf,
 0xd0, 0xf6, 0xbc, 0x3e, 0xc3, 0x6a, 0x21, 0x3e, 0xd5, 0x68, 0x88, 0x3b,
 0x43, 0xc6, 0xb9, 0x3e, 0x25, 0x2c, 0x0e, 0x3f, 0x74, 0x00, 0x2c, 0xbd,
 0xe4, 0xf2, 0x3b, 0x3e, 0x9b, 0x4a, 0x61, 0x3f, 0xb1, 0x5d, 0x82, 0xbe,
 0x85, 0xb0, 0xd2, 0x3e, 0xdd, 0x24, 0xb2, 0xbd, 0x9b, 0x59, 0x01, 0xbe,
 0xae, 0xbd, 0x4d, 0xbe, 0xa0, 0x0a, 0xdd, 0xbe, 0xcb, 0xb0, 0x14, 0xbe,
 0xbb, 0xd4, 0x66, 0xbf, 0xe4, 0xe9, 0x53, 0x3f, 0x30, 0xd6, 0x1f, 0xbe,
 0x31, 0x98, 0xb9, 0x3e, 0xee, 0x1b, 0xcf, 0x3e, 0xa2, 0x50, 0x41, 0xbd,
 0xfe, 0xef, 0xd0, 0x3c, 0xd2, 0xee, 0x94, 0x3e, 0x76, 0x0b, 0xec, 0x3e,
 0xae, 0xb4, 0x1c, 0xbe, 0x7d, 0xbc, 0xa2, 0xbd, 0xd6, 0x96, 0xc1, 0xbe,
 0x1c, 0xe0, 0x1b, 0x3e, 0x74, 0x32, 0xf1, 0x3d, 0xea, 0xad, 0x71, 0x3e,
 0xc4, 0x81, 0x6e, 0x3e, 0x2e, 0x22, 0x68, 0x3d, 0x63, 0x0f, 0x88, 0xbd,
 0x8b, 0xa6, 0x27, 0x3d, 0x21, 0x31, 0x74, 0xbe, 0x2c, 0xae, 0x9e, 0x3d,
 0xbf, 0xd7, 0xad, 0x3d, 0x41, 0xd0, 0x68, 0x3e, 0x0e, 0x54, 0x19, 0xbe,
 0xdd, 0x06, 0x00, 0xbc, 0xe4, 0x03, 0x94, 0xbe, 0x0a, 0xea, 0x6b, 0xbd,
 0x30, 0x61, 0x0d, 0x3e, 0xe3, 0x06, 0x64, 0xbe, 0x80, 0xce, 0x3f, 0xbc,
 0xa8, 0x4d, 0x84, 0x3e, 0xfa, 0x01, 0x0c, 0x3e, 0x05, 0x56, 0x02, 0xbe,
 0xbe, 0xf8, 0x44, 0x3e, 0x9c, 0x61, 0xd2, 0xbc, 0xca, 0x9b, 0xc3, 0x3d,
 0x98, 0x5c, 0x35, 0x3e, 0x66, 0xf5, 0x32, 0x3e, 0x05, 0x5a, 0x07, 0x3d,
 0xb1, 0x36, 0x89, 0x3e, 0x13, 0xb3, 0x69, 0xbe, 0x43, 0xe2, 0x5b, 0xbe,
 0xeb, 0x8c, 0x27, 0xbe, 0x7a, 0x39, 0x14, 0xbd, 0x43, 0xaa, 0xb0, 0xbc,
 0xed, 0x67, 0x39, 0x3e, 0x6e, 0x1d, 0x3e, 0x3d, 0x9c, 0x4b, 0x9a, 0xbe,
 0x9b, 0xba, 0x82, 0x3e, 0xa3, 0x94, 0x23, 0xbb, 0x10, 0x92, 0xfa, 0xbc,
 0x78, 0xb7, 0x07, 0xbe, 0x06, 0xb0, 0xb6, 0xbd, 0xe5, 0x37, 0xde, 0xbd,
 0xeb, 0x7a, 0x39, 0x3e, 0x57, 0x57, 0x53, 0x3e, 0x2c, 0xe5, 0x24, 0xbd,
 0xa9, 0xe7, 0x73, 0x3e, 0x57, 0xf5, 0x1d, 0xbe, 0x1d, 0xc7, 0x10, 0x3e,
 0xc9, 0x57, 0x12, 0xbe, 0x58, 0xe5, 0xaa, 0x3b, 0x71, 0x2a, 0x0a, 0x3e,
 0xe7, 0xf8, 0x48, 0xbd, 0x67, 0x68, 0x77, 0x3e, 0x60, 0x5a, 0xa6, 0xbd,
 0x32, 0x86, 0x5a, 0x3e, 0x90, 0xc4, 0xbd, 0x3e, 0xf5, 0x1e, 0xfb, 0xbd,
 0x87, 0x14, 0x26, 0x3e, 0x61, 0xb3, 0x07, 0xbd, 0x09, 0x63, 0x09, 0xbe,
 0x69, 0xe5, 0x4c, 0xbd, 0x2b, 0xa6, 0x86, 0x3d, 0x1e, 0xb8, 0x70, 0xbd,
 0xc3, 0xa4, 0x11, 0x3e, 0xe2, 0xa1, 0xd6, 0x3c, 0xcf, 0xa5, 0x03, 0xbe,
 0x3f, 0x63, 0xaa, 0x3d, 0x39, 0x8c, 0x7a, 0xbc, 0x68, 0x3c, 0x9a, 0xbd,
 0x62, 0x39, 0xd3, 0x3d, 0xa1, 0xa9, 0x9c, 0x3e, 0x32, 0x1c, 0x25, 0x3e,
 0x9f, 0x9d, 0x55, 0xbe, 0x10, 0xbe, 0x0b, 0xbe, 0x70, 0x8e, 0x4c, 0x3e,
 0x4a, 0xd1, 0x1e, 0x3e, 0x8c, 0x09, 0x3d, 0x3d, 0x9c, 0x6a, 0x59, 0xbe,
 0x24, 0x16, 0x2f, 0xbe, 0x82, 0xbf, 0x72, 0xbe, 0x95, 0x89, 0x5d, 0x3c,
 0xe7, 0xf9, 0xe8, 0x3d, 0x1e, 0xe9, 0xe7, 0x3a, 0xad, 0xf4, 0x96, 0x3a,
 0xce, 0x20, 0x98, 0x3c, 0xf6, 0x18, 0xec, 0x3c, 0x79, 0x8b, 0x2a, 0x3e,
 0xbe, 0xb1, 0x92, 0x3d, 0x61, 0xdd, 0xb1, 0x3e, 0xfe, 0x56, 0x61, 0xbc,
 0x23, 0xd7, 0x9a, 0x3e, 0x57, 0xf7, 0x95, 0xbe, 0x32, 0x70, 0xfc, 0xbd,
 0x68, 0x5b, 0x55, 0xbd, 0xf6, 0x1b, 0xf8, 0xbd, 0x71, 0xdb, 0xc2, 0x3e,
 0xbb, 0x1d, 0x8f, 0x3e, 0xd8, 0x25, 0xde, 0x3e, 0x4c, 0xad, 0x3e, 0xbf,
 0x7d, 0xe7, 0x2d, 0x3f, 0x7a, 0x8a, 0x94, 0x3d, 0x1e, 0x88, 0xfe, 0x3e,
 0xa5, 0xcc, 0x94, 0xbe, 0xc1, 0x87, 0x0f, 0x3f, 0x8a, 0x1a, 0xa9, 0x3e,
 0xc1, 0xc5, 0x02, 0xbf, 0xce, 0x25, 0x8d, 0x3e, 0xde, 0xba, 0x6b, 0xbe,
 0xa4, 0xa8, 0x5d, 0x3d, 0x86, 0x5b, 0xf9, 0x3d, 0x8b, 0x39, 0x30, 0x3f,
 0xdc, 0x8d, 0x4e, 0xbe, 0xeb, 0x3f, 0xab, 0x3e, 0xa7, 0x62, 0xda, 0x3d,
 0xf8, 0x46, 0xcf, 0xbd, 0x2c, 0x24, 0x66, 0x3e, 0xac, 0xc8, 0xf5, 0xbe,
 0xa1, 0xc9, 0xc7, 0x3e, 0x21, 0x6b, 0xb2, 0xbe, 0x0e, 0x21, 0x88, 0x3d,
 0x28, 0x53, 0xbf, 0x3d, 0xd6, 0x30, 0x2a, 0x3e, 0x35, 0xa9, 0x5c, 0x3d,
 0x60, 0xcc, 0x99, 0xbe, 0x3a, 0x0f, 0x01, 0x3d, 0x78, 0xd1, 0xa8, 0x3d,
 0xfb, 0x1c, 0x44, 0x3e, 0x7f, 0xac, 0x71, 0xbe, 0xfb, 0xc1, 0x4e, 0x3e,
 0x75, 0x71, 0xda, 0xbd, 0xf9, 0x4c, 0x2e, 0xbe, 0xd3, 0xd3, 0xbf, 0xbd,
 0x78, 0x02, 0x91, 0x3e, 0xb4, 0xab, 0xc7, 0x3e, 0x03, 0xfa, 0x21, 0xbf,
 0x5d, 0x5a, 0xa2, 0x3e, 0xc8, 0x3e, 0xa1, 0xbd, 0x71, 0xc1, 0x82, 0x3d,
 0xf3, 0x0a, 0x8c, 0x3e, 0x21, 0x18, 0xba, 0xbd, 0xb5, 0xab, 0x2a, 0xbe,
 0x31, 0x42, 0x96, 0x3e, 0xe5, 0x15, 0x7e, 0x3c, 0xae, 0x44, 0x34, 0x3d,
 0xd4, 0x46, 0x69, 0x3e, 0xb9, 0xa3, 0x08, 0xbd, 0x7f, 0x74, 0xa4, 0xbd,
 0xd4, 0x31, 0x8a, 0xbf, 0x9e, 0x76, 0x84, 0xbd, 0x18, 0x94, 0xc4, 0x3e,
 0x99, 0x24, 0x69, 0x3e, 0x16, 0xf8, 0xd1, 0x3e, 0xda, 0x3c, 0x03, 0x3f,
 0x33, 0xf5, 0x7a, 0xbf, 0x6e, 0x7a, 0x49, 0xbf, 0x4d, 0xe5, 0x81, 0x3e,
 0xaf, 0x20, 0x13, 0xbe, 0xb6, 0xa6, 0x31, 0xbc, 0xd5, 0x48, 0xb3, 0x3e,
 0x76, 0x88, 0x50, 0x3f, 0xe3, 0xe8, 0xff, 0xbd, 0x44, 0x67, 0x96, 0x3d,
 0xe4, 0x8f, 0x01, 0x3d, 0x04, 0x66, 0x49, 0x3e, 0xc7, 0x3c, 0x63, 0x3e,
 0x0b, 0xe4, 0xa6, 0x3d, 0xa5, 0x3b, 0x68, 0x3e, 0x88, 0x54, 0x51, 0xbe,
 0x76, 0x8c, 0xc2, 0xbd, 0xa8, 0x79, 0x4a, 0xbe, 0xe8, 0x1b, 0xe5, 0x3d,
 0xf4, 0xf7, 0x1e, 0xbe, 0x37, 0x47, 0x30, 0xbe, 0x69, 0x70, 0x56, 0xbc,
 0xd7, 0x2b, 0x28, 0x3e, 0x60, 0x27, 0x64, 0x3e, 0x86, 0xc7, 0x75, 0xbd,
 0x19, 0x77, 0xe9, 0xbd, 0x51, 0x1f, 0x51, 0xbe, 0x25, 0x4b, 0x27, 0x3e,
 0xd0, 0xcc, 0x47, 0x3e, 0x24, 0x7f, 0x70, 0x3e, 0x33, 0x64, 0x84, 0xbe,
 0xce, 0x80, 0xdd, 0xbd, 0xe6, 0x1d, 0xd2, 0xbc, 0x5e, 0xa7, 0xaf, 0x3d,
 0x61, 0x9f, 0x38, 0xbe, 0x96, 0x53, 0x67, 0xbe, 0xfc, 0x78, 0x00, 0xbe,
 0x04, 0x89, 0x6e, 0x3e, 0x47, 0x71, 0xa2, 0xbd, 0xf0, 0x80, 0x75, 0xbe,
 0x6c, 0xbd, 0x02, 0x3e, 0x50, 0x03, 0x73, 0x3e, 0x48, 0x43, 0x7f, 0xbd,
 0x4e, 0x9c, 0x6e, 0xbd, 0xc4, 0x69, 0x59, 0xbe, 0xf0, 0x79, 0xb9, 0xbd,
 0x8f, 0xbc, 0x1f, 0x3e, 0xe2, 0xa6, 0x9e, 0x3d, 0x7b, 0xb9, 0x98, 0x3c,
 0xc6, 0xc2, 0x0b, 0xbe, 0x88, 0x40, 0x3a, 0x3e, 0x88, 0x7b, 0x0b, 0xbe,
 0x37, 0x50, 0x14, 0x3c, 0x7f, 0x9a, 0x1d, 0xbe, 0x57, 0xd9, 0x37, 0xbe,
 0x4a, 0x61, 0x7d, 0xbe, 0xae, 0x4a, 0xc1, 0xbd, 0xcf, 0x86, 0xbd, 0xbd,
 0x85, 0x55, 0x74, 0x3d, 0x52, 0xda, 0xc2, 0x3d, 0x95, 0x0f, 0x64, 0x3e,
 0x72, 0x55, 0xcc, 0x3d, 0x21, 0x09, 0xf2, 0x3d, 0x93, 0x05, 0x64, 0xbe,
 0xb4, 0x82, 0x35, 0xbe, 0x55, 0xa9, 0x58, 0xbe, 0x68, 0x96, 0x1a, 0xbe,
 0xf8, 0x6a, 0x15, 0x3e, 0xdf, 0x21, 0xb9, 0x3d, 0x81, 0x54, 0xf5, 0x3d,
 0x42, 0xb0, 0x1d, 0x3d, 0x82, 0xa8, 0xa8, 0x3d, 0x96, 0x71, 0x40, 0x3e,
 0x08, 0x27, 0xe1, 0x3d, 0x7c, 0x02, 0x7d, 0xbe, 0x5b, 0xea, 0x22, 0xbc,
 0x0a, 0xf6, 0x5a, 0xbd, 0x00, 0xfc, 0x2d, 0xbe, 0xaa, 0x3c, 0xa9, 0xbd,
 0x18, 0x41, 0x91, 0x3d, 0xc4, 0x05, 0xf1, 0x3d, 0x1e, 0x7f, 0x81, 0x3e,
 0x43, 0x92, 0x58, 0xbe, 0xa5, 0x0a, 0x8e, 0xbe, 0xdd, 0x4a, 0x3e, 0xbe,
 0x3c, 0xa9, 0x24, 0xbe, 0xd5, 0xaa, 0x71, 0x3e, 0x3f, 0xa6, 0xe3, 0xbd,
 0xc3, 0x85, 0x0f, 0xbe, 0x96, 0xb1, 0x01, 0xbd, 0x6e, 0x51, 0x4b, 0xbe,
 0xaf, 0x5d, 0x57, 0x3e, 0xe8, 0x47, 0x66, 0x3c, 0x40, 0x3f, 0x8d, 0xbc,
 0xee, 0x0e, 0x57, 0x3d, 0xdf, 0x2b, 0x00, 0x3e, 0x84, 0x3e, 0xc7, 0x3d,
 0x59, 0x46, 0x9f, 0x3d, 0x8d, 0x55, 0x9c, 0x3e, 0x1b, 0x8b, 0x35, 0xbd,
 0xff, 0x36, 0x60, 0xbd, 0xef, 0x46, 0x89, 0x3e, 0x70, 0x69, 0x38, 0x3d,
 0xe2, 0x97, 0x93, 0x3d, 0x71, 0x15, 0xb9, 0x3d, 0x47, 0x69, 0x1d, 0x3e,
 0x5c, 0x98, 0x80, 0x3e, 0x6c, 0x98, 0xac, 0xbd, 0x1d, 0xa5, 0xc9, 0xbd,
 0x72, 0x93, 0x1b, 0x3e, 0x31, 0x23, 0x12, 0xbd, 0xf3, 0x92, 0x47, 0x3e,
 0x5b, 0x4a, 0x82, 0x3d, 0x62, 0xff, 0x84, 0x3d, 0xfd, 0x40, 0x0f, 0x3e,
 0x20, 0xad, 0x54, 0xbd, 0x73, 0x7f, 0xc7, 0x3d, 0x9c, 0x0d, 0xed, 0x3c,
 0x1a, 0xb4, 0xda, 0x3c, 0x23, 0xcc, 0x7f, 0x3e, 0xe6, 0x07, 0x99, 0xbd,
 0x3d, 0x14, 0x23, 0x3e, 0xe8, 0x0b, 0x86, 0x3c, 0x3e, 0x7f, 0xa8, 0x3c,
 0x46, 0xc8, 0x33, 0x3e, 0xb0, 0x4a, 0xa5, 0x3d, 0xf7, 0x92, 0x3e, 0x3e,
 0x21, 0x8f, 0x1c, 0x3e, 0x66, 0x85, 0x82, 0x3e, 0x38, 0xcc, 0xf5, 0xbd,
 0x7c, 0xfd, 0x73, 0x3e, 0x10, 0x02, 0xc4, 0x3d, 0xf2, 0x49, 0x60, 0x3e,
 0xf0, 0x10, 0x69, 0x3d, 0xd9, 0xe7, 0x29, 0xbe, 0x10, 0x1a, 0xe9, 0x3d,
 0xb8, 0xf9, 0x9c, 0x3d, 0xf4, 0x2c, 0x18, 0x3e, 0x10, 0x65, 0x62, 0x3d,
 0x39, 0xd5, 0x77, 0xbe, 0x6e, 0x1c, 0x88, 0xbd, 0x14, 0xa2, 0xf5, 0xbd,
 0x54, 0x7a, 0x9a, 0x3d, 0x00, 0x80, 0xbd, 0xb8, 0x50, 0x97, 0x82, 0x3d,
 0x54, 0x5a, 0x86, 0x3e, 0x6c, 0xb3, 0x66, 0x3e, 0x56, 0x01, 0x43, 0xbe,
 0xaa, 0x70, 0x55, 0x3e, 0xbe, 0x1e, 0x85, 0x3e, 0x4c, 0xef, 0x0e, 0xbd,
 0x9c, 0xdf, 0x51, 0xbd, 0x22, 0xbc, 0x21, 0x3e, 0x5c, 0x5c, 0x7c, 0xbe,
 0x48, 0xc5, 0x74, 0x3e, 0x20, 0xa0, 0x86, 0x3e, 0xcc, 0x24, 0x7a, 0x3e,
 0xce, 0x9c, 0x02, 0xbe, 0xbe, 0xc6, 0xc3, 0xbd, 0x7c, 0x57, 0x73, 0xbe,
 0xac, 0x16, 0x10, 0x3e, 0x94, 0x11, 0x5d, 0xbd, 0x40, 0xc7, 0xb7, 0xbb,
 0x40, 0x18, 0x30, 0xbc, 0x60, 0xe4, 0x20, 0x3e, 0x5b, 0x9e, 0x89, 0xbe,
 0x3e, 0x68, 0x23, 0x3e, 0x58, 0xe4, 0x50, 0xbd, 0xd5, 0x2f, 0xe6, 0x3c,
 0x9d, 0x93, 0x2e, 0x3e, 0x8c, 0x7c, 0x6f, 0xbe, 0x65, 0x65, 0x53, 0x3e,
 0x31, 0x84, 0x46, 0x3e, 0x03, 0x18, 0x72, 0xbd, 0x90, 0x21, 0x92, 0xb8,
 0xd2, 0x34, 0xb0, 0xbd, 0xad, 0x56, 0xb9, 0x3d, 0xba, 0x3c, 0x64, 0x3e,
 0x90, 0x26, 0x4b, 0xbe, 0x33, 0xc6, 0xf6, 0xbc, 0x7f, 0x75, 0xfb, 0xbc,
 0x1f, 0xbf, 0x1d, 0xbe, 0xce, 0xa8, 0x7f, 0xbe, 0xda, 0x0d, 0x23, 0xbd,
 0x9f, 0x39, 0x08, 0x3d, 0xad, 0xaa, 0xc2, 0x3d, 0x62, 0xd1, 0x0a, 0x3c,
 0xe1, 0x10, 0xff, 0x3d, 0x12, 0xbc, 0x0f, 0xbe, 0x41, 0xd8, 0x11, 0xbe,
 0x59, 0x3c, 0x92, 0x3e, 0x68, 0x21, 0x41, 0xbc, 0x1a, 0x51, 0x80, 0xbe,
 0x58, 0x35, 0x64, 0x3e, 0xff, 0xcc, 0x3f, 0x3e, 0x97, 0xec, 0x96, 0x3e,
 0x7e, 0xac, 0x87, 0x3e, 0x8d, 0x3c, 0x2e, 0xbe, 0x04, 0x6b, 0x8a, 0xbd,
 0x2e, 0xd5, 0xde, 0xbc, 0x6d, 0xbb, 0x8f, 0xbe, 0xfb, 0x06, 0x81, 0x3c,
 0x98, 0xd9, 0xfc, 0x3d, 0xa0, 0xd7, 0xbf, 0x3d, 0x15, 0xfb, 0x41, 0x3c,
 0xd3, 0x8c, 0xa6, 0x3b, 0xaa, 0x2d, 0x79, 0xbe, 0x1b, 0xe9, 0x3b, 0x3e,
 0x8a, 0xd2, 0x1b, 0x3d, 0x73, 0x4f, 0x26, 0x3e, 0x6b, 0x26, 0x98, 0xbe,
 0x64, 0x1f, 0xd7, 0xbd, 0xc6, 0xa6, 0x21, 0x3d, 0x94, 0x17, 0x67, 0xbe,
 0xec, 0xfc, 0x5b, 0xbe, 0xda, 0x2b, 0xaa, 0xbd, 0xa8, 0x59, 0xfb, 0xbc,
 0xda, 0x83, 0x6e, 0xbe, 0xd0, 0x32, 0x8d, 0xbe, 0xd5, 0x0e, 0x15, 0xbf,
 0x48, 0xa9, 0xae, 0xbe, 0xc5, 0xeb, 0x0e, 0x3f, 0xba, 0x9a, 0x3c, 0xbd,
 0x7e, 0xe6, 0xf9, 0x3b, 0x61, 0x7e, 0x11, 0xbe, 0x5c, 0x7b, 0x6e, 0x3e,
 0xdf, 0x3e, 0x01, 0xbe, 0xfa, 0x79, 0xbd, 0x3e, 0x7a, 0x02, 0xf4, 0xba,
 0x88, 0x54, 0x6f, 0x3e, 0xd1, 0xc9, 0x03, 0x3f, 0x41, 0xe3, 0xc0, 0xbe,
 0x54, 0xba, 0x05, 0x3e, 0x0e, 0x83, 0x38, 0xbd, 0x1a, 0xb6, 0x02, 0xbe,
 0x87, 0x72, 0x76, 0xbe, 0x27, 0xa3, 0xad, 0xbe, 0xf3, 0xc5, 0xb9, 0x3e,
 0x63, 0x65, 0x3b, 0xbe, 0xf2, 0xbc, 0x61, 0x3d, 0x26, 0x8a, 0x4a, 0xbe,
 0xca, 0xc1, 0xf9, 0x3d, 0x4c, 0x5c, 0xe4, 0x3c, 0x55, 0x45, 0xdb, 0xbe,
 0x8d, 0xd2, 0xcf, 0x3e, 0x71, 0xd9, 0xb3, 0x3e, 0xc4, 0xd4, 0xff, 0xbd,
 0x29, 0x5a, 0x8f, 0xbe, 0x22, 0x0b, 0x2f, 0xbd, 0x71, 0x16, 0x20, 0x3c,
 0xf9, 0xbf, 0x2a, 0x3e, 0x8c, 0x33, 0x1c, 0x3e, 0xaf, 0xe0, 0xd9, 0x3d,
 0x1b, 0xfb, 0x5c, 0xbe, 0x59, 0x61, 0x6a, 0x3e, 0xd5, 0x90, 0x38, 0x3e,
 0x15, 0x1f, 0x0d, 0x3e, 0x08, 0xe0, 0x74, 0x3e, 0x81, 0x06, 0xf6, 0x3d,
 0xd3, 0xaa, 0xbd, 0xbc, 0x39, 0xd0, 0xb1, 0x3b, 0xb9, 0x23, 0x56, 0xbe,
 0x10, 0x1b, 0xc6, 0xbd, 0xa6, 0x03, 0x11, 0xbc, 0xbb, 0xa3, 0x6c, 0x3e,
 0x72, 0x77, 0x87, 0x3e, 0xe1, 0xa5, 0x6d, 0xbe, 0x2e, 0x37, 0xdb, 0x3d,
 0xd4, 0xa0, 0x88, 0xbe, 0xf5, 0xeb, 0xcf, 0x3e, 0xa7, 0x83, 0xca, 0xbd,
 0x74, 0x72, 0x53, 0x3e, 0x4b, 0x7e, 0xfb, 0xbd, 0x07, 0x0c, 0xdd, 0xbd,
 0xc5, 0xd2, 0x03, 0xbe, 0x20, 0x88, 0x17, 0x3e, 0xf0, 0x1a, 0xb2, 0xbd,
 0x8f, 0xcb, 0x3d, 0x3e, 0x72, 0xed, 0x95, 0x3e, 0x93, 0x34, 0xb7, 0xbd,
 0x93, 0xe6, 0x8f, 0x3c, 0xaf, 0x84, 0xa0, 0x3d, 0x9d, 0x9d, 0x5e, 0xbe,
 0x70, 0x1e, 0xbb, 0xbd, 0x11, 0xfe, 0x7b, 0xbe, 0x5c, 0xaf, 0xd3, 0xbd,
 0xab, 0xb7, 0x12, 0x3e, 0x35, 0x04, 0x3d, 0x3e, 0x9c, 0x7c, 0x1d, 0xbe,
 0xea, 0xc5, 0x34, 0x3e, 0x5a, 0xea, 0x7e, 0x3e, 0x2b, 0x7e, 0xa3, 0xbc,
 0x4a, 0x8e, 0x60, 0x3e, 0x10, 0x1f, 0x09, 0xbe, 0x21, 0x66, 0xd0, 0x3d,
 0x8b, 0x51, 0x57, 0xbe, 0x0d, 0x4f, 0x48, 0x3e, 0x9d, 0x3a, 0x2f, 0x3d,
 0xbd, 0xb0, 0x24, 0x3e, 0x02, 0x45, 0x3b, 0x3e, 0xa7, 0xa0, 0x95, 0x3d,
 0xa1, 0x24, 0x0e, 0x3e, 0x45, 0xe4, 0x12, 0xbe, 0xab, 0x43, 0x8b, 0x3e,
 0x26, 0x51, 0x54, 0x3e, 0xf0, 0x3b, 0x2f, 0x3c, 0xc6, 0xb5, 0x94, 0x3e,
 0x92, 0x99, 0x8a, 0x3e, 0xf6, 0xf5, 0x58, 0xbe, 0x05, 0x2b, 0x34, 0xbe,
 0xad, 0xb8, 0x03, 0x3e, 0x9a, 0x5a, 0x7b, 0x3d, 0x4f, 0x7e, 0x08, 0x3e,
 0xbc, 0xe4, 0x3f, 0x3e, 0x54, 0xaf, 0xa5, 0x3e, 0x71, 0xa4, 0x00, 0xbe,
 0x8d, 0x60, 0x36, 0xbd, 0xbb, 0xaf, 0xd2, 0x3c, 0xf6, 0xe9, 0x28, 0x3e,
 0x42, 0x7b, 0xd2, 0xbd, 0x05, 0x56, 0x82, 0xbc, 0x95, 0xd4, 0x57, 0x3e,
 0x30, 0x61, 0xed, 0x3d, 0x04, 0xfc, 0x61, 0xbe, 0x29, 0x65, 0x1f, 0x3e,
 0xee, 0xbb, 0x2d, 0xbd, 0xe4, 0xa3, 0xef, 0x3d, 0x0f, 0x00, 0x64, 0xbe,
 0x25, 0x29, 0xd8, 0xbd, 0xa6, 0xa5, 0x1a, 0x3d, 0xb1, 0x56, 0x86, 0xbe,
 0xd7, 0x22, 0xb0, 0x3d, 0x71, 0x42, 0x12, 0x3c, 0x31, 0x28, 0x19, 0xbe,
 0xee, 0x24, 0xcb, 0x3d, 0x99, 0xe5, 0x03, 0x3e, 0xa5, 0x40, 0x6e, 0xbd,
 0xeb, 0x8f, 0x5b, 0x3e, 0x99, 0x6d, 0x0c, 0xbe, 0x0a, 0xb6, 0x49, 0xbe,
 0x14, 0x1f, 0x83, 0xbc, 0x88, 0xc9, 0x51, 0x3e, 0xb0, 0xdf, 0x22, 0x3c,
 0x53, 0xd8, 0x8c, 0xbe, 0xf9, 0x41, 0x2b, 0x3e, 0x33, 0x8d, 0x73, 0x3e,
 0x6d, 0x6a, 0x64, 0xbd, 0x03, 0x73, 0x99, 0xbe, 0xc3, 0xd2, 0x96, 0x3e,
 0xc3, 0x1d, 0x5d, 0xbe, 0x8e, 0x27, 0xee, 0xbd, 0x88, 0xd1, 0x9b, 0x3d,
 0x6d, 0x34, 0x21, 0x3e, 0x24, 0x96, 0x9e, 0x3e, 0x03, 0xef, 0x9d, 0xbe,
 0x36, 0x2e, 0x35, 0xbe, 0x5a, 0xa4, 0xe1, 0x3c, 0x23, 0x71, 0x94, 0x3e,
 0x96, 0x6c, 0x28, 0xbd, 0x7f, 0x40, 0x5e, 0x3e, 0xa9, 0x01, 0x18, 0xbe,
 0x34, 0x57, 0x80, 0x3c, 0x24, 0x39, 0xef, 0x3d, 0x35, 0x33, 0x40, 0x3e,
 0x21, 0x10, 0x63, 0xbd, 0x32, 0xeb, 0x86, 0x3e, 0x03, 0x10, 0x7e, 0xbe,
 0x6b, 0x17, 0x28, 0xbe, 0x64, 0x3d, 0xaf, 0x3c, 0x0f, 0x36, 0x3d, 0xbe,
 0xd9, 0x7a, 0x70, 0x3e, 0xab, 0xe4, 0xa9, 0x3d, 0x96, 0x51, 0x3a, 0xbe,
 0x49, 0x84, 0x71, 0x3d, 0x56, 0x19, 0xaf, 0x3c, 0x3c, 0xf2, 0x70, 0xbe,
 0x80, 0xe4, 0x12, 0xbb, 0x9e, 0xc2, 0xd5, 0x3d, 0x1f, 0x43, 0xb7, 0x3c,
 0xd6, 0x67, 0xfc, 0xbd, 0x9c, 0xcf, 0x66, 0xbd, 0x1d, 0x4f, 0x7b, 0x3e,
 0x6c, 0xf8, 0x04, 0x3d, 0x0e, 0xea, 0xf2, 0xbd, 0xdf, 0xb5, 0x5e, 0xbd,
 0x0e, 0x91, 0x4c, 0xbe, 0xfe, 0x2e, 0x46, 0xbe, 0xc6, 0x15, 0x8b, 0xbd,
 0xde, 0xc7, 0x1d, 0x3e, 0xe8, 0x60, 0xa8, 0xbd, 0x2d, 0x8b, 0x60, 0x3e,
 0xf4, 0x11, 0xa8, 0x3d, 0xc0, 0x6b, 0x8e, 0x3e, 0x66, 0x24, 0xbb, 0xbc,
 0x73, 0x61, 0x4a, 0x3e, 0x8e, 0x1b, 0xeb, 0x3d, 0xd0, 0xa3, 0x6c, 0x3e,
 0xb5, 0x2b, 0x87, 0x3e, 0x07, 0x08, 0xd9, 0x3d, 0xa6, 0xee, 0xc9, 0x3d,
 0xa2, 0xb5, 0x99, 0xbd, 0xbf, 0x84, 0xe4, 0x3d, 0x89, 0xf9, 0x5d, 0x3e,
 0xea, 0x96, 0x8d, 0x3e, 0x4b, 0x33, 0xfd, 0x3d, 0x74, 0x4a, 0xef, 0x3c,
 0x5d, 0xc5, 0x21, 0x3e, 0x14, 0x2f, 0xff, 0xbd, 0x65, 0x9b, 0x10, 0x3d,
 0x92, 0x0c, 0x3a, 0xbe, 0x61, 0x48, 0x22, 0x3e, 0x6c, 0xa6, 0x69, 0x3d,
 0xd2, 0x17, 0x23, 0xbe, 0xc6, 0x79, 0x33, 0xbc, 0x9b, 0x1a, 0xef, 0xbd,
 0x1d, 0x7f, 0x3b, 0x3e, 0xf9, 0xbd, 0x30, 0xbe, 0x57, 0x3b, 0x98, 0xbe,
 0x22, 0xbe, 0x90, 0xbe, 0xd7, 0xa3, 0x40, 0xbe, 0x53, 0x58, 0x95, 0xbd,
 0xd1, 0x03, 0x10, 0x3d, 0xd7, 0x37, 0x1c, 0x3e, 0xd6, 0x7f, 0x59, 0x3e,
 0x84, 0xe1, 0xf4, 0x3d, 0x4f, 0x4b, 0x98, 0xbe, 0x3c, 0x42, 0x6c, 0x3e,
 0xea, 0x7e, 0x59, 0xbe, 0x20, 0xe8, 0x8d, 0xbe, 0x62, 0x24, 0x21, 0xbe,
 0x4f, 0x38, 0x82, 0xbe, 0xa3, 0x1f, 0x5e, 0x3e, 0xbb, 0xf2, 0xe9, 0xbd,
 0x97, 0xd4, 0x59, 0xbd, 0x08, 0x53, 0x8d, 0x3d, 0x87, 0xc9, 0x15, 0xbe,
 0xfc, 0xd4, 0x30, 0xbe, 0xc9, 0xc5, 0x46, 0xbe, 0x77, 0x58, 0x84, 0x3e,
 0xdf, 0x7f, 0xe0, 0x3d, 0xb0, 0x20, 0x99, 0xbd, 0x47, 0xc2, 0xed, 0x3d,
 0x31, 0x61, 0xa3, 0x3d, 0x49, 0x07, 0x42, 0x3e, 0xfe, 0x05, 0x32, 0x3e,
 0x51, 0x10, 0xa8, 0x3e, 0xf8, 0xd1, 0x1f, 0xba, 0xe7, 0x3d, 0x20, 0xbe,
 0xe7, 0xb9, 0x88, 0x3e, 0x16, 0xfd, 0x99, 0xbd, 0x5b, 0x51, 0x15, 0xbe,
 0x0a, 0xd7, 0x8c, 0x3e, 0x04, 0xaa, 0x41, 0xbe, 0x53, 0x38, 0x69, 0x3e,
 0x49, 0x03, 0x7f, 0x3c, 0xfa, 0x81, 0x74, 0x3e, 0xd5, 0x99, 0xe8, 0x3d,
 0x37, 0x78, 0x6b, 0x3d, 0x0c, 0x1e, 0x66, 0xbe, 0x88, 0x7d, 0x95, 0xbc,
 0x71, 0x95, 0x84, 0x3e, 0x81, 0x37, 0x3e, 0x3e, 0xdb, 0x45, 0x12, 0x3e,
 0x3e, 0x2a, 0x38, 0xbe, 0xe9, 0xb1, 0x22, 0xbe, 0x7b, 0xd5, 0x3d, 0x3e,
 0xc3, 0xf9, 0x2f, 0x3d, 0xe2, 0x05, 0x77, 0x3d, 0xf9, 0xd9, 0xaa, 0xbd,
 0x0b, 0x20, 0xed, 0x3c, 0x83, 0xe3, 0x46, 0x3e, 0x1a, 0x3f, 0x81, 0x3e,
 0x7f, 0x10, 0x70, 0xbb, 0x4f, 0x8c, 0x23, 0x3e, 0xc4, 0x38, 0x1a, 0xbe,
 0xe9, 0x93, 0x3f, 0xbe, 0x73, 0x5b, 0x5b, 0xbe, 0x36, 0x02, 0xd4, 0xbd,
 0xc5, 0xfd, 0x1a, 0x3e, 0xc2, 0x0e, 0x73, 0xbe, 0x8b, 0x2d, 0x24, 0x3e,
 0x54, 0x02, 0x56, 0xbe, 0xee, 0xd7, 0xe6, 0x3d, 0x2e, 0x5c, 0xa0, 0xbc,
 0x2c, 0xde, 0x02, 0x3e, 0xf0, 0x15, 0xa2, 0x3c, 0xfe, 0xe6, 0x76, 0xbe,
 0xc8, 0x73, 0xb6, 0x3d, 0xb4, 0xb2, 0x5f, 0x3e, 0x37, 0xb6, 0x09, 0xbe,
 0x94, 0x2d, 0x81, 0x3d, 0xda, 0x95, 0xf1, 0xbd, 0xf0, 0xfb, 0xd4, 0xbd,
 0x10, 0x75, 0xd4, 0x3d, 0xf0, 0xcb, 0x35, 0x3e, 0x2a, 0xc0, 0x7c, 0xbe,
 0x86, 0xa8, 0x63, 0x3e, 0x2e, 0x52, 0x23, 0x3e, 0x41, 0x49, 0x22, 0xbe,
 0x8e, 0x62, 0x43, 0x3e, 0x8a, 0x33, 0x84, 0x3e, 0x18, 0x78, 0xc1, 0x3d,
 0x6e, 0xbd, 0x4b, 0x3e, 0x40, 0x04, 0x7b, 0xbd, 0x10, 0x1d, 0x35, 0xbd,
 0xc6, 0xfb, 0xf0, 0xbd, 0x60, 0xa9, 0xa5, 0xbd, 0xf7, 0x24, 0x74, 0xbe,
 0xbc, 0x05, 0x80, 0xbe, 0x66, 0xa7, 0xeb, 0xbd, 0x4d, 0x0d, 0x83, 0xbe,
 0x96, 0x40, 0x55, 0xbe, 0x62, 0x6d, 0x40, 0x3e, 0x75, 0x35, 0x32, 0xbe,
 0xec, 0x16, 0xf5, 0xbd, 0x20, 0xf5, 0xb6, 0xbd, 0x20, 0xde, 0x56, 0x3c,
 0xd8, 0x42, 0xcf, 0x3d, 0xa0, 0xa8, 0x78, 0xbe, 0x93, 0x15, 0x10, 0xbe,
 0x0c, 0xd8, 0x77, 0xbe, 0x14, 0x66, 0x87, 0x3d, 0x80, 0x2a, 0xd4, 0x3d,
 0xf8, 0xfc, 0xb5, 0x3d, 0xbc, 0x6c, 0x26, 0x3e, 0x6c, 0xb4, 0xe1, 0xbd,
 0x48, 0xc7, 0x61, 0xbe, 0x20, 0x0e, 0x74, 0x3e, 0x10, 0xf3, 0x68, 0xbe,
 0xa5, 0x15, 0x22, 0x3e, 0x97, 0xcd, 0x07, 0xbe, 0xa3, 0x34, 0x6c, 0xbe,
 0x90, 0x91, 0x86, 0xbd, 0x14, 0x60, 0xed, 0xbd, 0x3d, 0xa5, 0x41, 0x3d,
 0x3e, 0x57, 0x76, 0xbe, 0xcb, 0x74, 0x5f, 0x3e, 0xb8, 0x3b, 0x32, 0x3e,
 0x50, 0x75, 0x47, 0xbe, 0x67, 0x15, 0x69, 0x3e, 0x32, 0xa2, 0xd8, 0x3d,
 0x7b, 0xc1, 0x4f, 0x3e, 0x59, 0x77, 0x56, 0xbe, 0xa2, 0x84, 0x35, 0x3d,
 0xaa, 0x4c, 0x15, 0x3e, 0xdd, 0xb6, 0x0b, 0x3e, 0x55, 0x86, 0x34, 0xbe,
 0xaf, 0x38, 0x48, 0x3a, 0x76, 0x30, 0xd6, 0x3d, 0x8d, 0xf1, 0x84, 0x3e,
 0x9d, 0x45, 0x50, 0xbe, 0xff, 0xe9, 0x7c, 0x3e, 0xa5, 0x59, 0x1c, 0x3e,
 0x3b, 0x24, 0x16, 0xbe, 0xc1, 0x6a, 0x6d, 0x3e, 0x0f, 0x74, 0xdb, 0xbd,
 0x08, 0x0f, 0x12, 0xbb, 0x47, 0xdc, 0x6a, 0x3d, 0xcd, 0x3d, 0x49, 0xbd,
 0xcd, 0xe0, 0xfd, 0xbc, 0x75, 0xa5, 0x58, 0x3e, 0x71, 0x53, 0x1f, 0xbe,
 0x53, 0xb3, 0x64, 0xbe, 0xd0, 0x85, 0xb7, 0xbd, 0x60, 0x24, 0x4c, 0xbb,
 0x1b, 0x0d, 0xda, 0x3c, 0x76, 0x5b, 0xae, 0x3d, 0x10, 0xdc, 0x17, 0xbe,
 0x58, 0x18, 0x2e, 0x3e, 0xd4, 0x9a, 0x8a, 0xbe, 0xcc, 0xd0, 0x7f, 0xbd,
 0x9c, 0x2d, 0xe1, 0xbd, 0x86, 0x29, 0x82, 0xbe, 0x28, 0xc9, 0x62, 0xbe,
 0xe6, 0x9a, 0xf4, 0xbd, 0x31, 0xc0, 0x18, 0xbe, 0x76, 0x77, 0x38, 0x3e,
 0x82, 0x74, 0x8b, 0x3e, 0x20, 0xca, 0x13, 0xbe, 0x4c, 0x31, 0x74, 0xbd,
 0x73, 0xd8, 0x63, 0xbe, 0xd8, 0xc8, 0x70, 0x3d, 0xb0, 0x30, 0xa3, 0x3d,
 0x22, 0xc9, 0x43, 0xbe, 0xc0, 0x57, 0x13, 0xbc, 0xa0, 0x6f, 0x98, 0x3d,
 0xc8, 0xdf, 0xcf, 0xbc, 0x80, 0x0d, 0xd7, 0x3c, 0x18, 0x9a, 0xc3, 0x3d,
 0x6e, 0x21, 0x8c, 0xbd, 0xe0, 0x08, 0xf7, 0x3d, 0x70, 0xc0, 0x92, 0x3c,
 0x60, 0x35, 0x0e, 0xbe, 0xfc, 0xac, 0x92, 0x3d, 0x4e, 0xe1, 0x45, 0xbe,
 0xbe, 0xa6, 0x4a, 0x3e, 0xa6, 0xd5, 0x43, 0x3e, 0x30, 0x8c, 0xbc, 0xbc,
 0xe8, 0xd2, 0x0a, 0xbd, 0xf2, 0x17, 0x86, 0x3e, 0xd7, 0x60, 0x22, 0xbe,
 0x2b, 0x08, 0x0c, 0xbe, 0x1c, 0xdd, 0x8a, 0x3d, 0xa4, 0x21, 0x7b, 0xbe,
 0x50, 0x7e, 0xf2, 0x3c, 0x10, 0x1e, 0xd1, 0x3d, 0xf2, 0x3a, 0xca, 0xbd,
 0x58, 0x22, 0x10, 0x3e, 0x6b, 0x31, 0x4b, 0x3d, 0xb4, 0x2a, 0xca, 0xbd,
 0xe8, 0x06, 0xa6, 0xbd, 0xc6, 0x3f, 0xe5, 0xbc, 0x44, 0xea, 0x2a, 0xbe,
 0x55, 0x84, 0xa6, 0xbe, 0xb9, 0x60, 0x3d, 0xbe, 0xc7, 0x59, 0xd6, 0xbe,
 0xa9, 0x21, 0x15, 0xbe, 0xc6, 0xbd, 0x11, 0xbe, 0xde, 0x3b, 0x88, 0x3c,
 0xfc, 0xf7, 0xaa, 0xbe, 0x85, 0x5b, 0x2a, 0x3d, 0x11, 0xa9, 0x88, 0x3e,
 0xa1, 0xd8, 0xd8, 0x3d, 0xb8, 0x30, 0x60, 0xbe, 0x81, 0x0c, 0x4d, 0x3c,
 0xdc, 0x84, 0xa4, 0xbe, 0xe6, 0x12, 0x35, 0xbe, 0x13, 0x02, 0x3d, 0xbc,
 0xc8, 0x51, 0x58, 0xbe, 0x83, 0x91, 0x82, 0x3d, 0xda, 0x41, 0xac, 0xbe,
 0x8d, 0x82, 0x8f, 0xbe, 0x97, 0x78, 0x85, 0xbe, 0x54, 0x18, 0x89, 0xbf,
 0x5c, 0xd9, 0xbe, 0xbe, 0xe3, 0xe4, 0x8b, 0xbf, 0xd4, 0xa4, 0x55, 0xbc,
 0x73, 0xfc, 0x06, 0x3e, 0xd6, 0x86, 0x68, 0x3c, 0x55, 0xae, 0x16, 0x3e,
 0xfa, 0x0b, 0xfa, 0xbd, 0x5a, 0x7a, 0x0c, 0xbf, 0x78, 0x2a, 0x1c, 0xbf,
 0xbd, 0xe8, 0xc0, 0x3e, 0x5b, 0xab, 0xdf, 0xbd, 0x43, 0xaf, 0x9f, 0xbe,
 0xe0, 0xea, 0x37, 0xbf, 0xd9, 0x28, 0x72, 0xbd, 0x36, 0xfd, 0xcc, 0xbd,
 0x55, 0x1f, 0xd4, 0x3c, 0x43, 0x31, 0x4e, 0x3e, 0x9d, 0xf1, 0x61, 0x3d,
 0xd1, 0xd4, 0xe3, 0x3c, 0x6d, 0xf6, 0xac, 0xbd, 0x31, 0x13, 0x75, 0xbe,
 0x86, 0xe2, 0x68, 0x3e, 0x26, 0x84, 0x65, 0xbe, 0xac, 0x4c, 0x7a, 0xbe,
 0xc5, 0x2c, 0xf2, 0xbd, 0x33, 0x9d, 0x27, 0x3e, 0x6f, 0x19, 0x3b, 0xbe,
 0xbf, 0xea, 0xca, 0xbd, 0x9d, 0xa7, 0x3d, 0xbe, 0x9b, 0x33, 0x74, 0xbe,
 0x20, 0x16, 0xa3, 0xbe, 0x3c, 0xe7, 0x69, 0xbc, 0xe5, 0x3c, 0x9a, 0xbd,
 0x8b, 0xd1, 0x3e, 0x3e, 0x15, 0x63, 0x5b, 0x3e, 0x45, 0x81, 0xcd, 0x3d,
 0x76, 0xe1, 0x33, 0x3d, 0x72, 0x37, 0xaf, 0x3d, 0x95, 0x6e, 0x5c, 0x3c,
 0x85, 0x9c, 0xbb, 0xbd, 0x55, 0xaf, 0xf3, 0xbd, 0xa0, 0xf6, 0x34, 0xbb,
 0xc9, 0xd0, 0xa3, 0x3c, 0x22, 0x95, 0x21, 0x3e, 0x8b, 0x6a, 0x36, 0x3c,
 0x41, 0xb0, 0x03, 0xbe, 0x1b, 0xd7, 0x33, 0xbc, 0x70, 0xb9, 0xb8, 0x3d,
 0x57, 0x5e, 0xc2, 0xbd, 0x13, 0x4b, 0xfb, 0x3d, 0x03, 0xaf, 0x7f, 0x3c,
 0xf1, 0x27, 0x20, 0xbe, 0xb4, 0x74, 0x7d, 0xbe, 0x7c, 0x3b, 0xef, 0xbb,
 0x36, 0xd2, 0xff, 0x3d, 0x54, 0xa4, 0xda, 0xbb, 0x34, 0xe4, 0x3a, 0xbe,
 0x55, 0x95, 0xa8, 0x3e, 0xb3, 0x82, 0x9c, 0xbd, 0x68, 0xca, 0xce, 0x3e,
 0x21, 0xfd, 0xca, 0xbc, 0x00, 0x2e, 0x5b, 0x3e, 0xbe, 0xff, 0xb7, 0xbe,
 0x3b, 0x25, 0x09, 0xbf, 0x4d, 0xb6, 0x9d, 0x3e, 0x58, 0xfc, 0x15, 0x3e,
 0x29, 0x3c, 0xf8, 0xbe, 0xd8, 0xf9, 0x95, 0xbe, 0x0a, 0xba, 0x84, 0xbe,
 0x30, 0x70, 0xc1, 0xbe, 0xff, 0x0e, 0x90, 0x3e, 0x73, 0x17, 0xd3, 0xbe,
 0xea, 0x45, 0xf0, 0xbd, 0xf7, 0x9c, 0xef, 0xbe, 0xdd, 0xa8, 0xa4, 0x3c,
 0xda, 0xfe, 0x99, 0xbe, 0xf0, 0xe8, 0x77, 0xbe, 0x8c, 0x8b, 0x79, 0xbe,
 0x6b, 0x23, 0x0a, 0xbf, 0xb0, 0xcf, 0x0a, 0x3f, 0x51, 0xfa, 0x92, 0xbe,
 0x32, 0xe6, 0x36, 0xbe, 0x42, 0x98, 0x37, 0xbe, 0x63, 0x5f, 0x82, 0xbe,
 0x3b, 0xaf, 0x45, 0xbf, 0x0f, 0xa5, 0x94, 0xbe, 0xd7, 0x15, 0x54, 0x3e,
 0xc3, 0xe2, 0x7b, 0xbe, 0x0c, 0xfe, 0x0d, 0x3f, 0xdf, 0xbf, 0x98, 0x3e,
 0x5b, 0x8b, 0xee, 0xbc, 0x6d, 0xc4, 0x8d, 0xbe, 0xd0, 0x53, 0x98, 0x3e,
 0x2f, 0xed, 0x80, 0xbd, 0x08, 0xb0, 0x21, 0xbd, 0xc7, 0xeb, 0x86, 0xbe,
 0x32, 0x34, 0x7c, 0xbd, 0x5f, 0x95, 0x27, 0xbe, 0xc6, 0x33, 0x57, 0xbd,
 0x01, 0x39, 0x02, 0xbe, 0xf2, 0x2c, 0x1d, 0xbd, 0xa4, 0x2f, 0xcc, 0x3e,
 0x11, 0x8f, 0x04, 0xbd, 0xd3, 0x88, 0xd8, 0xbd, 0xe9, 0x03, 0xbd, 0xbe,
 0x18, 0xc7, 0x9c, 0xbd, 0x52, 0x36, 0x67, 0xbd, 0xcf, 0xba, 0xf2, 0x3e,
 0x50, 0x7a, 0x50, 0xbe, 0x89, 0xbf, 0x82, 0x3e, 0xcc, 0xad, 0x96, 0x3e,
 0xad, 0x68, 0x7f, 0xbd, 0xa8, 0xed, 0xad, 0x3d, 0xae, 0x66, 0x00, 0xbe,
 0x8a, 0x17, 0xb9, 0x3e, 0x19, 0xa5, 0xf5, 0x3e, 0x20, 0xbc, 0x17, 0x3e,
 0x25, 0x77, 0x16, 0xbf, 0x3b, 0x5d, 0x97, 0x3c, 0x1c, 0x10, 0xd1, 0x3e,
 0xa2, 0x47, 0xcb, 0x3e, 0x13, 0xcd, 0xb5, 0x3e, 0xf6, 0x70, 0x99, 0xbe,
 0x4d, 0x98, 0x08, 0xbd, 0x04, 0xe3, 0x64, 0xbd, 0xb2, 0x13, 0xf6, 0xbc,
 0xef, 0x50, 0x8b, 0xbf, 0x3d, 0x25, 0x89, 0xbe, 0x86, 0x85, 0xba, 0x3e,
 0xf3, 0x2f, 0x91, 0xbe, 0x4c, 0xb0, 0x17, 0x3f, 0x44, 0xdb, 0x39, 0x3e,
 0xf4, 0xe1, 0x30, 0xbe, 0x01, 0x3b, 0x4d, 0xbe, 0x52, 0xff, 0xff, 0xff,
 0x04, 0x00, 0x00, 0x00, 0xa0, 0x00, 0x00, 0x00, 0x6b, 0x20, 0x12, 0xbe,
 0x8b, 0x25, 0x90, 0x3d, 0xee, 0x2c, 0x0d, 0xbe, 0xc3, 0x86, 0xfc, 0x3d,
 0x4c, 0xb6, 0xd0, 0xbc, 0xc8, 0xd4, 0xbc, 0x3d, 0x8d, 0x8b, 0x1e, 0xbe,
 0xca, 0xbc, 0x83, 0x3d, 0xec, 0xce, 0xd2, 0xbb, 0x50, 0x85, 0xd8, 0x3c,
 0x00, 0x00, 0x00, 0x00, 0x82, 0x6c, 0x02, 0x3c, 0x50, 0x94, 0x08, 0xbe,
 0x6d, 0x2a, 0x09, 0xbd, 0x12, 0xd6, 0xfc, 0x3d, 0x00, 0x00, 0x00, 0x00,
 0xba, 0xc1, 0x30, 0xbd, 0x6b, 0xae, 0xea, 0x3c, 0xaf, 0x8f, 0xed, 0x3d,
 0xbd, 0x45, 0x1d, 0xbd, 0x3b, 0xdf, 0x59, 0x3c, 0x32, 0xc3, 0xf8, 0x3d,
 0xa1, 0x09, 0x08, 0xbc, 0x1e, 0x18, 0x0e, 0xbe, 0x00, 0x00, 0x00, 0x00,
 0x09, 0x9b, 0x17, 0xbe, 0x33, 0xbf, 0x42, 0x3e, 0xff, 0x16, 0xfe, 0x3d,
 0x7e, 0x23, 0xed, 0x3d, 0xff, 0xae, 0x16, 0xbe, 0x8b, 0xa4, 0x8b, 0xbc,
 0x60, 0x20, 0x0c, 0xbc, 0x84, 0xe9, 0xe1, 0x3c, 0x00, 0x00, 0x00, 0x00,
 0xb2, 0xc5, 0xfd, 0x3d, 0x00, 0x00, 0x00, 0x00, 0xce, 0x6d, 0xd8, 0x3d,
 0xe9, 0x25, 0x0e, 0xbe, 0xb1, 0xea, 0x3c, 0x3d, 0x14, 0xee, 0x37, 0x3c,
 0x00, 0x00, 0x06, 0x00, 0x08, 0x00, 0x04, 0x00, 0x06, 0x00, 0x00, 0x00,
 0x04, 0x00, 0x00, 0x00, 0x04, 0x00, 0x00, 0x00, 0x50, 0x02, 0x09, 0x3e,
 0xe4, 0xfb, 0xff, 0xff, 0xe8, 0xfb, 0xff, 0xff, 0x0f, 0x00, 0x00, 0x00,
 0x4d, 0x4c, 0x49, 0x52, 0x20, 0x43, 0x6f, 0x6e, 0x76, 0x65, 0x72, 0x74,
 0x65, 0x64, 0x2e, 0x00, 0x01, 0x00, 0x00, 0x00, 0x14, 0x00, 0x00, 0x00,
 0x00, 0x00, 0x0e, 0x00, 0x18, 0x00, 0x14, 0x00, 0x10, 0x00, 0x0c, 0x00,
 0x08, 0x00, 0x04, 0x00, 0x0e, 0x00, 0x00, 0x00, 0x14, 0x00, 0x00, 0x00,
 0x1c, 0x00, 0x00, 0x00, 0xd0, 0x00, 0x00, 0x00, 0xd4, 0x00, 0x00, 0x00,
 0xd8, 0x00, 0x00, 0x00, 0x04, 0x00, 0x00, 0x00, 0x6d, 0x61, 0x69, 0x6e,
 0x00, 0x00, 0x00, 0x00, 0x03, 0x00, 0x00, 0x00, 0x78, 0x00, 0x00, 0x00,
 0x34, 0x00, 0x00, 0x00, 0x10, 0x00, 0x00, 0x00, 0x00, 0x00, 0x0a, 0x00,
 0x10, 0x00, 0x0c, 0x00, 0x08, 0x00, 0x04, 0x00, 0x0a, 0x00, 0x00, 0x00,
 0x0c, 0x00, 0x00, 0x00, 0x10, 0x00, 0x00, 0x00, 0x01, 0x00, 0x00, 0x00,
 0x01, 0x00, 0x00, 0x00, 0x07, 0x00, 0x00, 0x00, 0x01, 0x00, 0x00, 0x00,
 0x06, 0x00, 0x00, 0x00, 0xce, 0xff, 0xff, 0xff, 0x10, 0x00, 0x00, 0x00,
 0x00, 0x00, 0x00, 0x08, 0x0c, 0x00, 0x00, 0x00, 0x10, 0x00, 0x00, 0x00,
 0x8c, 0xfc, 0xff, 0xff, 0x01, 0x00, 0x00, 0x00, 0x06, 0x00, 0x00, 0x00,
 0x03, 0x00, 0x00, 0x00, 0x05, 0x00, 0x00, 0x00, 0x04, 0x00, 0x00, 0x00,
 0x01, 0x00, 0x00, 0x00, 0x00, 0x00, 0x0e, 0x00, 0x16, 0x00, 0x00, 0x00,
 0x10, 0x00, 0x0c, 0x00, 0x0b, 0x00, 0x04, 0x00, 0x0e, 0x00, 0x00, 0x00,
 0x18, 0x00, 0x00, 0x00, 0x00, 0x00, 0x00, 0x08, 0x18, 0x00, 0x00, 0x00,
 0x1c, 0x00, 0x00, 0x00, 0x00, 0x00, 0x06, 0x00, 0x08, 0x00, 0x07, 0x00,
 0x06, 0x00, 0x00, 0x00, 0x00, 0x00, 0x00, 0x01, 0x01, 0x00, 0x00, 0x00,
 0x05, 0x00, 0x00, 0x00, 0x03, 0x00, 0x00, 0x00, 0x00, 0x00, 0x00, 0x00,
 0x03, 0x00, 0x00, 0x00, 0x02, 0x00, 0x00, 0x00, 0x01, 0x00, 0x00, 0x00,
 0x07, 0x00, 0x00, 0x00, 0x01, 0x00, 0x00, 0x00, 0x00, 0x00, 0x00, 0x00,
 0x08, 0x00, 0x00, 0x00, 0xd0, 0x02, 0x00, 0x00, 0x60, 0x02, 0x00, 0x00,
 0xf4, 0x01, 0x00, 0x00, 0xac, 0x01, 0x00, 0x00, 0x60, 0x01, 0x00, 0x00,
 0xd8, 0x00, 0x00, 0x00, 0x60, 0x00, 0x00, 0x00, 0x04, 0x00, 0x00, 0x00,
 0x66, 0xfd, 0xff, 0xff, 0x00, 0x00, 0x00, 0x01, 0x14, 0x00, 0x00, 0x00,
 0x1c, 0x00, 0x00, 0x00, 0x1c, 0x00, 0x00, 0x00, 0x08, 0x00, 0x00, 0x00,
 0x34, 0x00, 0x00, 0x00, 0x02, 0x00, 0x00, 0x00, 0xff, 0xff, 0xff, 0xff,
 0x01, 0x00, 0x00, 0x00, 0x50, 0xfd, 0xff, 0xff, 0x19, 0x00, 0x00, 0x00,
 0x53, 0x74, 0x61, 0x74, 0x65, 0x66, 0x75, 0x6c, 0x50, 0x61, 0x72, 0x74,
 0x69, 0x74, 0x69, 0x6f, 0x6e, 0x65, 0x64, 0x43, 0x61, 0x6c, 0x6c, 0x3a,
 0x30, 0x00, 0x00, 0x00, 0x02, 0x00, 0x00, 0x00, 0x01, 0x00, 0x00, 0x00,
 0x01, 0x00, 0x00, 0x00, 0xbe, 0xfd, 0xff, 0xff, 0x00, 0x00, 0x00, 0x01,
 0x14, 0x00, 0x00, 0x00, 0x1c, 0x00, 0x00, 0x00, 0x1c, 0x00, 0x00, 0x00,
 0x07, 0x00, 0x00, 0x00, 0x50, 0x00, 0x00, 0x00, 0x02, 0x00, 0x00, 0x00,
 0xff, 0xff, 0xff, 0xff, 0x01, 0x00, 0x00, 0x00, 0xa8, 0xfd, 0xff, 0xff,
 0x34, 0x00, 0x00, 0x00, 0x73, 0x65, 0x71, 0x75, 0x65, 0x6e, 0x74, 0x69,
 0x61, 0x6c, 0x2f, 0x64, 0x65, 0x6e, 0x73, 0x65, 0x5f, 0x31, 0x2f, 0x4d,
 0x61, 0x74, 0x4d, 0x75, 0x6c, 0x3b, 0x73, 0x65, 0x71, 0x75, 0x65, 0x6e,
 0x74, 0x69, 0x61, 0x6c, 0x2f, 0x64, 0x65, 0x6e, 0x73, 0x65, 0x5f, 0x31,
 0x2f, 0x42, 0x69, 0x61, 0x73, 0x41, 0x64, 0x64, 0x00, 0x00, 0x00, 0x00,
 0x02, 0x00, 0x00, 0x00, 0x01, 0x00, 0x00, 0x00, 0x01, 0x00, 0x00, 0x00,
 0x32, 0xfe, 0xff, 0xff, 0x00, 0x00, 0x00, 0x01, 0x14, 0x00, 0x00, 0x00,
 0x1c, 0x00, 0x00, 0x00, 0x1c, 0x00, 0x00, 0x00, 0x06, 0x00, 0x00, 0x00,
 0x60, 0x00, 0x00, 0x00, 0x02, 0x00, 0x00, 0x00, 0xff, 0xff, 0xff, 0xff,
 0x28, 0x00, 0x00, 0x00, 0x1c, 0xfe, 0xff, 0xff, 0x46, 0x00, 0x00, 0x00,
 0x73, 0x65, 0x71, 0x75, 0x65, 0x6e, 0x74, 0x69, 0x61, 0x6c, 0x2f, 0x64,
 0x65, 0x6e, 0x73, 0x65, 0x2f, 0x4d, 0x61, 0x74, 0x4d, 0x75, 0x6c, 0x3b,
 0x73, 0x65, 0x71, 0x75, 0x65, 0x6e, 0x74, 0x69, 0x61, 0x6c, 0x2f, 0x64,
 0x65, 0x6e, 0x73, 0x65, 0x2f, 0x52, 0x65, 0x6c, 0x75, 0x3b, 0x73, 0x65,
 0x71, 0x75, 0x65, 0x6e, 0x74, 0x69, 0x61, 0x6c, 0x2f, 0x64, 0x65, 0x6e,
 0x73, 0x65, 0x2f, 0x42, 0x69, 0x61, 0x73, 0x41, 0x64, 0x64, 0x00, 0x00,
 0x02, 0x00, 0x00, 0x00, 0x01, 0x00, 0x00, 0x00, 0x28, 0x00, 0x00, 0x00,
 0x22, 0xff, 0xff, 0xff, 0x00, 0x00, 0x00, 0x01, 0x10, 0x00, 0x00, 0x00,
 0x10, 0x00, 0x00, 0x00, 0x05, 0x00, 0x00, 0x00, 0x28, 0x00, 0x00, 0x00,
 0x90, 0xfe, 0xff, 0xff, 0x19, 0x00, 0x00, 0x00, 0x73, 0x65, 0x71, 0x75,
 0x65, 0x6e, 0x74, 0x69, 0x61, 0x6c, 0x2f, 0x64, 0x65, 0x6e, 0x73, 0x65,
 0x5f, 0x31, 0x2f, 0x4d, 0x61, 0x74, 0x4d, 0x75, 0x6c, 0x00, 0x00, 0x00,
 0x02, 0x00, 0x00, 0x00, 0x01, 0x00, 0x00, 0x00, 0x28, 0x00, 0x00, 0x00,
 0x6a, 0xff, 0xff, 0xff, 0x00, 0x00, 0x00, 0x01, 0x10, 0x00, 0x00, 0x00,
 0x10, 0x00, 0x00, 0x00, 0x04, 0x00, 0x00, 0x00, 0x24, 0x00, 0x00, 0x00,
 0xd8, 0xfe, 0xff, 0xff, 0x17, 0x00, 0x00, 0x00, 0x73, 0x65, 0x71, 0x75,
 0x65, 0x6e, 0x74, 0x69, 0x61, 0x6c, 0x2f, 0x64, 0x65, 0x6e, 0x73, 0x65,
 0x2f, 0x4d, 0x61, 0x74, 0x4d, 0x75, 0x6c, 0x00, 0x02, 0x00, 0x00, 0x00,
 0x28, 0x00, 0x00, 0x00, 0x28, 0x00, 0x00, 0x00, 0xae, 0xff, 0xff, 0xff,
 0x00, 0x00, 0x00, 0x01, 0x10, 0x00, 0x00, 0x00, 0x10, 0x00, 0x00, 0x00,
 0x03, 0x00, 0x00, 0x00, 0x34, 0x00, 0x00, 0x00, 0x1c, 0xff, 0xff, 0xff,
 0x27, 0x00, 0x00, 0x00, 0x73, 0x65, 0x71, 0x75, 0x65, 0x6e, 0x74, 0x69,
 0x61, 0x6c, 0x2f, 0x64, 0x65, 0x6e, 0x73, 0x65, 0x2f, 0x42, 0x69, 0x61,
 0x73, 0x41, 0x64, 0x64, 0x2f, 0x52, 0x65, 0x61, 0x64, 0x56, 0x61, 0x72,
 0x69, 0x61, 0x62, 0x6c, 0x65, 0x4f, 0x70, 0x00, 0x01, 0x00, 0x00, 0x00,
 0x28, 0x00, 0x00, 0x00, 0x00, 0x00, 0x16, 0x00, 0x18, 0x00, 0x14, 0x00,
 0x00, 0x00, 0x10, 0x00, 0x0c, 0x00, 0x08, 0x00, 0x00, 0x00, 0x00, 0x00,
 0x00, 0x00, 0x07, 0x00, 0x16, 0x00, 0x00, 0x00, 0x00, 0x00, 0x00, 0x01,
 0x10, 0x00, 0x00, 0x00, 0x10, 0x00, 0x00, 0x00, 0x02, 0x00, 0x00, 0x00,
 0x38, 0x00, 0x00, 0x00, 0x84, 0xff, 0xff, 0xff, 0x29, 0x00, 0x00, 0x00,
 0x73, 0x65, 0x71, 0x75, 0x65, 0x6e, 0x74, 0x69, 0x61, 0x6c, 0x2f, 0x64,
 0x65, 0x6e, 0x73, 0x65, 0x5f, 0x31, 0x2f, 0x42, 0x69, 0x61, 0x73, 0x41,
 0x64, 0x64, 0x2f, 0x52, 0x65, 0x61, 0x64, 0x56, 0x61, 0x72, 0x69, 0x61,
 0x62, 0x6c, 0x65, 0x4f, 0x70, 0x00, 0x00, 0x00, 0x01, 0x00, 0x00, 0x00,
 0x01, 0x00, 0x00, 0x00, 0x00, 0x00, 0x16, 0x00, 0x1c, 0x00, 0x18, 0x00,
 0x00, 0x00, 0x14, 0x00, 0x10, 0x00, 0x0c, 0x00, 0x00, 0x00, 0x00, 0x00,
 0x08, 0x00, 0x07, 0x00, 0x16, 0x00, 0x00, 0x00, 0x00, 0x00, 0x00, 0x01,
 0x14, 0x00, 0x00, 0x00, 0x20, 0x00, 0x00, 0x00, 0x20, 0x00, 0x00, 0x00,
 0x01, 0x00, 0x00, 0x00, 0x3c, 0x00, 0x00, 0x00, 0x02, 0x00, 0x00, 0x00,
 0xff, 0xff, 0xff, 0xff, 0x28, 0x00, 0x00, 0x00, 0x04, 0x00, 0x04, 0x00,
 0x04, 0x00, 0x00, 0x00, 0x1d, 0x00, 0x00, 0x00, 0x73, 0x65, 0x72, 0x76,
 0x69, 0x6e, 0x67, 0x5f, 0x64, 0x65, 0x66, 0x61, 0x75, 0x6c, 0x74, 0x5f,
 0x64, 0x65, 0x6e, 0x73, 0x65, 0x5f, 0x69, 0x6e, 0x70, 0x75, 0x74, 0x3a,
 0x30, 0x00, 0x00, 0x00, 0x02, 0x00, 0x00, 0x00, 0x01, 0x00, 0x00, 0x00,
 0x28, 0x00, 0x00, 0x00, 0x02, 0x00, 0x00, 0x00, 0x20, 0x00, 0x00, 0x00,
 0x04, 0x00, 0x00, 0x00, 0xf4, 0xff, 0xff, 0xff, 0x0e, 0x00, 0x00, 0x00,
 0x00, 0x00, 0x00, 0x0e, 0x0c, 0x00, 0x0c, 0x00, 0x0b, 0x00, 0x00, 0x00,
 0x00, 0x00, 0x04, 0x00, 0x0c, 0x00, 0x00, 0x00, 0x09, 0x00, 0x00, 0x00,
 0x00, 0x00, 0x00, 0x09
};

#endif //TINYML_MODEL_H