#ifndef TINYML_MODEL_H
#define TINYML_MODEL_H


unsigned int tinyml_model_len = 8380;
unsigned char tinyml_model[] = {
0x1c, 0x00, 0x00, 0x00, 0x54, 0x46, 0x4c, 0x33, 0x14, 0x00, 0x20, 0x00,
 0x1c, 0x00, 0x18, 0x00, 0x14, 0x00, 0x10, 0x00, 0x0c, 0x00, 0x00, 0x00,
 0x08, 0x00, 0x04, 0x00, 0x14, 0x00, 0x00, 0x00, 0x1c, 0x00, 0x00, 0x00,
 0x84, 0x00, 0x00, 0x00, 0xdc, 0x00, 0x00, 0x00, 0x14, 0x1c, 0x00, 0x00,
 0x24, 0x1c, 0x00, 0x00, 0x58, 0x20, 0x00, 0x00, 0x03, 0x00, 0x00, 0x00,
 0x01, 0x00, 0x00, 0x00, 0x04, 0x00, 0x00, 0x00, 0xa2, 0xe3, 0xff, 0xff,
 0x0c, 0x00, 0x00, 0x00, 0x1c, 0x00, 0x00, 0x00, 0x38, 0x00, 0x00, 0x00,
 0x0f, 0x00, 0x00, 0x00, 0x73, 0x65, 0x72, 0x76, 0x69, 0x6e, 0x67, 0x5f,
 0x64, 0x65, 0x66, 0x61, 0x75, 0x6c, 0x74, 0x00, 0x01, 0x00, 0x00, 0x00,
 0x04, 0x00, 0x00, 0x00, 0x98, 0xff, 0xff, 0xff, 0x07, 0x00, 0x00, 0x00,
 0x04, 0x00, 0x00, 0x00, 0x07, 0x00, 0x00, 0x00, 0x64, 0x65, 0x6e, 0x73,
 0x65, 0x5f, 0x31, 0x00, 0x01, 0x00, 0x00, 0x00, 0x04, 0x00, 0x00, 0x00,
 0x6e, 0xe4, 0xff, 0xff, 0x04, 0x00, 0x00, 0x00, 0x0b, 0x00, 0x00, 0x00,
 0x64, 0x65, 0x6e, 0x73, 0x65, 0x5f, 0x69, 0x6e, 0x70, 0x75, 0x74, 0x00,
 0x02, 0x00, 0x00, 0x00, 0x34, 0x00, 0x00, 0x00, 0x04, 0x00, 0x00, 0x00,
 0xdc, 0xff, 0xff, 0xff, 0x0a, 0x00, 0x00, 0x00, 0x04, 0x00, 0x00, 0x00,
 0x13, 0x00, 0x00, 0x00, 0x43, 0x4f, 0x4e, 0x56, 0x45, 0x52, 0x53, 0x49,
 0x4f, 0x4e, 0x5f, 0x4d, 0x45, 0x54, 0x41, 0x44, 0x41, 0x54, 0x41, 0x00,
 0x08, 0x00, 0x0c, 0x00, 0x08, 0x00, 0x04, 0x00, 0x08, 0x00, 0x00, 0x00,
 0x09, 0x00, 0x00, 0x00, 0x04, 0x00, 0x00, 0x00, 0x13, 0x00, 0x00, 0x00,
 0x6d, 0x69, 0x6e, 0x5f, 0x72, 0x75, 0x6e, 0x74, 0x69, 0x6d, 0x65, 0x5f,
 0x76, 0x65, 0x72, 0x73, 0x69, 0x6f, 0x6e, 0x00, 0x0b, 0x00, 0x00, 0x00,
 0x34, 0x1b, 0x00, 0x00, 0x2c, 0x1b, 0x00, 0x00, 0x18, 0x1b, 0x00, 0x00,
 0x60, 0x1a, 0x00, 0x00, 0x50, 0x01, 0x00, 0x00, 0xa0, 0x00, 0x00, 0x00,
 0x98, 0x00, 0x00, 0x00, 0x90, 0x00, 0x00, 0x00, 0x88, 0x00, 0x00, 0x00,
 0x68, 0x00, 0x00, 0x00, 0x04, 0x00, 0x00, 0x00, 0x12, 0xe5, 0xff, 0xff,
 0x04, 0x00, 0x00, 0x00, 0x54, 0x00, 0x00, 0x00, 0x0c, 0x00, 0x00, 0x00,
 0x08, 0x00, 0x0e, 0x00, 0x08, 0x00, 0x04, 0x00, 0x08, 0x00, 0x00, 0x00,
 0x10, 0x00, 0x00, 0x00, 0x24, 0x00, 0x00, 0x00, 0x00, 0x00, 0x06, 0x00,
 0x08, 0x00, 0x04, 0x00, 0x06, 0x00, 0x00, 0x00, 0x04, 0x00, 0x00, 0x00,
 0x00, 0x00, 0x00, 0x00, 0x00, 0x00, 0x0a, 0x00, 0x10, 0x00, 0x0c, 0x00,
 0x08, 0x00, 0x04, 0x00, 0x0a, 0x00, 0x00, 0x00, 0x02, 0x00, 0x00, 0x00,
 0x02, 0x00, 0x00, 0x00, 0x04, 0x00, 0x00, 0x00, 0x06, 0x00, 0x00, 0x00,
 0x32, 0x2e, 0x31, 0x35, 0x2e, 0x30, 0x00, 0x00, 0x72, 0xe5, 0xff, 0xff,
 0x04, 0x00, 0x00, 0x00, 0x10, 0x00, 0x00, 0x00, 0x31, 0x2e, 0x31, 0x34,
 0x2e, 0x30, 0x00, 0x00, 0x00, 0x00, 0x00, 0x00, 0x00, 0x00, 0x00, 0x00,
 0x5c, 0xe1, 0xff, 0xff, 0x60, 0xe1, 0xff, 0xff, 0x64, 0xe1, 0xff, 0xff,
 0x9a, 0xe5, 0xff, 0xff, 0x04, 0x00, 0x00, 0x00, 0xa0, 0x00, 0x00, 0x00,
 0xfe, 0xba, 0x0d, 0x3e, 0x22, 0x24, 0x06, 0xbe, 0x5d, 0x8b, 0xc6, 0x3e,
 0x93, 0xb6, 0x35, 0x3e, 0x8a, 0xc4, 0x90, 0x3e, 0x04, 0x2d, 0xbb, 0xbd,
 0x49, 0x3c, 0x59, 0xbd, 0x4c, 0x2d, 0x11, 0xbf, 0x23, 0xa9, 0xfa, 0xbe,
 0x32, 0x6f, 0xc1, 0x3e, 0x79, 0xf6, 0x82, 0xbe, 0xe1, 0xd6, 0x30, 0xbe,
 0x71, 0x2e, 0xab, 0xbe, 0xc5, 0xd3, 0xba, 0xbe, 0xf3, 0x58, 0x85, 0xbe,
 0xf9, 0x24, 0x4d, 0x3e, 0xf3, 0xde, 0x48, 0x3d, 0x67, 0xee, 0x8e, 0x3e,
 0x57, 0x6c, 0xac, 0x3e, 0xa3, 0x3c, 0xa5, 0x3e, 0xc2, 0x2f, 0xa6, 0x3e,
 0x25, 0xee, 0x4e, 0xbe, 0xa5, 0x4b, 0x2a, 0xbd, 0x91, 0x02, 0x74, 0x3e,
 0x60, 0x28, 0xed, 0xbc, 0x9a, 0x3d, 0x5c, 0x3e, 0xed, 0x41, 0xae, 0x3e,
 0xf0, 0x00, 0x3f, 0xbd, 0x6f, 0x29, 0x8f, 0x3e, 0xfc, 0x60, 0xdc, 0x3d,
 0x77, 0x12, 0xa9, 0x3e, 0xe1, 0x62, 0x3e, 0xbe, 0x2f, 0x4c, 0x12, 0x3f,
 0xeb, 0xd1, 0x9f, 0x3e, 0xb7, 0xc1, 0x61, 0xbd, 0xa0, 0x35, 0xb4, 0x3d,
 0x78, 0x2a, 0x79, 0xbe, 0x84, 0x81, 0xdd, 0x3d, 0x43, 0x04, 0xc5, 0x3e,
 0xfa, 0x97, 0x87, 0x3d, 0x46, 0xe6, 0xff, 0xff, 0x04, 0x00, 0x00, 0x00,
 0x00, 0x19, 0x00, 0x00, 0x04, 0xb1, 0xb0, 0x3d, 0xdc, 0xd3, 0x02, 0xbd,
 0x68, 0x52, 0xfe, 0xbc, 0x20, 0xcc, 0x0f, 0x3e, 0xa0, 0x35, 0x83, 0x3e,
 0x2c, 0xc2, 0x7c, 0xbd, 0x1a, 0xc5, 0x2f, 0xbe, 0x38, 0x17, 0x07, 0xbe,
 0xcc, 0x20, 0x7f, 0x3e, 0xa8, 0x19, 0x1b, 0xbe, 0x64, 0x9b, 0x29, 0x3e,
 0xb0, 0x25, 0xb1, 0xbd, 0xb4, 0x47, 0x84, 0xbe, 0x40, 0x3d, 0x8d, 0xbb,
 0xc0, 0x1e, 0x82, 0xbe, 0xb5, 0x9b, 0x85, 0xbe, 0x60, 0xe9, 0xff, 0xbc,
 0xf4, 0x3e, 0x17, 0x3e, 0x4d, 0xaa, 0x44, 0xbe, 0x04, 0xcb, 0xfd, 0x3d,
 0x4f, 0x3f, 0x0d, 0xbe, 0x3c, 0x28, 0x70, 0xbe, 0x82, 0x5e, 0x7f, 0xbe,
 0x11, 0x2b, 0x04, 0xbe, 0x70, 0x9b, 0x87, 0x3d, 0x40, 0xe3, 0x2a, 0x3e,
 0x3c, 0xdd, 0xbe, 0xbd, 0xa0, 0x28, 0x95, 0x3c, 0x6a, 0x14, 0x5b, 0xbe,
 0x89, 0x32, 0x57, 0xbe, 0xb0, 0xde, 0xdd, 0xbc, 0x38, 0xb9, 0x7b, 0x3e,
 0xdd, 0xe5, 0x81, 0xbe, 0x8f, 0x47, 0x0b, 0xbe, 0xa2, 0x9d, 0xa9, 0xbd,
 0x8c, 0xae, 0x0b, 0x3e, 0x80, 0xd3, 0x8e, 0x3c, 0x98, 0xc4, 0x4e, 0xbe,
 0xef, 0x20, 0x08, 0xbe, 0xb8, 0x65, 0x72, 0x3e, 0xa4, 0xbe, 0x2c, 0x3e,
 0x4c, 0xe3, 0x4b, 0xbd, 0x10, 0x43, 0x93, 0x3c, 0x38, 0x62, 0x64, 0xbe,
 0xdc, 0x0c, 0xf1, 0xbd, 0x6b, 0xd9, 0x7d, 0xbe, 0xfe, 0xc5, 0x2b, 0xbe,
 0x94, 0x9c, 0x09, 0x3e, 0xec, 0xfd, 0x30, 0xbe, 0x2e, 0x2d, 0x61, 0x3e,
 0x57, 0xc4, 0x3d, 0xbe, 0x81, 0xfa, 0x53, 0xbe, 0x00, 0x95, 0x64, 0xbc,
 0x9c, 0xc1, 0x9c, 0x3d, 0x97, 0xb7, 0x85, 0xbe, 0x4c, 0x5a, 0x83, 0xbe,
 0x8a, 0xdb, 0xfb, 0xbd, 0x98, 0x98, 0x04, 0x3e, 0x3c, 0xec, 0x6a, 0x3e,
 0x7e, 0x23, 0x81, 0xbe, 0xc8, 0x1b, 0xe0, 0x3d, 0xfc, 0xb9, 0xca, 0xbd,
 0xac, 0x84, 0x7c, 0x3e, 0x60, 0x38, 0x35, 0x3c, 0xd8, 0x44, 0x5f, 0x3d,
 0xbc, 0xa8, 0x49, 0x3e, 0xb4, 0xe0, 0x7a, 0x3e, 0x0c, 0x5f, 0x7c, 0x3e,
 0x12, 0x50, 0x19, 0xbe, 0x32, 0x20, 0x13, 0xbe, 0x68, 0xfb, 0xbd, 0x3d,
 0x95, 0x8e, 0x89, 0xbe, 0x2a, 0x62, 0xa5, 0xbd, 0x84, 0x95, 0x6d, 0xbd,
 0x68, 0x1a, 0x03, 0x3e, 0x6f, 0x64, 0x0d, 0xbe, 0xec, 0xd6, 0xde, 0x3d,
 0x0a, 0xc7, 0x39, 0x3e, 0x00, 0xf8, 0x7a, 0x3d, 0x00, 0x44, 0xf7, 0x39,
 0xcd, 0x64, 0x90, 0x3b, 0xd8, 0x12, 0xce, 0x3b, 0x7f, 0x98, 0xe3, 0xbd,
 0x2e, 0x1b, 0x9e, 0xbe, 0x85, 0x46, 0x17, 0xbd, 0x75, 0x65, 0x3f, 0x3b,
 0xa2, 0xb1, 0x06, 0x3e, 0xcd, 0x50, 0x5f, 0xbe, 0xc4, 0xa5, 0x55, 0xbe,
 0x8e, 0xb8, 0x3f, 0x3e, 0x79, 0x91, 0x46, 0xbf, 0x43, 0x4e, 0xbc, 0xbe,
 0xab, 0x1e, 0x6b, 0x3e, 0x88, 0x84, 0x4d, 0xbe, 0x31, 0xb5, 0x31, 0x3e,
 0x60, 0x35, 0x2a, 0xbe, 0x76, 0x92, 0x69, 0x3e, 0x9a, 0xca, 0x93, 0x3e,
 0xf6, 0x7e, 0x67, 0x3e, 0x10, 0x82, 0x58, 0x3f, 0xf2, 0xd0, 0x5e, 0x3e,
 0x6d, 0x6d, 0x44, 0x3e, 0xfe, 0x00, 0x8f, 0xbc, 0x8d, 0x1f, 0xcf, 0x3e,
 0xb5, 0x30, 0x0e, 0x3d, 0x37, 0x21, 0xc0, 0x3c, 0xf1, 0x3f, 0x05, 0x3d,
 0x46, 0x29, 0xc2, 0x3d, 0x58, 0x9d, 0x5b, 0xbe, 0x0e, 0x0d, 0x77, 0xbe,
 0xeb, 0x47, 0x1e, 0x3e, 0xa5, 0x6f, 0xd9, 0x3c, 0x09, 0x05, 0xbc, 0xbe,
 0x6c, 0x3d, 0xcc, 0xbc, 0x3c, 0x0f, 0x25, 0xbe, 0xef, 0x5c, 0x84, 0xbc,
 0x87, 0xfe, 0x61, 0x3c, 0x6d, 0xc6, 0xad, 0xbe, 0x9c, 0xdd, 0xbc, 0x3d,
 0xcf, 0xba, 0x25, 0xbe, 0x53, 0x0b, 0x3a, 0x3c, 0x02, 0xb7, 0xb3, 0x3d,
 0x78, 0x41, 0x7b, 0x3d, 0x62, 0xd4, 0x21, 0x3e, 0xa3, 0xfc, 0x87, 0xbd,
 0x77, 0xf6, 0xdf, 0xbd, 0x0b, 0xed, 0x33, 0xbd, 0x2e, 0x7d, 0x45, 0xbe,
 0xa1, 0xfe, 0x8d, 0xbd, 0xda, 0x2b, 0xb3, 0xbc, 0x22, 0xa0, 0x97, 0x3e,
 0xf8, 0x1e, 0xb7, 0x3d, 0x18, 0xcc, 0x6d, 0xbe, 0x0a, 0x69, 0x3f, 0x3d,
 0x8c, 0xca, 0x46, 0xbe, 0xa0, 0xc7, 0x82, 0x3e, 0x14, 0x3c, 0x82, 0x3e,
 0x8d, 0xd2, 0x2f, 0x3e, 0x28, 0x7f, 0xc0, 0x3d, 0x81, 0x67, 0x46, 0x3e,
 0x98, 0x62, 0xfb, 0xbd, 0xe4, 0xac, 0xa3, 0xbe, 0xde, 0x03, 0x20, 0x3e,
 0x74, 0xbb, 0x77, 0x3b, 0xf9, 0x38, 0xc9, 0x3d, 0xed, 0x86, 0x87, 0x3e,
 0x60, 0xf7, 0x30, 0x3e, 0x64, 0x12, 0x0e, 0x3f, 0x69, 0x54, 0x08, 0xbe,
 0xc0, 0x9e, 0xd3, 0xbe, 0x2f, 0xc7, 0xec, 0xbe, 0x1b, 0x69, 0xaa, 0xbe,
 0xe7, 0x53, 0x63, 0xbe, 0x36, 0x1e, 0xed, 0x3d, 0xfc, 0x18, 0x0a, 0xbe,
 0x80, 0x70, 0x3a, 0xbe, 0x09, 0x3a, 0xa2, 0x3e, 0xc5, 0x77, 0x63, 0xbe,
 0x50, 0x9a, 0x88, 0x3e, 0xe3, 0x9d, 0xae, 0x3e, 0x7b, 0x03, 0x65, 0xbe,
 0x9e, 0xcd, 0x39, 0xbe, 0x99, 0x84, 0xb0, 0xbd, 0xc9, 0xfb, 0x76, 0xbe,
 0x8f, 0x97, 0x78, 0x3e, 0x7b, 0x72, 0xab, 0x3c, 0x0a, 0x2c, 0x66, 0x3d,
 0xc1, 0xdf, 0x5d, 0x3e, 0xae, 0xa8, 0x37, 0x3d, 0x5b, 0xb6, 0x2a, 0xbe,
 0x1e, 0x71, 0xa9, 0xbd, 0x38, 0x90, 0xf7, 0x3b, 0xed, 0xdc, 0xdc, 0x3d,
 0x1a, 0x37, 0x97, 0x3d, 0xcf, 0x66, 0xc8, 0xbd, 0x00, 0xd9, 0xcd, 0xbd,
 0x70, 0xf9, 0x95, 0x3e, 0x8f, 0xcb, 0x49, 0x3e, 0x51, 0x06, 0x52, 0x3e,
 0x34, 0xdf, 0x7a, 0x3d, 0xd3, 0x17, 0x81, 0x3d, 0x73, 0xd6, 0xe9, 0x3d,
 0x8b, 0x4f, 0x48, 0xbe, 0xd7, 0xd3, 0xce, 0xbd, 0xd3, 0x96, 0x49, 0x3d,
 0xe8, 0xea, 0x41, 0x3d, 0x30, 0x9e, 0x1b, 0xbd, 0x32, 0x75, 0x80, 0xbd,
 0xa6, 0x7a, 0x15, 0x3e, 0x91, 0xd1, 0xb9, 0xbd, 0x34, 0xcd, 0x78, 0xbc,
 0xd5, 0x45, 0xdf, 0x3c, 0xbc, 0xf9, 0xb9, 0xbd, 0x9b, 0x80, 0x25, 0x3e,
 0xa4, 0xd6, 0x3b, 0x3e, 0xdb, 0x94, 0x9e, 0xbd, 0x83, 0x9f, 0x59, 0x3e,
 0xa8, 0xba, 0x06, 0xbe, 0xa1, 0x1a, 0x85, 0x3e, 0x23, 0x9f, 0xf3, 0xbd,
 0x53, 0x3d, 0x0c, 0xbe, 0x85, 0x9a, 0x0d, 0x3e, 0x2f, 0xc4, 0x2e, 0xbe,
 0x89, 0x3a, 0x7d, 0xbd, 0x84, 0xa0, 0x52, 0x3e, 0xbf, 0x55, 0x73, 0x3e,
 0x2b, 0x7a, 0x21, 0xbe, 0x40, 0x35, 0xfa, 0x3d, 0x0a, 0x19, 0x4b, 0x3e,
 0xb2, 0x73, 0x4a, 0xbe, 0xae, 0x2c, 0x40, 0xbd, 0x16, 0x66, 0x9d, 0xbe,
 0xc6, 0xf5, 0x09, 0xbe, 0x3b, 0xda, 0x48, 0xbd, 0x95, 0xd3, 0x68, 0xbe,
 0x14, 0xb6, 0x03, 0xbe, 0x0c, 0xdc, 0xa3, 0xbd, 0xaf, 0xc8, 0x8d, 0xbc,
 0x36, 0x60, 0xb5, 0x3d, 0x1a, 0xcf, 0x1c, 0xbe, 0xb5, 0x87, 0x9f, 0x3e,
 0x2c, 0x40, 0x04, 0xbd, 0x4e, 0x6a, 0x58, 0xbe, 0x93, 0xae, 0xe5, 0xbd,
 0x07, 0xaa, 0x82, 0x3e, 0x46, 0x43, 0x9d, 0x3d, 0x78, 0xc7, 0x46, 0xbe,
 0x2a, 0x2c, 0xc1, 0x3c, 0x06, 0x05, 0x0f, 0xbe, 0xfe, 0x0c, 0x3f, 0xbe,
 0x4c, 0x93, 0xbd, 0x3d, 0x4a, 0x28, 0x4f, 0x3e, 0x2c, 0x7d, 0x86, 0xbe,
 0x59, 0xbe, 0x94, 0xbd, 0xb7, 0xab, 0x45, 0x3c, 0x6d, 0x26, 0xf4, 0xbd,
 0x52, 0x21, 0x72, 0xbe, 0x72, 0x63, 0x5a, 0x3c, 0x08, 0xcf, 0x5b, 0x3e,
 0x55, 0x38, 0x8c, 0x3e, 0x23, 0x3d, 0x74, 0xbe, 0x51, 0x88, 0xd8, 0xbc,
 0x77, 0x1b, 0xb2, 0xbe, 0x7f, 0x94, 0x32, 0x3e, 0xb3, 0xb6, 0x1e, 0x3e,
 0x13, 0xf7, 0x30, 0x3e, 0xdc, 0xa4, 0x0c, 0x3e, 0x79, 0xf5, 0xf5, 0x3d,
 0x0a, 0x9c, 0x20, 0x3e, 0x1f, 0x39, 0x94, 0x3d, 0x04, 0x96, 0x0a, 0x3d,
 0x97, 0xff, 0x86, 0xbe, 0x67, 0xa5, 0x96, 0x3c, 0x05, 0x31, 0x43, 0x3d,
 0x04, 0x86, 0xcd, 0xbd, 0x2f, 0xe9, 0x34, 0xbe, 0x29, 0xdd, 0xc3, 0x3d,
 0x7f, 0xa7, 0xe2, 0x3d, 0x50, 0x14, 0xb0, 0xbe, 0x6a, 0x5b, 0x1c, 0xbe,
 0xe3, 0x16, 0x3f, 0x3e, 0xf9, 0x8c, 0x67, 0x3d, 0x95, 0xb8, 0xc5, 0x3d,
 0x23, 0xf2, 0xe9, 0x3d, 0x60, 0x68, 0x8f, 0x3d, 0x34, 0x77, 0x15, 0xbe,
 0x88, 0x40, 0xa5, 0xbe, 0xa1, 0xf1, 0x57, 0xbe, 0x9f, 0x68, 0x48, 0x3e,
 0x3c, 0x51, 0x63, 0xbe, 0x93, 0x1b, 0xae, 0xbe, 0x62, 0x79, 0x67, 0x3d,
 0x09, 0x34, 0xf8, 0x3d, 0x87, 0xcf, 0x97, 0x3e, 0xc3, 0x24, 0xd3, 0xbd,
 0x42, 0x7e, 0x02, 0x3e, 0x34, 0x1f, 0x73, 0xbd, 0x02, 0x1f, 0xdf, 0xbc,
 0xac, 0x8c, 0x26, 0x3e, 0xd3, 0x03, 0x6d, 0x3e, 0x10, 0x4c, 0x2f, 0x3e,
 0x7b, 0x86, 0x5b, 0x3e, 0xe2, 0xe0, 0xa5, 0xbe, 0xc6, 0xee, 0x07, 0xbe,
 0xbe, 0x7d, 0x08, 0x3e, 0x1a, 0x83, 0xa6, 0x3e, 0x9e, 0x64, 0x9b, 0xbd,
 0x42, 0xfa, 0x29, 0xbe, 0x7b, 0x52, 0x82, 0x3e, 0xe2, 0x7e, 0x5a, 0x3e,
 0xac, 0xe6, 0xcb, 0x3e, 0x09, 0x75, 0x33, 0xbd, 0x7c, 0x8f, 0x57, 0x3d,
 0x3c, 0xee, 0x14, 0xbe, 0x0b, 0x66, 0x93, 0xbe, 0xe6, 0xd5, 0x8a, 0x3e,
 0x20, 0x49, 0x31, 0xbf, 0x25, 0x04, 0xd2, 0x3d, 0x21, 0xd3, 0x00, 0x3e,
 0x71, 0x43, 0xf8, 0xbd, 0xc3, 0xae, 0xf5, 0x3d, 0x09, 0x2a, 0x2f, 0xbe,
 0x9a, 0xe2, 0x51, 0xbd, 0x7a, 0x42, 0xbd, 0x3e, 0x37, 0xa3, 0xbc, 0x3d,
 0x50, 0x6e, 0x33, 0x3d, 0x55, 0xec, 0x35, 0xbe, 0x3b, 0xe8, 0x30, 0xbf,
 0xcb, 0x00, 0x0a, 0xbf, 0x9d, 0xf7, 0xb1, 0xbe, 0x80, 0x83, 0x80, 0xbe,
 0x67, 0x4a, 0x12, 0xbf, 0x27, 0x16, 0x10, 0xbd, 0xb5, 0xeb, 0x78, 0xbe,
 0x35, 0x35, 0x10, 0xbf, 0x86, 0x25, 0x34, 0xbe, 0x38, 0x4a, 0xd4, 0xbe,
 0x4c, 0xe0, 0x25, 0xbe, 0x3c, 0xcc, 0x78, 0x3e, 0x06, 0x13, 0x00, 0x3f,
 0x8e, 0x39, 0xa9, 0xbc, 0x5b, 0x73, 0x82, 0xbe, 0xa9, 0xa6, 0xc1, 0xbd,
 0x5a, 0x18, 0xb6, 0xbd, 0x99, 0xfc, 0x2f, 0x3d, 0xe9, 0x9a, 0xac, 0xbe,
 0x53, 0x5c, 0x41, 0x3e, 0x40, 0x25, 0x0a, 0xbe, 0x0e, 0xd9, 0x27, 0xbe,
 0x50, 0xe6, 0xf7, 0x3d, 0xd7, 0x08, 0x03, 0xbf, 0x95, 0x11, 0x77, 0x3d,
 0xf0, 0xd7, 0x33, 0xbe, 0xf1, 0xfd, 0x4f, 0xbe, 0x0e, 0x68, 0x54, 0x3e,
 0xc7, 0x55, 0x0b, 0xbf, 0xa0, 0x0a, 0x41, 0x3e, 0x03, 0x62, 0x36, 0x3c,
 0x95, 0x90, 0x50, 0xbe, 0x6f, 0x58, 0x73, 0x3e, 0x0c, 0x33, 0xfd, 0xbe,
 0x0e, 0x10, 0x3d, 0xbd, 0xc6, 0x03, 0x8a, 0xbd, 0x96, 0x45, 0x0a, 0xbe,
 0xe7, 0x50, 0xfe, 0x3d, 0xa0, 0xb4, 0xa2, 0xbe, 0x71, 0x5a, 0xb1, 0xbd,
 0xa4, 0xe8, 0xb4, 0xbe, 0x0f, 0x30, 0x0e, 0xbf, 0x02, 0x04, 0x28, 0x3d,
 0x08, 0x8d, 0xdb, 0xbe, 0xee, 0xdb, 0x52, 0xbe, 0x56, 0xcf, 0x38, 0xbd,
 0xeb, 0xc9, 0x9f, 0x3d, 0x52, 0xd9, 0x31, 0x3e, 0x6a, 0x02, 0x89, 0x3e,
 0xb6, 0xcf, 0x4e, 0xbd, 0x89, 0x18, 0xf8, 0xbd, 0x67, 0xee, 0x94, 0xbe,
 0x59, 0x28, 0x3b, 0x3e, 0xbe, 0xe4, 0x7c, 0x3e, 0xea, 0x59, 0x12, 0x3e,
 0x40, 0x3c, 0x37, 0xbe, 0x7a, 0x53, 0xd6, 0x3d, 0xa3, 0xcf, 0x21, 0xbe,
 0x48, 0xfe, 0x4e, 0x3e, 0x99, 0x01, 0x5c, 0xbe, 0x4d, 0xda, 0x90, 0xbe,
 0x55, 0x4e, 0x7d, 0xbe, 0x86, 0x34, 0xb9, 0xbe, 0xb3, 0x6b, 0x6b, 0xbd,
 0xd4, 0x89, 0x9f, 0x3e, 0x0f, 0x27, 0x82, 0x3c, 0xc3, 0x3f, 0xeb, 0x3b,
 0x8d, 0x94, 0x6c, 0x3d, 0x29, 0xe0, 0x59, 0x3d, 0xb4, 0xd4, 0xc7, 0x3e,
 0x07, 0x1e, 0x91, 0x3c, 0x17, 0x83, 0x0a, 0xbe, 0xee, 0xe2, 0x7c, 0xbd,
 0x09, 0x69, 0x2f, 0x3e, 0xa1, 0xb4, 0x3a, 0x3e, 0xb7, 0x55, 0xaf, 0xbe,
 0x2e, 0xad, 0xba, 0x3e, 0x83, 0xb0, 0xe3, 0xbd, 0x7d, 0x32, 0x79, 0x3d,
 0xbd, 0xe1, 0xa6, 0xbd, 0x40, 0x78, 0x26, 0x3e, 0x8c, 0xe4, 0x0d, 0xbe,
 0x5f, 0x8c, 0xbf, 0xbc, 0xde, 0xd3, 0x71, 0x3e, 0x58, 0x21, 0xac, 0x3e,
 0x05, 0x29, 0x19, 0x3e, 0x40, 0x36, 0xa0, 0xbe, 0x95, 0x1d, 0x41, 0xbd,
 0x03, 0xe3, 0x9d, 0xbd, 0x91, 0x9b, 0xbc, 0xbe, 0x4e, 0xde, 0x64, 0x3d,
 0x71, 0x31, 0x21, 0xbe, 0xfc, 0xbb, 0x33, 0x3e, 0xf9, 0x0b, 0x2c, 0xbe,
 0xb8, 0xb1, 0x6e, 0xbe, 0x50, 0xaf, 0xfb, 0x3d, 0x37, 0xcf, 0xe4, 0xbd,
 0x00, 0x84, 0x04, 0x3e, 0x6c, 0x7c, 0x14, 0xbe, 0x6b, 0xf2, 0xb1, 0x3d,
 0x3a, 0xc3, 0x1b, 0xbd, 0x8b, 0x69, 0x76, 0x3e, 0x58, 0x7b, 0x5e, 0xbe,
 0xfd, 0xfb, 0x62, 0xbe, 0x76, 0x5d, 0xcc, 0xbd, 0x39, 0xea, 0x1a, 0xbe,
 0xe5, 0x44, 0x12, 0x3e, 0xdc, 0x4f, 0x9d, 0x3d, 0xe4, 0x6e, 0xc3, 0x3d,
 0x46, 0xb8, 0xb6, 0x3d, 0x90, 0x83, 0x04, 0x3e, 0xbf, 0x0c, 0xa9, 0x3d,
 0x6a, 0xaa, 0x9c, 0x3d, 0x82, 0xd3, 0x11, 0x3e, 0x75, 0x73, 0x9c, 0x3b,
 0x22, 0x61, 0x7b, 0xbc, 0x4c, 0xd1, 0x28, 0xbd, 0x10, 0x54, 0xd9, 0xbd,
 0x9c, 0xc0, 0x9f, 0xbd, 0xca, 0xd8, 0x46, 0xbe, 0x56, 0x6a, 0x82, 0x3e,
 0x7a, 0x45, 0xc9, 0xbd, 0xd8, 0xdd, 0x72, 0x3d, 0x0e, 0x4c, 0xc9, 0xbd,
 0x36, 0x19, 0x70, 0x3c, 0x98, 0xc7, 0x60, 0xbe, 0xce, 0xb5, 0xd2, 0x3c,
 0x92, 0x34, 0x04, 0x3e, 0x1f, 0xd5, 0xaf, 0x3e, 0x58, 0x56, 0x81, 0x3d,
 0xf0, 0x60, 0x1c, 0xbe, 0x31, 0x1d, 0x3a, 0xbe, 0x8e, 0xb8, 0x08, 0x3e,
 0xa4, 0xfc, 0xb4, 0x3d, 0x06, 0x9b, 0x56, 0xbe, 0x78, 0x38, 0xed, 0xbd,
 0x20, 0xee, 0x42, 0x3d, 0x4a, 0x4a, 0x82, 0xbd, 0x94, 0x41, 0x38, 0x3e,
 0x00, 0x2e, 0xbf, 0xbc, 0x63, 0xce, 0x6b, 0xbe, 0xc0, 0xf5, 0x95, 0xbc,
 0x92, 0x28, 0x32, 0x3e, 0x49, 0x82, 0x22, 0xbe, 0xf8, 0x71, 0x0e, 0x3e,
 0xe6, 0xbc, 0x2e, 0xbe, 0xaa, 0xea, 0x37, 0x3e, 0xf0, 0x23, 0xa2, 0xbc,
 0x7c, 0x49, 0x51, 0x3e, 0xd4, 0x4a, 0x68, 0x3e, 0xe1, 0x90, 0x27, 0xbe,
 0x00, 0x73, 0x69, 0x3b, 0x80, 0x3d, 0x1e, 0xbc, 0x40, 0x4a, 0xa7, 0x3d,
 0x80, 0x86, 0x5e, 0xbd, 0xd0, 0x04, 0x25, 0x3e, 0x68, 0xd4, 0x07, 0xbe,
 0xa0, 0xd2, 0x74, 0x3e, 0xe4, 0x98, 0x77, 0x3e, 0x5e, 0xa5, 0x51, 0xbe,
 0x31, 0x3c, 0x83, 0xbe, 0xa4, 0x5f, 0xd7, 0xbd, 0x64, 0x52, 0x14, 0xbd,
 0xd0, 0x26, 0xf0, 0x3d, 0x36, 0x00, 0x4b, 0x3e, 0x8c, 0xc0, 0x9d, 0x3d,
 0x95, 0xc0, 0x3e, 0xbe, 0xe8, 0xc2, 0x10, 0x3d, 0x90, 0x46, 0x42, 0x3e,
 0xf4, 0xb0, 0x2c, 0xbd, 0x00, 0xf4, 0xf5, 0x3d, 0xec, 0xb5, 0xf2, 0x3d,
 0x34, 0xfe, 0x32, 0xbd, 0x9f, 0xfe, 0x52, 0x3e, 0x5e, 0x7c, 0x9f, 0xbd,
 0xea, 0xd9, 0x9f, 0xbe, 0x80, 0xe8, 0xdb, 0x3d, 0xad, 0x92, 0x89, 0xbe,
 0x43, 0x25, 0x97, 0xbe, 0x76, 0xc5, 0x15, 0xbe, 0x78, 0xd8, 0xe8, 0xbd,
 0x4d, 0x0b, 0x94, 0xbe, 0xea, 0x52, 0xaf, 0xbd, 0x57, 0xd6, 0x47, 0xbb,
 0x23, 0xb6, 0x26, 0x3e, 0xf0, 0x1e, 0xa6, 0xbc, 0xaf, 0x04, 0x40, 0x3e,
 0xb4, 0x2a, 0x39, 0x3d, 0xbe, 0xdf, 0xb7, 0xbe, 0xd9, 0x1b, 0xb7, 0xbe,
 0xdf, 0x1b, 0x9d, 0xbe, 0x22, 0x5a, 0xde, 0x3d, 0x77, 0xd6, 0x6b, 0x3d,
 0x0e, 0xbd, 0x8f, 0xbe, 0xfc, 0x70, 0xbd, 0xbd, 0xee, 0x43, 0x5b, 0xbd,
 0x9c, 0x9a, 0xc8, 0x3e, 0x25, 0x80, 0x81, 0xbe, 0x33, 0x6a, 0xa5, 0xbe,
 0xb9, 0x06, 0xf2, 0xbd, 0x07, 0xd8, 0xf2, 0x3d, 0x13, 0xa0, 0x20, 0x3e,
 0x9d, 0x6a, 0xfe, 0x3a, 0xdd, 0xb7, 0xc2, 0x3e, 0x6a, 0x4e, 0x85, 0x3d,
 0xc8, 0xbb, 0x29, 0xbd, 0xed, 0xfa, 0xed, 0xbc, 0xff, 0xdf, 0x20, 0x3f,
 0xcd, 0xa9, 0xcc, 0x3e, 0xed, 0x3b, 0x33, 0x3e, 0x4f, 0xf6, 0xf1, 0x3e,
 0xd2, 0x38, 0xcf, 0x3e, 0xe6, 0x40, 0x5a, 0x3e, 0xb4, 0xee, 0x50, 0x3e,
 0x78, 0x1c, 0x8b, 0xbe, 0x40, 0x49, 0x88, 0x3e, 0x85, 0x1e, 0x58, 0xbe,
 0x61, 0xad, 0x16, 0xbe, 0x10, 0x7e, 0x1d, 0xbd, 0x7c, 0xc9, 0xa1, 0xbd,
 0xcc, 0x3f, 0x7e, 0x3e, 0x9c, 0x78, 0xc0, 0xbd, 0x56, 0x32, 0x39, 0x3e,
 0x54, 0x5f, 0x2d, 0x3e, 0x08, 0xe2, 0x46, 0x3e, 0xc5, 0x66, 0x84, 0xbe,
 0xb7, 0x3d, 0x07, 0xbe, 0x2a, 0x34, 0x87, 0x3e, 0xdf, 0x60, 0x72, 0xbe,
 0xa0, 0x61, 0x18, 0xbd, 0x58, 0x60, 0x03, 0x3e, 0xb0, 0x45, 0x44, 0x3e,
 0x40, 0xdd, 0xba, 0x3c, 0xb6, 0xe0, 0x31, 0x3e, 0xf0, 0xa4, 0xea, 0xbd,
 0x2a, 0xf5, 0xb6, 0xbd, 0xe0, 0x43, 0xa1, 0x3c, 0x96, 0x82, 0xe4, 0xbd,
 0x86, 0x85, 0x3f, 0xbe, 0x10, 0xd3, 0x1a, 0x3d, 0x28, 0x78, 0xbd, 0xbd,
 0x52, 0xa2, 0x57, 0x3e, 0x14, 0x53, 0x2f, 0xbe, 0x50, 0x20, 0x30, 0xbd,
 0xba, 0x21, 0x81, 0xbd, 0x12, 0x99, 0x52, 0xbe, 0x84, 0x8a, 0x6c, 0xbe,
 0x16, 0x5a, 0x0c, 0x3e, 0xc0, 0x2a, 0xef, 0x3d, 0xd8, 0x32, 0xdf, 0xbc,
 0x43, 0x69, 0x37, 0xbe, 0x3c, 0x3f, 0x40, 0x3e, 0xd0, 0xdc, 0x5d, 0x3e,
 0xe5, 0xf7, 0xb1, 0x3c, 0xdc, 0x15, 0x44, 0x3e, 0x2a, 0x4f, 0xcd, 0x3d,
 0xf3, 0x26, 0xd7, 0xbd, 0x66, 0x4b, 0x16, 0x3e, 0x61, 0x33, 0xcf, 0xbd,
 0x95, 0x92, 0x3a, 0x3f, 0xf7, 0x83, 0xba, 0x3d, 0x15, 0x1b, 0xf6, 0xbe,
 0x8f, 0xf9, 0xc1, 0xbe, 0x93, 0x56, 0xd1, 0xbd, 0xa1, 0x72, 0x47, 0x3d,
 0x47, 0x37, 0x20, 0xbc, 0x19, 0x2f, 0xc1, 0xbd, 0xf3, 0x1e, 0x09, 0xbe,
 0xb1, 0x47, 0x57, 0x3e, 0x79, 0x2c, 0x48, 0x3e, 0x01, 0xb8, 0x05, 0xbe,
 0x8c, 0x47, 0xe9, 0x3e, 0x32, 0x51, 0x3e, 0x3e, 0x19, 0x4d, 0x2c, 0x3e,
 0x36, 0x7f, 0x04, 0xbe, 0x46, 0xca, 0x49, 0x3d, 0xa1, 0x3a, 0x7d, 0xbe,
 0xd1, 0xec, 0x90, 0x3e, 0x44, 0x34, 0x06, 0x3d, 0x10, 0xa0, 0xc5, 0xbe,
 0x26, 0x64, 0xf5, 0x3b, 0xb5, 0x61, 0x9f, 0xbe, 0x4f, 0xcc, 0x1c, 0x3e,
 0x75, 0xfb, 0xa3, 0x3e, 0xe4, 0x2a, 0x1d, 0xbd, 0xcb, 0x8e, 0x82, 0x3e,
 0x3b, 0xe1, 0x3f, 0xbe, 0x0f, 0xcc, 0xa9, 0x3e, 0x4f, 0x8a, 0xae, 0x3e,
 0x2d, 0x13, 0x4e, 0x3e, 0x54, 0x14, 0xa9, 0xbe, 0xfa, 0xcb, 0xe8, 0xba,
 0xab, 0xc4, 0x86, 0xbe, 0x40, 0x06, 0xec, 0xba, 0x2e, 0xd8, 0xf9, 0x3d,
 0x3c, 0xc6, 0x31, 0xbd, 0xba, 0x1d, 0xc3, 0xbd, 0x95, 0x5c, 0x85, 0xbd,
 0xc2, 0xfc, 0xab, 0xbd, 0xd3, 0x18, 0xc6, 0x3c, 0x05, 0xad, 0x97, 0xbc,
 0x6a, 0x7e, 0x77, 0x3e, 0xf8, 0xf5, 0x27, 0x3e, 0x1e, 0xee, 0xa5, 0x3d,
 0x2b, 0x00, 0xb2, 0xbe, 0x03, 0x8d, 0xe6, 0x3d, 0xa7, 0x4c, 0x8c, 0x3e,
 0x0f, 0x70, 0x77, 0x3d, 0x6e, 0x24, 0xc8, 0x3e, 0xd7, 0x69, 0xc7, 0x3e,
 0xae, 0xad, 0xa1, 0xbc, 0x6f, 0x52, 0xd6, 0xbc, 0x03, 0xa9, 0x9f, 0x3c,
 0xac, 0xc2, 0xb1, 0x3d, 0x16, 0xf1, 0x87, 0xbe, 0xc7, 0x13, 0xec, 0x3b,
 0xbc, 0x57, 0xd8, 0x3d, 0xda, 0x43, 0xc6, 0xbd, 0x31, 0x5c, 0xdb, 0xbd,
 0x96, 0x54, 0xa9, 0x3e, 0xa8, 0x99, 0xd5, 0x3e, 0x9f, 0x67, 0xa7, 0xbe,
 0x2d, 0x61, 0x9e, 0x3e, 0x3c, 0x29, 0x5f, 0x3d, 0xca, 0x96, 0x5c, 0xbe,
 0x17, 0x7b, 0xcb, 0xbd, 0x4e, 0xf8, 0x0e, 0x3e, 0x0f, 0xd1, 0xff, 0x3d,
 0x5b, 0x3d, 0x0d, 0xbd, 0xb8, 0xdb, 0x33, 0x3e, 0x55, 0x63, 0x12, 0xbe,
 0xff, 0x67, 0x09, 0x3d, 0xff, 0xe4, 0x15, 0xbe, 0x5c, 0x70, 0x1c, 0xbd,
 0x8b, 0x5d, 0xea, 0x3d, 0x79, 0x67, 0x6a, 0x3e, 0x23, 0x55, 0x43, 0x3c,
 0xd9, 0x4c, 0x3d, 0x3d, 0x5b, 0x82, 0x0b, 0x3e, 0x6c, 0x2b, 0x88, 0x3c,
 0x04, 0x0c, 0x14, 0xbe, 0xc2, 0xbe, 0x68, 0x3d, 0x8e, 0x79, 0x00, 0xbd,
 0x9d, 0xfa, 0x38, 0x3e, 0x8b, 0x9d, 0x92, 0xbd, 0xd6, 0xf7, 0xae, 0xbe,
 0x59, 0x33, 0xe5, 0xbd, 0x95, 0x12, 0x33, 0xbe, 0x96, 0x1a, 0x93, 0x3e,
 0x78, 0x2c, 0x67, 0xbe, 0x0d, 0xd7, 0x2a, 0xbd, 0xd8, 0x5f, 0xe9, 0x3d,
 0x9e, 0x39, 0x8f, 0xbd, 0xb3, 0x88, 0x3d, 0xbe, 0xb5, 0x1d, 0x04, 0x3d,
 0x9b, 0x6c, 0x27, 0x3e, 0x6b, 0x0e, 0x61, 0x3d, 0x83, 0xbc, 0x3f, 0x3e,
 0x5b, 0x6a, 0xc4, 0xbd, 0x20, 0xfc, 0x5c, 0xbb, 0x61, 0x4b, 0xd8, 0x3d,
 0xf4, 0x81, 0x6d, 0x3e, 0x82, 0x71, 0xcc, 0x3c, 0x71, 0x30, 0xc9, 0x3d,
 0xc0, 0xe5, 0x34, 0x3d, 0xf1, 0x75, 0x25, 0x3e, 0xbd, 0xa4, 0xed, 0x3d,
 0x1c, 0x41, 0x89, 0x3e, 0xbd, 0x04, 0x2d, 0xbe, 0xf3, 0x47, 0xea, 0xbd,
 0xc6, 0xd7, 0xf4, 0xbd, 0x21, 0x75, 0xb4, 0xbd, 0xbc, 0x28, 0x95, 0xbd,
 0x9f, 0x44, 0x41, 0xbe, 0xdc, 0xef, 0x47, 0xbe, 0x2c, 0xe2, 0x40, 0x3e,
 0x39, 0xe7, 0x07, 0xbd, 0x2a, 0x9b, 0xff, 0x3d, 0x67, 0x13, 0x0f, 0xbe,
 0x85, 0x47, 0x8f, 0xbd, 0x09, 0xf4, 0xa6, 0x3d, 0x3f, 0x75, 0x10, 0xbc,
 0x03, 0x16, 0x0d, 0xbd, 0x4a, 0xe0, 0x0b, 0x3a, 0x07, 0x97, 0x27, 0xbe,
 0x40, 0x83, 0x27, 0xbe, 0x6e, 0xfe, 0x4b, 0x3e, 0xfb, 0xba, 0x02, 0xbe,
 0x5c, 0x28, 0x1e, 0xbe, 0x74, 0x12, 0x20, 0xbd, 0x1a, 0x7d, 0x57, 0x3c,
 0x5e, 0xc3, 0x1a, 0xbe, 0x19, 0x4e, 0x95, 0x3d, 0xa8, 0x84, 0x32, 0xbd,
 0x55, 0x85, 0xb4, 0x3c, 0xcb, 0xba, 0x5b, 0x3e, 0xee, 0x42, 0x22, 0xbe,
 0xbf, 0xd6, 0x05, 0xbe, 0x80, 0x52, 0xf6, 0xbd, 0xc6, 0xbb, 0xc3, 0x3d,
 0x90, 0x0f, 0x6e, 0xbe, 0x58, 0xdd, 0x35, 0x3d, 0x4b, 0xa1, 0x0f, 0xbe,
 0x99, 0xbd, 0xf9, 0xbd, 0x0e, 0x06, 0xbb, 0xbd, 0x74, 0x25, 0x14, 0x3e,
 0x0f, 0xb5, 0x6b, 0x3d, 0xab, 0x61, 0x4d, 0x3e, 0x1a, 0xa7, 0x3c, 0xbe,
 0x5f, 0xa7, 0xcd, 0x3d, 0xa4, 0xc3, 0x41, 0xbd, 0x55, 0xeb, 0xb7, 0x3d,
 0xbe, 0xa3, 0x8f, 0xbd, 0xf8, 0x64, 0x89, 0x3d, 0x60, 0xeb, 0x4e, 0xbc,
 0x78, 0x3f, 0x64, 0x3e, 0x66, 0x84, 0xc3, 0xbd, 0xd0, 0x8f, 0x85, 0x3e,
 0xac, 0x1c, 0x75, 0xbd, 0xec, 0x75, 0xf8, 0x3d, 0x1c, 0x66, 0x8f, 0xbd,
 0xa6, 0x57, 0x88, 0x3e, 0x46, 0x85, 0x77, 0xbe, 0x38, 0x40, 0x81, 0x3e,
 0x86, 0x22, 0x1d, 0xbe, 0x9e, 0xb8, 0x6d, 0xbe, 0xb8, 0x98, 0x21, 0x3d,
 0xb8, 0x5c, 0xcf, 0xbc, 0x80, 0xe2, 0xbf, 0xbb, 0xec, 0xf1, 0x5f, 0xbd,
 0xb0, 0x74, 0x8a, 0x3e, 0x56, 0xae, 0x08, 0x3e, 0x1e, 0x2a, 0x80, 0x3e,
 0xd2, 0x39, 0xa8, 0xbd, 0x3e, 0x06, 0x8c, 0xbe, 0x90, 0xa0, 0xe6, 0x3d,
 0xee, 0xc1, 0xc9, 0xbd, 0xb8, 0xc0, 0x71, 0x3e, 0x1e, 0xa1, 0x5a, 0x3e,
 0x23, 0x45, 0x0a, 0xbe, 0x24, 0xc2, 0x83, 0x3e, 0x2c, 0x6d, 0xa4, 0x3d,
 0xb8, 0xbf, 0x4e, 0xbe, 0x58, 0xb4, 0xdd, 0x3d, 0x91, 0x87, 0x62, 0xbe,
 0xd0, 0x9c, 0x7c, 0x3e, 0x00, 0xb2, 0x80, 0xbb, 0xf0, 0x38, 0x82, 0xbe,
 0x66, 0xb7, 0xbb, 0xbd, 0xb4, 0xe0, 0x81, 0xbe, 0x6d, 0x2c, 0x14, 0xbe,
 0xd3, 0x28, 0x06, 0xbe, 0x30, 0x11, 0x93, 0xbc, 0xc8, 0xee, 0xe9, 0x3d,
 0x5e, 0xde, 0x94, 0xbd, 0x8a, 0x65, 0x62, 0x3e, 0xd8, 0x6b, 0xbb, 0x3d,
 0xe0, 0x59, 0x20, 0xbc, 0x0e, 0xce, 0x85, 0xbe, 0xa4, 0x92, 0x3c, 0x3e,
 0x30, 0x4b, 0x24, 0x3e, 0xf2, 0xa6, 0x0b, 0x3e, 0x16, 0xa2, 0x8b, 0xbe,
 0xf0, 0x48, 0xd2, 0x3c, 0xc2, 0x22, 0xd9, 0xbd, 0x16, 0x2e, 0x89, 0x3e,
 0x78, 0x90, 0x20, 0x3d, 0x50, 0x87, 0xc6, 0x3d, 0x70, 0x7a, 0xe9, 0x3d,
 0x7e, 0xbb, 0x86, 0x3e, 0x00, 0x0b, 0xe6, 0x3c, 0x74, 0x46, 0xd6, 0x3d,
 0x91, 0x61, 0x08, 0xbe, 0x11, 0xf0, 0x80, 0xbe, 0x8a, 0x29, 0x89, 0x3e,
 0x95, 0xe4, 0x33, 0xbe, 0x70, 0xc7, 0xf8, 0xbd, 0xd8, 0x2d, 0x82, 0x3e,
 0x81, 0x06, 0x00, 0xbe, 0xea, 0xff, 0x3a, 0x3e, 0xa4, 0x3d, 0xbb, 0x3d,
 0x20, 0x52, 0xf4, 0x3d, 0x70, 0x33, 0x13, 0x3d, 0x64, 0xfc, 0x78, 0x3e,
 0xda, 0x6c, 0x03, 0x3e, 0xd0, 0x60, 0xac, 0x3d, 0x5a, 0x9f, 0x37, 0x3e,
 0x5a, 0x38, 0xef, 0xbd, 0xa8, 0x29, 0xb9, 0x3d, 0xb4, 0x82, 0x85, 0x3d,
 0xd2, 0x81, 0x5b, 0x3e, 0x60, 0x48, 0x8c, 0xbc, 0x90, 0xf9, 0x36, 0xbe,
 0x49, 0xc7, 0x06, 0x3d, 0xf0, 0x1f, 0x6e, 0xbe, 0xef, 0x91, 0x04, 0x3e,
 0xf8, 0x28, 0x8b, 0x3d, 0x8e, 0x9c, 0x34, 0xbe, 0xfb, 0xd9, 0xdf, 0x3c,
 0x86, 0xb4, 0x75, 0x3e, 0x87, 0xa7, 0x57, 0x3e, 0x2e, 0x94, 0x6f, 0x3e,
 0xec, 0x00, 0xb5, 0xbd, 0x10, 0xf8, 0x6f, 0x3e, 0xa8, 0x3c, 0x1a, 0xbe,
 0xef, 0x1d, 0x38, 0xbe, 0xa3, 0x20, 0xa6, 0xbd, 0x0d, 0x3d, 0x78, 0xbe,
 0x9d, 0xda, 0x42, 0xbe, 0x77, 0x1a, 0xee, 0x3b, 0xf2, 0x0b, 0x99, 0xbd,
 0x2f, 0x24, 0xc4, 0x3d, 0x64, 0xbc, 0x1b, 0xbe, 0x03, 0xe6, 0xe1, 0xbc,
 0xee, 0xe8, 0x8c, 0xbe, 0xb7, 0xf3, 0x91, 0x3b, 0xf8, 0x5b, 0x38, 0x3e,
 0xb4, 0x36, 0x59, 0xbe, 0x4e, 0x57, 0x63, 0xbe, 0xa8, 0xbe, 0x48, 0xbe,
 0xa1, 0x2d, 0x45, 0x3e, 0x72, 0x96, 0x74, 0x3e, 0x9c, 0x50, 0xa1, 0x3e,
 0x8f, 0x4d, 0x54, 0x3e, 0x49, 0x8a, 0x33, 0xbe, 0x3b, 0x71, 0x48, 0xbe,
 0xcb, 0xbd, 0x12, 0xbd, 0xf5, 0x4c, 0x4c, 0xbe, 0x3a, 0xf6, 0x5f, 0x3b,
 0x91, 0xbf, 0xf3, 0xbd, 0xe5, 0x00, 0xfd, 0x3d, 0x21, 0x82, 0x29, 0x3e,
 0xaa, 0x00, 0x65, 0x3d, 0x9d, 0x02, 0x89, 0xbe, 0x9b, 0x7d, 0xbd, 0xbd,
 0x0c, 0xf6, 0xed, 0x3d, 0x60, 0x55, 0x33, 0xbe, 0x76, 0xb6, 0xbc, 0xbd,
 0x59, 0xdd, 0xab, 0x3e, 0xf4, 0xaf, 0x51, 0xbb, 0x85, 0x5a, 0x8a, 0xbd,
 0x67, 0xb5, 0x37, 0x3d, 0xc5, 0x62, 0x71, 0x3e, 0x42, 0x72, 0x1d, 0x3e,
 0xfa, 0x41, 0xfc, 0x3d, 0x89, 0x23, 0xb8, 0x3a, 0xa3, 0x17, 0x11, 0x3e,
 0x26, 0x9f, 0x28, 0xbe, 0x6b, 0x93, 0x03, 0x3e, 0x10, 0xa8, 0x00, 0x3e,
 0xd6, 0x19, 0x1a, 0xbe, 0x24, 0xf6, 0xe7, 0xbd, 0x2f, 0xc0, 0x75, 0x3d,
 0x5c, 0xd9, 0xe6, 0xbd, 0x0b, 0x60, 0x9d, 0xbd, 0x49, 0xe7, 0xd0, 0x3d,
 0x58, 0x4f, 0x62, 0x3e, 0xb1, 0x53, 0x73, 0xbd, 0xa4, 0xf0, 0x90, 0x3e,
 0xe8, 0xd3, 0x12, 0x3e, 0xa3, 0x24, 0x21, 0xbd, 0x47, 0x3d, 0xc6, 0x3d,
 0x80, 0xd5, 0x16, 0xbe, 0x72, 0x21, 0xcc, 0xbd, 0xe7, 0xe7, 0x55, 0x3e,
 0x81, 0xf8, 0x15, 0xbe, 0xc6, 0x87, 0xce, 0x3d, 0x33, 0xb5, 0x8a, 0x3e,
 0xb2, 0x32, 0x8c, 0x3d, 0xc8, 0xc3, 0x69, 0xbd, 0x2c, 0x3e, 0x95, 0x3e,
 0xc2, 0x38, 0xd4, 0x3d, 0xa4, 0x92, 0x2e, 0xbe, 0x99, 0x54, 0x2e, 0xbe,
 0xce, 0x89, 0x82, 0xbe, 0x47, 0x88, 0x29, 0x3e, 0x70, 0x97, 0x5a, 0x3e,
 0xfb, 0x00, 0x3b, 0x3e, 0x02, 0xa6, 0x26, 0xbd, 0x71, 0xc2, 0xdf, 0x3d,
 0x5a, 0xc9, 0x7d, 0x3e, 0xee, 0xee, 0x9a, 0xbd, 0x2f, 0x42, 0x0c, 0xbd,
 0x43, 0x46, 0xa9, 0xbe, 0x10, 0x20, 0x1f, 0x3e, 0x07, 0x74, 0x96, 0xbd,
 0x5f, 0xe3, 0x1a, 0x3d, 0x0b, 0x31, 0x50, 0xbe, 0x12, 0xcb, 0x26, 0x3d,
 0xd8, 0x10, 0x55, 0xbe, 0xaf, 0x2f, 0x55, 0xbe, 0xfa, 0x8d, 0x8d, 0xbe,
 0xc6, 0x8c, 0x39, 0x3e, 0xc3, 0xcd, 0xd5, 0x3d, 0xd5, 0x5e, 0x11, 0xbe,
 0x6c, 0xef, 0x22, 0x3e, 0xf0, 0xf0, 0xb3, 0x3d, 0xc9, 0xb1, 0xb3, 0x3d,
 0xa5, 0x37, 0x90, 0x3e, 0x99, 0x77, 0x0e, 0x3e, 0xa3, 0x05, 0x2c, 0xbd,
 0x3c, 0xf2, 0xee, 0xbd, 0x7c, 0xa2, 0xe6, 0x3d, 0x9f, 0x72, 0xc7, 0x3d,
 0x27, 0xdf, 0x88, 0x3e, 0xfc, 0xab, 0x49, 0x3e, 0x43, 0x31, 0xd3, 0x3d,
 0xc7, 0xfc, 0x06, 0xbe, 0xbe, 0xf9, 0x68, 0xbe, 0x16, 0xdc, 0x83, 0x3e,
 0x0c, 0x8b, 0x30, 0x3e, 0x1d, 0xec, 0x0d, 0xbe, 0xaf, 0x21, 0x16, 0x3b,
 0xa1, 0x48, 0x44, 0x3c, 0xdf, 0x4a, 0x4b, 0x3e, 0x03, 0x87, 0x56, 0x3e,
 0xce, 0x2f, 0x70, 0xbd, 0xa5, 0x12, 0x72, 0xbe, 0xe6, 0x51, 0xef, 0x3d,
 0x88, 0x9f, 0x39, 0x3e, 0xa5, 0x59, 0x9d, 0xbd, 0xdd, 0xe4, 0x41, 0xbe,
 0x68, 0xc7, 0xc8, 0xbd, 0x6d, 0x99, 0xe6, 0xbd, 0x3b, 0xf1, 0x35, 0xbe,
 0x60, 0x9a, 0x82, 0xbe, 0x5b, 0x9b, 0x03, 0x3e, 0xc6, 0x24, 0x8e, 0x3e,
 0xff, 0x91, 0x12, 0x3e, 0xf8, 0x8d, 0x2c, 0xbe, 0x50, 0x62, 0x7f, 0x3e,
 0x20, 0xa5, 0x36, 0xbd, 0x55, 0x61, 0x24, 0x3e, 0x13, 0xf0, 0xa7, 0xbe,
 0x11, 0x55, 0x86, 0xbe, 0x23, 0x14, 0x31, 0x3d, 0x44, 0x47, 0x16, 0xbc,
 0x79, 0x82, 0x89, 0xbe, 0x96, 0x9f, 0x64, 0x3d, 0xfb, 0x61, 0xbd, 0xbd,
 0x27, 0x21, 0x40, 0xbe, 0x6a, 0xb7, 0x98, 0x3d, 0x8a, 0x12, 0xb2, 0x3e,
 0xad, 0x73, 0xdd, 0x3e, 0x5f, 0x83, 0x82, 0xbc, 0xf4, 0x8b, 0x48, 0x3d,
 0x05, 0x3e, 0xe9, 0xbe, 0xd3, 0xab, 0x7f, 0x3e, 0xfd, 0x52, 0x1e, 0x3e,
 0xe3, 0x63, 0xcb, 0xbc, 0x57, 0xb5, 0x88, 0xbd, 0xd9, 0x20, 0x7b, 0xbe,
 0x3e, 0x70, 0xff, 0x3b, 0xac, 0x15, 0xfc, 0x3d, 0xbe, 0xfa, 0xa9, 0xbd,
 0x48, 0xeb, 0x5a, 0x3e, 0x4c, 0xc3, 0xb5, 0x3d, 0xc4, 0xaa, 0xf6, 0xbd,
 0x12, 0x2f, 0x73, 0xbe, 0x52, 0x92, 0x4a, 0x3e, 0x82, 0xd0, 0xca, 0xbd,
 0x16, 0xf3, 0x13, 0x3e, 0x3a, 0x7c, 0x4a, 0xbe, 0x34, 0x3a, 0x31, 0x3e,
 0x7a, 0x06, 0x4f, 0x3e, 0x40, 0x16, 0x52, 0x3d, 0x80, 0x6e, 0xad, 0xbb,
 0x2a, 0x10, 0x83, 0x3e, 0xc2, 0x2d, 0xa1, 0xbd, 0xd4, 0x36, 0x36, 0xbe,
 0x60, 0xbb, 0x65, 0x3d, 0x40, 0xbb, 0xb7, 0x3b, 0x40, 0x0a, 0x22, 0xbd,
 0x5e, 0x31, 0x62, 0xbe, 0x2c, 0x81, 0x24, 0xbe, 0x08, 0x95, 0x30, 0x3e,
 0x94, 0x6e, 0x71, 0x3e, 0xf6, 0xa6, 0x46, 0x3e, 0xf4, 0xe0, 0xe1, 0xbd,
 0x52, 0x66, 0x54, 0xbe, 0xcf, 0x76, 0x8b, 0xbe, 0x4d, 0xb3, 0x27, 0xbe,
 0x34, 0x5c, 0xdd, 0x3d, 0x70, 0x35, 0x80, 0x3c, 0xfc, 0xa9, 0x68, 0x3e,
 0x0a, 0x92, 0x54, 0x3e, 0xf0, 0x76, 0xb0, 0xbc, 0x74, 0xcd, 0x94, 0xbd,
 0x68, 0xa3, 0x65, 0xbe, 0x48, 0xc6, 0x66, 0xbe, 0x53, 0x09, 0x63, 0xbe,
 0x00, 0x28, 0x41, 0xbe, 0xa2, 0xee, 0x11, 0x3e, 0x80, 0x11, 0xc5, 0x3d,
 0x0f, 0x8b, 0x0a, 0xbe, 0x4d, 0x40, 0x5d, 0xbe, 0x61, 0x84, 0x86, 0xbe,
 0xe6, 0x06, 0x54, 0x3e, 0x98, 0xf5, 0xef, 0x3d, 0xc0, 0x05, 0xd9, 0x3b,
 0x40, 0xc6, 0x7f, 0xbe, 0x6a, 0xbc, 0x13, 0xbe, 0xf8, 0xa7, 0x68, 0x3e,
 0x5a, 0x8e, 0x63, 0xbe, 0x0a, 0x62, 0xe3, 0xbd, 0x30, 0x48, 0x04, 0xbd,
 0xe8, 0xc6, 0x72, 0x3d, 0xd9, 0x06, 0x85, 0xbe, 0x80, 0x0e, 0x03, 0xbc,
 0x28, 0xab, 0x87, 0xbe, 0x30, 0xe7, 0x4b, 0xbd, 0xa0, 0xdd, 0x24, 0x3c,
 0xf8, 0xfd, 0xf8, 0x3d, 0x80, 0x68, 0xbb, 0x3d, 0xf4, 0xe8, 0xdf, 0x3d,
 0x44, 0xc2, 0x35, 0xbe, 0x28, 0x9f, 0xa7, 0x3d, 0x5c, 0x79, 0x3a, 0x3e,
 0x38, 0xa0, 0xf2, 0xbd, 0x7c, 0x1b, 0x4f, 0xbd, 0x92, 0xfb, 0x1c, 0xbe,
 0x80, 0x57, 0x76, 0x3e, 0x59, 0x59, 0x81, 0xbe, 0x14, 0x61, 0xf8, 0xbd,
 0xb2, 0x2f, 0xee, 0xbd, 0x6e, 0xe0, 0xde, 0xbd, 0x20, 0xf9, 0x24, 0xbe,
 0xc4, 0xf1, 0x04, 0x3e, 0x20, 0x59, 0xe4, 0x3d, 0x88, 0x03, 0x25, 0xbe,
 0x9c, 0x23, 0x27, 0x3e, 0x00, 0x8e, 0x18, 0xba, 0x4c, 0x8c, 0x8d, 0x3d,
 0x00, 0x5c, 0xac, 0x3b, 0x02, 0x18, 0x44, 0xbe, 0x80, 0x00, 0x32, 0x3b,
 0x9f, 0x52, 0x41, 0xbe, 0xca, 0x64, 0x66, 0x3e, 0xf7, 0x83, 0x54, 0xbe,
 0xc4, 0xf1, 0x4c, 0xbe, 0x9f, 0x74, 0x6c, 0xbe, 0xa0, 0x13, 0x8b, 0xbc,
 0xf8, 0x8b, 0x59, 0x3e, 0x20, 0xd3, 0x6a, 0x3e, 0x84, 0xf7, 0x84, 0x3e,
 0xe4, 0x5e, 0x28, 0xbd, 0x86, 0xc9, 0x59, 0x3e, 0xc0, 0xe4, 0x13, 0x3c,
 0x8c, 0x0c, 0x88, 0xbd, 0xc6, 0xc8, 0x2e, 0xbe, 0xa4, 0x98, 0x86, 0x3e,
 0xa3, 0x5d, 0x88, 0xbe, 0x44, 0x3e, 0x4a, 0xbe, 0x24, 0x3c, 0x2f, 0x3e,
 0x24, 0x89, 0xa3, 0xbd, 0xb4, 0x16, 0xef, 0x3d, 0x64, 0x01, 0x7c, 0x3e,
 0xb9, 0x20, 0x39, 0xbe, 0x7d, 0x5d, 0x6b, 0xbe, 0x00, 0xa2, 0x23, 0x3a,
 0x8c, 0x9b, 0xf4, 0x3d, 0xb0, 0x4c, 0x81, 0x3e, 0x5a, 0x22, 0x30, 0x3e,
 0x72, 0xdf, 0x33, 0x3e, 0xa2, 0x12, 0x46, 0xbe, 0xc4, 0x53, 0x4a, 0x3e,
 0x58, 0x63, 0x32, 0x3e, 0x18, 0xa9, 0xa9, 0x3d, 0x74, 0x1b, 0x72, 0x3e,
 0x56, 0xe8, 0x19, 0xbe, 0x1c, 0x4e, 0x08, 0xbd, 0x76, 0x33, 0x85, 0xbe,
 0xc6, 0x5f, 0x62, 0x3e, 0x72, 0xe6, 0x38, 0x3e, 0x00, 0x9a, 0x7c, 0x3c,
 0x8e, 0xdf, 0x3d, 0x3e, 0x12, 0xf5, 0x02, 0xbe, 0xe0, 0xae, 0xf1, 0xbc,
 0xd8, 0x9a, 0x46, 0xbe, 0xf0, 0x3d, 0xf4, 0x3c, 0xf4, 0xec, 0x86, 0x3e,
 0x42, 0x87, 0x60, 0x3e, 0x44, 0x93, 0x7d, 0x3e, 0x3c, 0xb5, 0xc4, 0xbd,
 0xac, 0xcc, 0x46, 0xbd, 0x0e, 0x87, 0x9a, 0xbd, 0x46, 0xa5, 0x39, 0x3e,
 0x57, 0x0f, 0x86, 0xbe, 0x58, 0x7d, 0x7e, 0x3e, 0x52, 0x80, 0x54, 0x3e,
 0x64, 0xc6, 0x28, 0x3e, 0x7c, 0x5f, 0x53, 0x3e, 0xe9, 0x99, 0x17, 0xbe,
 0x44, 0x7d, 0x27, 0x3e, 0xe0, 0xab, 0x94, 0x3d, 0x98, 0x34, 0x6e, 0x3e,
 0x14, 0x16, 0xca, 0x3d, 0x48, 0x43, 0x2c, 0x3e, 0x9c, 0xa4, 0x19, 0xbe,
 0x10, 0x11, 0xc5, 0x3c, 0x50, 0x03, 0x4e, 0x3d, 0x30, 0x8e, 0xed, 0xbc,
 0xcb, 0x15, 0x8a, 0xbe, 0x99, 0x60, 0x31, 0xbe, 0x12, 0x3d, 0x5a, 0x3e,
 0x18, 0xb1, 0x4c, 0xbd, 0x44, 0x3b, 0x8e, 0x3d, 0xfe, 0x79, 0x71, 0xbe,
 0x6c, 0x53, 0xbd, 0x3d, 0xa0, 0x00, 0x29, 0xbe, 0x68, 0x35, 0x83, 0x3e,
 0xb6, 0x82, 0xc0, 0xbd, 0xc8, 0x05, 0x87, 0xbd, 0x9c, 0xac, 0x61, 0xbe,
 0xda, 0x5b, 0x04, 0xbe, 0xba, 0xce, 0x20, 0x3e, 0x9d, 0x1d, 0xea, 0x3d,
 0x6d, 0x12, 0x19, 0x3e, 0x05, 0x79, 0xb2, 0x3d, 0x1f, 0xc7, 0x73, 0x3e,
 0x06, 0x2c, 0x6c, 0xbd, 0x85, 0x27, 0x14, 0xbe, 0x41, 0xc6, 0x2b, 0xbe,
 0x03, 0x43, 0x71, 0xbe, 0x89, 0x81, 0x9f, 0x3d, 0x41, 0x23, 0x02, 0xbd,
 0x02, 0xe7, 0x0a, 0x3e, 0xd5, 0xf9, 0xed, 0x3d, 0x95, 0x57, 0x1b, 0x3e,
 0x56, 0xbd, 0x35, 0x3c, 0xe3, 0xbb, 0xeb, 0xbd, 0xce, 0x85, 0xa6, 0xbb,
 0xf3, 0xad, 0x6a, 0xbd, 0x40, 0x1a, 0x14, 0x3e, 0xfb, 0x6e, 0x13, 0x3e,
 0x15, 0xa4, 0x42, 0xbe, 0x6f, 0xac, 0xf6, 0xbd, 0xdd, 0x48, 0x91, 0x3d,
 0xd1, 0x59, 0x0c, 0xbd, 0xb3, 0xa0, 0x99, 0x3d, 0x6e, 0x32, 0x0a, 0xbe,
 0x49, 0xd7, 0xb7, 0x3d, 0xc9, 0x25, 0x27, 0xbe, 0x01, 0x34, 0xeb, 0xbb,
 0xa9, 0x07, 0xc2, 0x3d, 0x38, 0x0b, 0xd7, 0x3d, 0x1e, 0x6b, 0x27, 0x3d,
 0xdb, 0xcc, 0x52, 0x3e, 0x3f, 0x49, 0xff, 0xbd, 0x0d, 0xf8, 0x24, 0xbe,
 0x38, 0xbf, 0x88, 0xbe, 0x34, 0x06, 0x98, 0xbd, 0xdd, 0x6f, 0x51, 0xbe,
 0x40, 0x36, 0x85, 0x3e, 0xef, 0xbf, 0x6e, 0xbe, 0x94, 0x35, 0x73, 0xbe,
 0x58, 0xf8, 0x9d, 0x3d, 0x36, 0x27, 0xe5, 0xbd, 0x84, 0xba, 0x83, 0xbe,
 0x02, 0x6f, 0xf4, 0xbd, 0x94, 0xd5, 0xa7, 0x3d, 0xe0, 0x86, 0xad, 0xbc,
 0xf8, 0xf5, 0x4b, 0x3e, 0xd0, 0x83, 0x85, 0xbe, 0x28, 0x1b, 0x16, 0xbe,
 0x5c, 0xa4, 0x6c, 0xbe, 0x51, 0x50, 0x80, 0xbe, 0x80, 0x52, 0xc7, 0xbb,
 0x34, 0x13, 0x71, 0x3e, 0x8e, 0x48, 0x3b, 0xbe, 0x42, 0x6b, 0x2f, 0x3e,
 0x36, 0xaa, 0x7b, 0xbe, 0x5c, 0x6a, 0x58, 0x3e, 0x83, 0x46, 0x2f, 0xbe,
 0x2a, 0x22, 0x83, 0x3e, 0x10, 0xa1, 0xcf, 0x3c, 0x24, 0xe5, 0x5c, 0xbd,
 0x3a, 0x9f, 0x81, 0xbe, 0x54, 0x6e, 0x80, 0x3e, 0xf6, 0x80, 0x18, 0x3e,
 0x50, 0x4b, 0xc9, 0x3d, 0x49, 0x43, 0x43, 0xbe, 0x35, 0x49, 0x85, 0xbe,
 0x14, 0xf2, 0x94, 0x3d, 0x98, 0x9a, 0xa3, 0x3d, 0xd0, 0x96, 0x3a, 0xbd,
 0x0f, 0x66, 0x76, 0xbe, 0x94, 0xb4, 0x86, 0xbe, 0x42, 0x9e, 0xc9, 0xbd,
 0xa2, 0x8a, 0x25, 0x3e, 0x6e, 0x2c, 0x0b, 0xbe, 0xec, 0xb1, 0x58, 0x3e,
 0x1a, 0x31, 0x20, 0x3e, 0xb8, 0x60, 0x4a, 0x3e, 0xa0, 0x40, 0xfd, 0x3d,
 0xca, 0xe9, 0x4c, 0x3e, 0x07, 0x74, 0x88, 0xbe, 0x17, 0xfd, 0x68, 0xbe,
 0x3c, 0x78, 0x69, 0x3e, 0xfe, 0x66, 0x58, 0x3e, 0x90, 0x86, 0xc0, 0x3c,
 0xc4, 0xda, 0x73, 0x3e, 0xf4, 0xa5, 0xa9, 0xbd, 0x7a, 0xb3, 0x28, 0x3e,
 0x00, 0xc4, 0xed, 0x3d, 0x56, 0x1f, 0x1a, 0x3e, 0x84, 0x09, 0x18, 0xbd,
 0xf8, 0xd2, 0x6a, 0xbe, 0x80, 0xef, 0xde, 0xbb, 0xde, 0x7d, 0x01, 0x3e,
 0xa4, 0xb1, 0x71, 0x3e, 0xa2, 0xac, 0x56, 0x3e, 0x08, 0xcc, 0x86, 0x3e,
 0x6b, 0x04, 0x17, 0xbe, 0x16, 0xff, 0x82, 0x3e, 0x02, 0x6e, 0x23, 0x3e,
 0xb0, 0xcb, 0x06, 0x3d, 0xfe, 0x5d, 0x3c, 0x3e, 0xf0, 0x57, 0xec, 0xbd,
 0xa0, 0x4e, 0x35, 0xbd, 0xe8, 0xf9, 0x42, 0x3e, 0x70, 0xc3, 0x56, 0x3d,
 0x58, 0xbd, 0x5f, 0x3d, 0x04, 0x6a, 0x56, 0x3e, 0xb0, 0x11, 0xaf, 0xbc,
 0x86, 0x9a, 0x69, 0xbe, 0x42, 0x03, 0xd9, 0xbd, 0x1a, 0xad, 0xa1, 0xbd,
 0xcc, 0x0f, 0x2c, 0x3e, 0x86, 0xcc, 0xf5, 0xbd, 0x18, 0xf1, 0x9c, 0xbd,
 0x5f, 0x99, 0x5b, 0xbe, 0x26, 0x94, 0x1f, 0x3e, 0xeb, 0xa8, 0x72, 0xbe,
 0x4e, 0xea, 0x61, 0x3d, 0x3b, 0x61, 0x06, 0x3e, 0xc3, 0x6d, 0x58, 0x3e,
 0xc9, 0x27, 0x67, 0x3e, 0x10, 0xb9, 0x84, 0x3e, 0x2c, 0xb2, 0x3d, 0xbd,
 0xb3, 0x1e, 0xb8, 0xbd, 0xb0, 0xc0, 0x28, 0xbe, 0xf6, 0x90, 0x5a, 0xbe,
 0x9d, 0x96, 0xd8, 0x3d, 0x63, 0x96, 0x2d, 0xbd, 0x15, 0x86, 0x93, 0x3d,
 0x7d, 0x4e, 0x14, 0x3d, 0x15, 0x98, 0xac, 0xbe, 0xec, 0x48, 0x6f, 0xbe,
 0x04, 0x6a, 0xca, 0xbd, 0xed, 0xae, 0x30, 0x3d, 0x6e, 0xc3, 0x47, 0x3d,
 0x38, 0xb3, 0x6b, 0x3d, 0x39, 0xf9, 0xc4, 0x3d, 0x05, 0x21, 0x98, 0xbe,
 0x8a, 0x08, 0x6e, 0xbe, 0xa7, 0xe8, 0x46, 0xbd, 0x84, 0x75, 0xee, 0x3b,
 0x0f, 0x94, 0x77, 0x3d, 0x16, 0xd7, 0x2f, 0x3e, 0xe1, 0xa6, 0x2a, 0x3e,
 0xa2, 0x32, 0x1c, 0x3e, 0x52, 0x45, 0x46, 0x3e, 0x49, 0xf0, 0x80, 0x3d,
 0xb1, 0x9f, 0x5f, 0x3e, 0xeb, 0xe9, 0x5c, 0x3e, 0x5f, 0x5a, 0x81, 0x3d,
 0xb7, 0xc3, 0x1d, 0xbe, 0x41, 0x1e, 0x33, 0xbb, 0xbd, 0xc1, 0x01, 0xbe,
 0x34, 0x09, 0x72, 0x3d, 0xec, 0x51, 0xa9, 0x3d, 0x73, 0x22, 0x87, 0x3e,
 0x20, 0x87, 0x0c, 0x3e, 0xc1, 0x9d, 0xa1, 0x3e, 0xe5, 0xb9, 0xe8, 0x3c,
 0x01, 0x60, 0x92, 0xbe, 0x72, 0x61, 0x83, 0x3e, 0xf5, 0xbe, 0xbb, 0x3d,
 0xd4, 0x89, 0x8f, 0x3e, 0x4c, 0x2b, 0x0b, 0x3e, 0x07, 0xb8, 0x65, 0x3c,
 0x28, 0xd3, 0xbe, 0x3d, 0x9c, 0x01, 0xe6, 0xbe, 0x9d, 0x6c, 0x61, 0xbd,
 0x4d, 0x35, 0x7d, 0x3e, 0x3d, 0xe3, 0x85, 0x3e, 0xcb, 0x51, 0x0e, 0xbe,
 0xbd, 0xd7, 0x33, 0x3e, 0x74, 0x0e, 0x7c, 0x3e, 0x64, 0x13, 0x21, 0xbf,
 0xb0, 0x72, 0x98, 0xbd, 0x51, 0x4e, 0x98, 0xbe, 0x5c, 0x67, 0x62, 0x3d,
 0xd5, 0xe6, 0xb5, 0xbe, 0x14, 0x65, 0x85, 0x3d, 0x2b, 0xab, 0xe3, 0xbe,
 0x27, 0xc5, 0x5f, 0x3e, 0x0a, 0x3b, 0xe8, 0x3e, 0x7f, 0xe4, 0xfc, 0xbc,
 0xc7, 0x08, 0x91, 0x3e, 0xe2, 0xa9, 0x31, 0x3f, 0x8c, 0x96, 0xba, 0xbe,
 0xed, 0xcf, 0x97, 0xbe, 0xbf, 0x92, 0x30, 0xbe, 0x28, 0x44, 0x66, 0xbd,
 0x5a, 0x85, 0x50, 0x3c, 0x61, 0xda, 0x30, 0xbe, 0x79, 0xf8, 0x2c, 0xbd,
 0x82, 0x7a, 0xc3, 0xbd, 0xca, 0x96, 0xcb, 0x3e, 0x39, 0xbd, 0x58, 0xbe,
 0xc7, 0x29, 0x2a, 0xbf, 0x84, 0x22, 0x55, 0x3e, 0x60, 0xef, 0xd6, 0xbc,
 0x1a, 0xe1, 0x55, 0x3e, 0x7e, 0xcc, 0x8b, 0xbe, 0x32, 0xed, 0x65, 0xbe,
 0x80, 0x82, 0x66, 0xbb, 0x34, 0x7f, 0xdb, 0xbd, 0x00, 0xb4, 0x9a, 0x39,
 0x90, 0xef, 0x8a, 0xbd, 0xaa, 0xae, 0x14, 0x3e, 0xca, 0x7f, 0x00, 0x3e,
 0x18, 0x78, 0x16, 0xbd, 0x9c, 0xc0, 0xe1, 0x3d, 0x00, 0x26, 0xb9, 0x3c,
 0x60, 0x4b, 0x51, 0x3c, 0x76, 0x67, 0xd9, 0xbd, 0x60, 0x8c, 0xad, 0x3d,
 0xb8, 0xb1, 0x55, 0x3d, 0x20, 0xf3, 0x66, 0xbe, 0xd8, 0x5e, 0xf9, 0xbc,
 0xba, 0x33, 0x56, 0x3e, 0x10, 0x15, 0x79, 0x3e, 0xb6, 0x6f, 0x6c, 0xbe,
 0x50, 0xbd, 0x8d, 0x3d, 0xd4, 0x71, 0x53, 0xbe, 0xfb, 0x93, 0x5d, 0xbe,
 0x2a, 0x57, 0xd9, 0xbd, 0x42, 0x70, 0x61, 0x3e, 0x0a, 0xe9, 0x5c, 0x3e,
 0x68, 0x8a, 0x84, 0x3e, 0x28, 0xc8, 0x41, 0x3e, 0xac, 0x0a, 0x6e, 0x3e,
 0x80, 0xbf, 0xb9, 0xbc, 0x8e, 0xfd, 0x55, 0xbe, 0x48, 0x24, 0x28, 0x3e,
 0x9d, 0x87, 0x2e, 0xbe, 0x6e, 0x53, 0x64, 0x3e, 0x1a, 0x89, 0xde, 0xbd,
 0x8f, 0x31, 0x27, 0xbe, 0xf4, 0xf0, 0xc3, 0x3d, 0xff, 0xcb, 0x43, 0xbe,
 0x58, 0x07, 0x89, 0xbe, 0x6b, 0xec, 0x93, 0xbe, 0x51, 0xe5, 0x65, 0x3d,
 0xd2, 0x17, 0x3e, 0x3d, 0x1f, 0x25, 0xd5, 0xbd, 0x7c, 0x45, 0x09, 0x3d,
 0x8c, 0xc6, 0x0e, 0x3e, 0x93, 0xe2, 0x0d, 0x3e, 0xca, 0x9a, 0xa5, 0x3d,
 0x06, 0xfc, 0xee, 0x3c, 0xd2, 0xbf, 0x52, 0x3e, 0xd4, 0x90, 0x82, 0x3e,
 0x39, 0xe0, 0x5c, 0x3e, 0xb8, 0x7b, 0x14, 0x3e, 0xdf, 0xef, 0xd5, 0x3d,
 0x32, 0x60, 0x16, 0x3d, 0xc3, 0x84, 0x80, 0xbe, 0xb4, 0x16, 0x3f, 0xbc,
 0x58, 0x8c, 0x7c, 0x3e, 0xb0, 0xeb, 0xc5, 0x3d, 0x01, 0xa4, 0x25, 0x3e,
 0x8b, 0x39, 0x0e, 0xbe, 0x08, 0xf3, 0x20, 0x3c, 0x54, 0xe7, 0x35, 0x3e,
 0x70, 0x33, 0xfd, 0xbd, 0xdf, 0x33, 0x1a, 0xbd, 0x1e, 0xd8, 0xa4, 0x3d,
 0x1e, 0x84, 0x75, 0xbe, 0x2f, 0x1c, 0x62, 0x3e, 0x62, 0x2b, 0x81, 0x3c,
 0xdd, 0x89, 0xa6, 0x3b, 0x28, 0x11, 0x3b, 0xbd, 0x03, 0xab, 0x57, 0x3e,
 0x8f, 0x06, 0xad, 0x3e, 0x88, 0xb8, 0x54, 0xbe, 0x89, 0x50, 0xe0, 0xbd,
 0x94, 0xe9, 0x5a, 0x3e, 0x81, 0x72, 0x06, 0xbe, 0x8a, 0xb4, 0x06, 0x3e,
 0x10, 0xb3, 0x7b, 0x3e, 0x82, 0xd0, 0xb5, 0xbd, 0xf8, 0xb0, 0x77, 0x3e,
 0x7c, 0xfa, 0x1b, 0x3e, 0x1c, 0xdf, 0x7f, 0xbd, 0x24, 0x1e, 0xe0, 0x3d,
 0x22, 0x6d, 0x17, 0xbe, 0xac, 0xa5, 0x23, 0x3e, 0xb2, 0x73, 0x3e, 0xbe,
 0xf6, 0x4e, 0x5e, 0x3e, 0x9e, 0xf1, 0x86, 0x3e, 0x4c, 0x31, 0x7f, 0x3e,
 0xe6, 0x63, 0x6e, 0xbe, 0xbe, 0xdf, 0xb5, 0xbd, 0xfc, 0x88, 0x7d, 0x3e,
 0xb6, 0x16, 0x3f, 0x3e, 0xc8, 0x3a, 0x74, 0x3e, 0x09, 0x8d, 0x22, 0xbe,
 0xa6, 0xd1, 0x2b, 0xbe, 0xa0, 0x79, 0x8b, 0x3e, 0xc6, 0x7f, 0x85, 0x3e,
 0x68, 0xe6, 0x71, 0xbd, 0xe8, 0x21, 0xd4, 0xbd, 0x80, 0x8a, 0x90, 0xbc,
 0x14, 0xa9, 0xc9, 0xbd, 0x52, 0x70, 0x87, 0xbe, 0xa4, 0xbc, 0x71, 0xbd,
 0xb0, 0xdc, 0x02, 0x3d, 0x36, 0x7c, 0x52, 0xbe, 0x38, 0x49, 0x6a, 0x3e,
 0x4e, 0x14, 0x5a, 0x3e, 0x70, 0xf2, 0x13, 0x3e, 0x08, 0x92, 0xb0, 0x3d,
 0xce, 0x15, 0xc1, 0xbd, 0x58, 0xf4, 0x51, 0x3d, 0xc0, 0xb6, 0x72, 0x3d,
 0x20, 0x97, 0xd9, 0x3c, 0xe4, 0xc0, 0x2b, 0x3e, 0x18, 0x7e, 0x84, 0x3e,
 0x04, 0xf1, 0x04, 0x3e, 0x5e, 0x8b, 0x80, 0x3e, 0x90, 0xb6, 0x4d, 0xbd,
 0x00, 0x64, 0xb7, 0x3d, 0xfc, 0xe7, 0xf4, 0x3d, 0x5c, 0x09, 0x37, 0xbe,
 0x68, 0x28, 0x07, 0xbe, 0x50, 0xed, 0x49, 0x3d, 0x46, 0x37, 0xf5, 0xbd,
 0x24, 0x86, 0x52, 0x3e, 0x00, 0x30, 0x12, 0x3c, 0xc5, 0xb6, 0x5a, 0xbe,
 0xa2, 0x2f, 0x88, 0x3e, 0x10, 0xbe, 0x85, 0x3e, 0x74, 0xf1, 0x92, 0xbd,
 0x10, 0x7e, 0xb7, 0x3c, 0x10, 0x7c, 0x49, 0xbe, 0x69, 0xfc, 0x8b, 0xbe,
 0x58, 0x4c, 0x0c, 0x3e, 0x2e, 0x66, 0x22, 0x3e, 0x3e, 0x36, 0x13, 0xbe,
 0xa4, 0xd9, 0x78, 0x3e, 0xd2, 0x17, 0x98, 0xbd, 0xfc, 0x9b, 0x8d, 0x3d,
 0xe8, 0xd0, 0x37, 0x3d, 0xb2, 0x86, 0x7f, 0xbe, 0x4a, 0xfb, 0x5c, 0xbe,
 0x34, 0x9b, 0x57, 0xbe, 0x0c, 0x72, 0xdc, 0x3d, 0x28, 0x49, 0x7f, 0x3e,
 0xb0, 0x3e, 0x9a, 0xbc, 0xb8, 0xae, 0x35, 0xbe, 0x6c, 0x1c, 0xf6, 0xbd,
 0x94, 0x2d, 0x8b, 0xbe, 0x5f, 0x16, 0x41, 0xbe, 0xbc, 0x48, 0x84, 0x3e,
 0x5c, 0xea, 0x8e, 0xbd, 0x96, 0x2f, 0x89, 0x3e, 0xd8, 0x22, 0x1f, 0x3d,
 0x14, 0x04, 0x32, 0x3e, 0x3a, 0x9d, 0x31, 0xbe, 0x18, 0xfe, 0xf9, 0x3d,
 0x98, 0xd2, 0x19, 0x3d, 0xc6, 0xf7, 0x0d, 0x3e, 0x08, 0xb2, 0xcb, 0x3d,
 0x9c, 0xdf, 0x02, 0x3e, 0xe4, 0x05, 0x62, 0xbe, 0x50, 0x11, 0x57, 0xbe,
 0xcc, 0xb8, 0xe9, 0x3d, 0x00, 0x2b, 0x3f, 0x3b, 0x50, 0x39, 0x1c, 0x3e,
 0x19, 0xe0, 0x46, 0xbe, 0x28, 0x19, 0x3f, 0x3d, 0x00, 0xb6, 0x68, 0x3e,
 0xc0, 0xbe, 0x51, 0xbd, 0xc0, 0x51, 0x7b, 0x3d, 0x46, 0x5b, 0x16, 0xbe,
 0xcc, 0xf1, 0x85, 0xbd, 0xdc, 0x5d, 0x12, 0x3e, 0xc0, 0x00, 0xc4, 0xbb,
 0x66, 0x14, 0x35, 0x3e, 0x6c, 0xb0, 0x83, 0x3e, 0x66, 0xa7, 0x5a, 0xbe,
 0x08, 0x85, 0x45, 0x3e, 0xfe, 0x7c, 0xf6, 0xbd, 0x68, 0xf2, 0xd1, 0x3d,
 0x4e, 0x35, 0x40, 0x3e, 0x76, 0x2b, 0x36, 0x3e, 0x5c, 0x03, 0xac, 0x3d,
 0x08, 0x21, 0xf8, 0xbc, 0xf8, 0x72, 0xe4, 0x3d, 0xfa, 0x33, 0xaf, 0xbd,
 0x1c, 0x3a, 0x2a, 0x3e, 0x5e, 0xd0, 0x80, 0xbe, 0xb2, 0xa5, 0x3e, 0xbe,
 0xe2, 0x94, 0x4f, 0x3e, 0xb4, 0xe6, 0x0a, 0xbd, 0xe0, 0x60, 0x27, 0xbc,
 0x3c, 0xad, 0x89, 0x3e, 0xea, 0x0c, 0x5b, 0xbe, 0x62, 0xf0, 0x8a, 0xbd,
 0x12, 0x68, 0x62, 0x3d, 0x68, 0x70, 0xeb, 0x3d, 0x30, 0x16, 0xb6, 0xbd,
 0x55, 0x0f, 0xbd, 0x3b, 0x5c, 0x55, 0x1d, 0x3e, 0xf0, 0xb8, 0x02, 0x3e,
 0x85, 0x65, 0x84, 0xbe, 0x23, 0x9b, 0x72, 0x3e, 0xc2, 0x71, 0x0f, 0xbe,
 0x88, 0xaf, 0xf7, 0xbd, 0xd5, 0x3c, 0x5d, 0xbe, 0x5e, 0x31, 0x45, 0x3e,
 0xb0, 0x0b, 0x81, 0x3e, 0x6d, 0xa2, 0x1f, 0x3c, 0x5d, 0xce, 0xab, 0xbe,
 0x87, 0x39, 0x43, 0x3e, 0x76, 0xed, 0x72, 0x3e, 0x21, 0xb4, 0x04, 0xbe,
 0xf6, 0x78, 0x84, 0xbe, 0x16, 0xb6, 0x50, 0xbb, 0xe7, 0x4a, 0x06, 0xbd,
 0xcb, 0x8d, 0xe1, 0xbd, 0xb5, 0xab, 0xb2, 0xbe, 0x09, 0x3d, 0x99, 0x3d,
 0xf9, 0x1d, 0x49, 0xbe, 0x1a, 0xa0, 0xfe, 0x3c, 0xe4, 0x9b, 0xa3, 0x3d,
 0xdf, 0xee, 0x17, 0x3e, 0xa8, 0x14, 0x24, 0xbf, 0x14, 0xce, 0x45, 0x3d,
 0x39, 0x09, 0x10, 0xbe, 0x5a, 0xd1, 0x02, 0x3e, 0x65, 0x54, 0xb9, 0x3e,
 0xf0, 0x4f, 0x99, 0xbe, 0x7c, 0x59, 0xb6, 0x3e, 0x9e, 0x2a, 0x61, 0xbd,
 0x03, 0x0b, 0x22, 0x3f, 0x14, 0x50, 0xee, 0xbc, 0xae, 0xa0, 0x4d, 0x3d,
 0xdb, 0x74, 0xac, 0x3e, 0xb9, 0x9e, 0x16, 0xbe, 0x37, 0xfe, 0x53, 0xbe,
 0x01, 0x5a, 0x3a, 0xbe, 0x2e, 0x43, 0xe3, 0xbc, 0xab, 0x6f, 0x13, 0xbe,
 0x35, 0xd2, 0x77, 0xbe, 0x34, 0x34, 0x2b, 0x3e, 0xf7, 0x03, 0x97, 0x3e,
 0x73, 0x8a, 0xa1, 0x3d, 0x71, 0x86, 0x2e, 0x3e, 0xb8, 0xb5, 0xf4, 0xbc,
 0xe3, 0x47, 0x21, 0x3d, 0x6b, 0xad, 0x86, 0xbd, 0x9d, 0xb1, 0x2b, 0x3d,
 0x25, 0x7a, 0x30, 0xbe, 0xdd, 0xcb, 0x50, 0xbd, 0xbc, 0xb0, 0x10, 0x3e,
 0x21, 0x79, 0xee, 0x3d, 0xf1, 0x94, 0x22, 0x3e, 0x7c, 0xb2, 0x2f, 0x3e,
 0x4e, 0xd1, 0x21, 0x3e, 0x96, 0x4e, 0x8a, 0x3e, 0x00, 0xfe, 0xc6, 0x3c,
 0x5e, 0x9c, 0x43, 0xbe, 0xa2, 0x72, 0x28, 0x3e, 0x0b, 0x31, 0x74, 0x3e,
 0xba, 0xff, 0x2f, 0x3e, 0x8e, 0x8c, 0x28, 0x3d, 0x8f, 0x84, 0x39, 0x3c,
 0x0e, 0xc2, 0xba, 0xbd, 0xf9, 0x34, 0x11, 0xbe, 0xa0, 0xfc, 0x5b, 0xbe,
 0x9b, 0xdd, 0x2f, 0x3e, 0x4f, 0x5e, 0x60, 0xbe, 0xf4, 0x4b, 0x2c, 0xbc,
 0x68, 0x2e, 0xc3, 0xbd, 0x78, 0x46, 0x63, 0xbe, 0x57, 0xaa, 0x93, 0x3c,
 0x08, 0xd2, 0x37, 0xbc, 0x18, 0x53, 0x62, 0xbb, 0x52, 0xff, 0xff, 0xff,
 0x04, 0x00, 0x00, 0x00, 0xa0, 0x00, 0x00, 0x00, 0x00, 0x00, 0x00, 0x00,
 0x00, 0x00, 0x00, 0x00, 0x6b, 0x8c, 0x21, 0x3e, 0x4c, 0xe5, 0xdf, 0x3c,
 0x8c, 0x1d, 0x25, 0x3c, 0xfb, 0x88, 0x1a, 0xbd, 0x96, 0xc0, 0x54, 0xbd,
 0xbd, 0x2f, 0x15, 0x3d, 0x5d, 0x8d, 0x0f, 0xbe, 0xf2, 0x6a, 0xad, 0xbd,
 0x47, 0xff, 0x20, 0xbd, 0x00, 0x00, 0x00, 0x00, 0xa4, 0xb0, 0x02, 0x3c,
 0x00, 0x00, 0x00, 0x00, 0x16, 0x15, 0x95, 0xba, 0x5e, 0xe5, 0xd1, 0x3d,
 0x71, 0x54, 0x1b, 0xba, 0xfd, 0xb4, 0x0e, 0x3d, 0x00, 0x00, 0x00, 0x00,
 0x00, 0x00, 0x00, 0x00, 0x9e, 0x47, 0x03, 0xbd, 0x82, 0x8e, 0xe3, 0xbc,
 0x62, 0xa9, 0x7e, 0xbd, 0xdb, 0x9c, 0x11, 0x3e, 0x00, 0x00, 0x00, 0x00,
 0x00, 0x00, 0x00, 0x00, 0x00, 0x00, 0x00, 0x00, 0x00, 0x00, 0x00, 0x00,
 0x7d, 0x56, 0xa6, 0x3c, 0x00, 0x00, 0x00, 0x00, 0x00, 0x00, 0x00, 0x00,
 0x8b, 0x70, 0xea, 0xbc, 0x69, 0xe9, 0xeb, 0xbc, 0x00, 0x00, 0x00, 0x00,
 0x0e, 0x34, 0x57, 0xbd, 0x00, 0x00, 0x00, 0x00, 0x00, 0x00, 0x00, 0x00,
 0x00, 0x00, 0x00, 0x00, 0x82, 0x75, 0xca, 0x3d, 0xf7, 0x8f, 0x6e, 0xbb,
 0x00, 0x00, 0x06, 0x00, 0x08, 0x00, 0x04, 0x00, 0x06, 0x00, 0x00, 0x00,
 0x04, 0x00, 0x00, 0x00, 0x04, 0x00, 0x00, 0x00, 0xe0, 0xae, 0x98, 0x3c,
 0xe4, 0xfb, 0xff, 0xff, 0xe8, 0xfb, 0xff, 0xff, 0x0f, 0x00, 0x00, 0x00,
 0x4d, 0x4c, 0x49, 0x52, 0x20, 0x43, 0x6f, 0x6e, 0x76, 0x65, 0x72, 0x74,
 0x65, 0x64, 0x2e, 0x00, 0x01, 0x00, 0x00, 0x00, 0x14, 0x00, 0x00, 0x00,
 0x00, 0x00, 0x0e, 0x00, 0x18, 0x00, 0x14, 0x00, 0x10, 0x00, 0x0c, 0x00,
 0x08, 0x00, 0x04, 0x00, 0x0e, 0x00, 0x00, 0x00, 0x14, 0x00, 0x00, 0x00,
 0x1c, 0x00, 0x00, 0x00, 0xd0, 0x00, 0x00, 0x00, 0xd4, 0x00, 0x00, 0x00,
 0xd8, 0x00, 0x00, 0x00, 0x04, 0x00, 0x00, 0x00, 0x6d, 0x61, 0x69, 0x6e,
 0x00, 0x00, 0x00, 0x00, 0x03, 0x00, 0x00, 0x00, 0x78, 0x00, 0x00, 0x00,
 0x34, 0x00, 0x00, 0x00, 0x10, 0x00, 0x00, 0x00, 0x00, 0x00, 0x0a, 0x00,
 0x10, 0x00, 0x0c, 0x00, 0x08, 0x00, 0x04, 0x00, 0x0a, 0x00, 0x00, 0x00,
 0x0c, 0x00, 0x00, 0x00, 0x10, 0x00, 0x00, 0x00, 0x01, 0x00, 0x00, 0x00,
 0x01, 0x00, 0x00, 0x00, 0x07, 0x00, 0x00, 0x00, 0x01, 0x00, 0x00, 0x00,
 0x06, 0x00, 0x00, 0x00, 0xce, 0xff, 0xff, 0xff, 0x10, 0x00, 0x00, 0x00,
 0x00, 0x00, 0x00, 0x08, 0x0c, 0x00, 0x00, 0x00, 0x10, 0x00, 0x00, 0x00,
 0x8c, 0xfc, 0xff, 0xff, 0x01, 0x00, 0x00, 0x00, 0x06, 0x00, 0x00, 0x00,
 0x03, 0x00, 0x00, 0x00, 0x05, 0x00, 0x00, 0x00, 0x04, 0x00, 0x00, 0x00,
 0x01, 0x00, 0x00, 0x00, 0x00, 0x00, 0x0e, 0x00, 0x16, 0x00, 0x00, 0x00,
 0x10, 0x00, 0x0c, 0x00, 0x0b, 0x00, 0x04, 0x00, 0x0e, 0x00, 0x00, 0x00,
 0x18, 0x00, 0x00, 0x00, 0x00, 0x00, 0x00, 0x08, 0x18, 0x00, 0x00, 0x00,
 0x1c, 0x00, 0x00, 0x00, 0x00, 0x00, 0x06, 0x00, 0x08, 0x00, 0x07, 0x00,
 0x06, 0x00, 0x00, 0x00, 0x00, 0x00, 0x00, 0x01, 0x01, 0x00, 0x00, 0x00,
 0x05, 0x00, 0x00, 0x00, 0x03, 0x00, 0x00, 0x00, 0x00, 0x00, 0x00, 0x00,
 0x03, 0x00, 0x00, 0x00, 0x02, 0x00, 0x00, 0x00, 0x01, 0x00, 0x00, 0x00,
 0x07, 0x00, 0x00, 0x00, 0x01, 0x00, 0x00, 0x00, 0x00, 0x00, 0x00, 0x00,
 0x08, 0x00, 0x00, 0x00, 0xd0, 0x02, 0x00, 0x00, 0x60, 0x02, 0x00, 0x00,
 0xf4, 0x01, 0x00, 0x00, 0xac, 0x01, 0x00, 0x00, 0x60, 0x01, 0x00, 0x00,
 0xd8, 0x00, 0x00, 0x00, 0x60, 0x00, 0x00, 0x00, 0x04, 0x00, 0x00, 0x00,
 0x66, 0xfd, 0xff, 0xff, 0x00, 0x00, 0x00, 0x01, 0x14, 0x00, 0x00, 0x00,
 0x1c, 0x00, 0x00, 0x00, 0x1c, 0x00, 0x00, 0x00, 0x08, 0x00, 0x00, 0x00,
 0x34, 0x00, 0x00, 0x00, 0x02, 0x00, 0x00, 0x00, 0xff, 0xff, 0xff, 0xff,
 0x01, 0x00, 0x00, 0x00, 0x50, 0xfd, 0xff, 0xff, 0x19, 0x00, 0x00, 0x00,
 0x53, 0x74, 0x61, 0x74, 0x65, 0x66, 0x75, 0x6c, 0x50, 0x61, 0x72, 0x74,
 0x69, 0x74, 0x69, 0x6f, 0x6e, 0x65, 0x64, 0x43, 0x61, 0x6c, 0x6c, 0x3a,
 0x30, 0x00, 0x00, 0x00, 0x02, 0x00, 0x00, 0x00, 0x01, 0x00, 0x00, 0x00,
 0x01, 0x00, 0x00, 0x00, 0xbe, 0xfd, 0xff, 0xff, 0x00, 0x00, 0x00, 0x01,
 0x14, 0x00, 0x00, 0x00, 0x1c, 0x00, 0x00, 0x00, 0x1c, 0x00, 0x00, 0x00,
 0x07, 0x00, 0x00, 0x00, 0x50, 0x00, 0x00, 0x00, 0x02, 0x00, 0x00, 0x00,
 0xff, 0xff, 0xff, 0xff, 0x01, 0x00, 0x00, 0x00, 0xa8, 0xfd, 0xff, 0xff,
 0x34, 0x00, 0x00, 0x00, 0x73, 0x65, 0x71, 0x75, 0x65, 0x6e, 0x74, 0x69,
 0x61, 0x6c, 0x2f, 0x64, 0x65, 0x6e, 0x73, 0x65, 0x5f, 0x31, 0x2f, 0x4d,
 0x61, 0x74, 0x4d, 0x75, 0x6c, 0x3b, 0x73, 0x65, 0x71, 0x75, 0x65, 0x6e,
 0x74, 0x69, 0x61, 0x6c, 0x2f, 0x64, 0x65, 0x6e, 0x73, 0x65, 0x5f, 0x31,
 0x2f, 0x42, 0x69, 0x61, 0x73, 0x41, 0x64, 0x64, 0x00, 0x00, 0x00, 0x00,
 0x02, 0x00, 0x00, 0x00, 0x01, 0x00, 0x00, 0x00, 0x01, 0x00, 0x00, 0x00,
 0x32, 0xfe, 0xff, 0xff, 0x00, 0x00, 0x00, 0x01, 0x14, 0x00, 0x00, 0x00,
 0x1c, 0x00, 0x00, 0x00, 0x1c, 0x00, 0x00, 0x00, 0x06, 0x00, 0x00, 0x00,
 0x60, 0x00, 0x00, 0x00, 0x02, 0x00, 0x00, 0x00, 0xff, 0xff, 0xff, 0xff,
 0x28, 0x00, 0x00, 0x00, 0x1c, 0xfe, 0xff, 0xff, 0x46, 0x00, 0x00, 0x00,
 0x73, 0x65, 0x71, 0x75, 0x65, 0x6e, 0x74, 0x69, 0x61, 0x6c, 0x2f, 0x64,
 0x65, 0x6e, 0x73, 0x65, 0x2f, 0x4d, 0x61, 0x74, 0x4d, 0x75, 0x6c, 0x3b,
 0x73, 0x65, 0x71, 0x75, 0x65, 0x6e, 0x74, 0x69, 0x61, 0x6c, 0x2f, 0x64,
 0x65, 0x6e, 0x73, 0x65, 0x2f, 0x52, 0x65, 0x6c, 0x75, 0x3b, 0x73, 0x65,
 0x71, 0x75, 0x65, 0x6e, 0x74, 0x69, 0x61, 0x6c, 0x2f, 0x64, 0x65, 0x6e,
 0x73, 0x65, 0x2f, 0x42, 0x69, 0x61, 0x73, 0x41, 0x64, 0x64, 0x00, 0x00,
 0x02, 0x00, 0x00, 0x00, 0x01, 0x00, 0x00, 0x00, 0x28, 0x00, 0x00, 0x00,
 0x22, 0xff, 0xff, 0xff, 0x00, 0x00, 0x00, 0x01, 0x10, 0x00, 0x00, 0x00,
 0x10, 0x00, 0x00, 0x00, 0x05, 0x00, 0x00, 0x00, 0x28, 0x00, 0x00, 0x00,
 0x90, 0xfe, 0xff, 0xff, 0x19, 0x00, 0x00, 0x00, 0x73, 0x65, 0x71, 0x75,
 0x65, 0x6e, 0x74, 0x69, 0x61, 0x6c, 0x2f, 0x64, 0x65, 0x6e, 0x73, 0x65,
 0x5f, 0x31, 0x2f, 0x4d, 0x61, 0x74, 0x4d, 0x75, 0x6c, 0x00, 0x00, 0x00,
 0x02, 0x00, 0x00, 0x00, 0x01, 0x00, 0x00, 0x00, 0x28, 0x00, 0x00, 0x00,
 0x6a, 0xff, 0xff, 0xff, 0x00, 0x00, 0x00, 0x01, 0x10, 0x00, 0x00, 0x00,
 0x10, 0x00, 0x00, 0x00, 0x04, 0x00, 0x00, 0x00, 0x24, 0x00, 0x00, 0x00,
 0xd8, 0xfe, 0xff, 0xff, 0x17, 0x00, 0x00, 0x00, 0x73, 0x65, 0x71, 0x75,
 0x65, 0x6e, 0x74, 0x69, 0x61, 0x6c, 0x2f, 0x64, 0x65, 0x6e, 0x73, 0x65,
 0x2f, 0x4d, 0x61, 0x74, 0x4d, 0x75, 0x6c, 0x00, 0x02, 0x00, 0x00, 0x00,
 0x28, 0x00, 0x00, 0x00, 0x28, 0x00, 0x00, 0x00, 0xae, 0xff, 0xff, 0xff,
 0x00, 0x00, 0x00, 0x01, 0x10, 0x00, 0x00, 0x00, 0x10, 0x00, 0x00, 0x00,
 0x03, 0x00, 0x00, 0x00, 0x34, 0x00, 0x00, 0x00, 0x1c, 0xff, 0xff, 0xff,
 0x27, 0x00, 0x00, 0x00, 0x73, 0x65, 0x71, 0x75, 0x65, 0x6e, 0x74, 0x69,
 0x61, 0x6c, 0x2f, 0x64, 0x65, 0x6e, 0x73, 0x65, 0x2f, 0x42, 0x69, 0x61,
 0x73, 0x41, 0x64, 0x64, 0x2f, 0x52, 0x65, 0x61, 0x64, 0x56, 0x61, 0x72,
 0x69, 0x61, 0x62, 0x6c, 0x65, 0x4f, 0x70, 0x00, 0x01, 0x00, 0x00, 0x00,
 0x28, 0x00, 0x00, 0x00, 0x00, 0x00, 0x16, 0x00, 0x18, 0x00, 0x14, 0x00,
 0x00, 0x00, 0x10, 0x00, 0x0c, 0x00, 0x08, 0x00, 0x00, 0x00, 0x00, 0x00,
 0x00, 0x00, 0x07, 0x00, 0x16, 0x00, 0x00, 0x00, 0x00, 0x00, 0x00, 0x01,
 0x10, 0x00, 0x00, 0x00, 0x10, 0x00, 0x00, 0x00, 0x02, 0x00, 0x00, 0x00,
 0x38, 0x00, 0x00, 0x00, 0x84, 0xff, 0xff, 0xff, 0x29, 0x00, 0x00, 0x00,
 0x73, 0x65, 0x71, 0x75, 0x65, 0x6e, 0x74, 0x69, 0x61, 0x6c, 0x2f, 0x64,
 0x65, 0x6e, 0x73, 0x65, 0x5f, 0x31, 0x2f, 0x42, 0x69, 0x61, 0x73, 0x41,
 0x64, 0x64, 0x2f, 0x52, 0x65, 0x61, 0x64, 0x56, 0x61, 0x72, 0x69, 0x61,
 0x62, 0x6c, 0x65, 0x4f, 0x70, 0x00, 0x00, 0x00, 0x01, 0x00, 0x00, 0x00,
 0x01, 0x00, 0x00, 0x00, 0x00, 0x00, 0x16, 0x00, 0x1c, 0x00, 0x18, 0x00,
 0x00, 0x00, 0x14, 0x00, 0x10, 0x00, 0x0c, 0x00, 0x00, 0x00, 0x00, 0x00,
 0x08, 0x00, 0x07, 0x00, 0x16, 0x00, 0x00, 0x00, 0x00, 0x00, 0x00, 0x01,
 0x14, 0x00, 0x00, 0x00, 0x20, 0x00, 0x00, 0x00, 0x20, 0x00, 0x00, 0x00,
 0x01, 0x00, 0x00, 0x00, 0x3c, 0x00, 0x00, 0x00, 0x02, 0x00, 0x00, 0x00,
 0xff, 0xff, 0xff, 0xff, 0x28, 0x00, 0x00, 0x00, 0x04, 0x00, 0x04, 0x00,
 0x04, 0x00, 0x00, 0x00, 0x1d, 0x00, 0x00, 0x00, 0x73, 0x65, 0x72, 0x76,
 0x69, 0x6e, 0x67, 0x5f, 0x64, 0x65, 0x66, 0x61, 0x75, 0x6c, 0x74, 0x5f,
 0x64, 0x65, 0x6e, 0x73, 0x65, 0x5f, 0x69, 0x6e, 0x70, 0x75, 0x74, 0x3a,
 0x30, 0x00, 0x00, 0x00, 0x02, 0x00, 0x00, 0x00, 0x01, 0x00, 0x00, 0x00,
 0x28, 0x00, 0x00, 0x00, 0x02, 0x00, 0x00, 0x00, 0x20, 0x00, 0x00, 0x00,
 0x04, 0x00, 0x00, 0x00, 0xf4, 0xff, 0xff, 0xff, 0x0e, 0x00, 0x00, 0x00,
 0x00, 0x00, 0x00, 0x0e, 0x0c, 0x00, 0x0c, 0x00, 0x0b, 0x00, 0x00, 0x00,
 0x00, 0x00, 0x04, 0x00, 0x0c, 0x00, 0x00, 0x00, 0x09, 0x00, 0x00, 0x00,
 0x00, 0x00, 0x00, 0x09
};

#endif //TINYML_MODEL_H