#ifndef TINYML_MODEL_H
#define TINYML_MODEL_H


unsigned int tinyml_model_len = 8380;
unsigned char tinyml_model[] = {
0x1c, 0x00, 0x00, 0x00, 0x54, 0x46, 0x4c, 0x33, 0x14, 0x00, 0x20, 0x00,
 0x1c, 0x00, 0x18, 0x00, 0x14, 0x00, 0x10, 0x00, 0x0c, 0x00, 0x00, 0x00,
 0x08, 0x00, 0x04, 0x00, 0x14, 0x00, 0x00, 0x00, 0x1c, 0x00, 0x00, 0x00,
 0x84, 0x00, 0x00, 0x00, 0xdc, 0x00, 0x00, 0x00, 0x14, 0x1c, 0x00, 0x00,
 0x24, 0x1c, 0x00, 0x00, 0x58, 0x20, 0x00, 0x00, 0x03, 0x00, 0x00, 0x00,
 0x01, 0x00, 0x00, 0x00, 0x04, 0x00, 0x00, 0x00, 0xa2, 0xe3, 0xff, 0xff,
 0x0c, 0x00, 0x00, 0x00, 0x1c, 0x00, 0x00, 0x00, 0x38, 0x00, 0x00, 0x00,
 0x0f, 0x00, 0x00, 0x00, 0x73, 0x65, 0x72, 0x76, 0x69, 0x6e, 0x67, 0x5f,
 0x64, 0x65, 0x66, 0x61, 0x75, 0x6c, 0x74, 0x00, 0x01, 0x00, 0x00, 0x00,
 0x04, 0x00, 0x00, 0x00, 0x98, 0xff, 0xff, 0xff, 0x07, 0x00, 0x00, 0x00,
 0x04, 0x00, 0x00, 0x00, 0x07, 0x00, 0x00, 0x00, 0x64, 0x65, 0x6e, 0x73,
 0x65, 0x5f, 0x31, 0x00, 0x01, 0x00, 0x00, 0x00, 0x04, 0x00, 0x00, 0x00,
 0x6e, 0xe4, 0xff, 0xff, 0x04, 0x00, 0x00, 0x00, 0x0b, 0x00, 0x00, 0x00,
 0x64, 0x65, 0x6e, 0x73, 0x65, 0x5f, 0x69, 0x6e, 0x70, 0x75, 0x74, 0x00,
 0x02, 0x00, 0x00, 0x00, 0x34, 0x00, 0x00, 0x00, 0x04, 0x00, 0x00, 0x00,
 0xdc, 0xff, 0xff, 0xff, 0x0a, 0x00, 0x00, 0x00, 0x04, 0x00, 0x00, 0x00,
 0x13, 0x00, 0x00, 0x00, 0x43, 0x4f, 0x4e, 0x56, 0x45, 0x52, 0x53, 0x49,
 0x4f, 0x4e, 0x5f, 0x4d, 0x45, 0x54, 0x41, 0x44, 0x41, 0x54, 0x41, 0x00,
 0x08, 0x00, 0x0c, 0x00, 0x08, 0x00, 0x04, 0x00, 0x08, 0x00, 0x00, 0x00,
 0x09, 0x00, 0x00, 0x00, 0x04, 0x00, 0x00, 0x00, 0x13, 0x00, 0x00, 0x00,
 0x6d, 0x69, 0x6e, 0x5f, 0x72, 0x75, 0x6e, 0x74, 0x69, 0x6d, 0x65, 0x5f,
 0x76, 0x65, 0x72, 0x73, 0x69, 0x6f, 0x6e, 0x00, 0x0b, 0x00, 0x00, 0x00,
 0x34, 0x1b, 0x00, 0x00, 0x2c, 0x1b, 0x00, 0x00, 0x18, 0x1b, 0x00, 0x00,
 0x60, 0x1a, 0x00, 0x00, 0x50, 0x01, 0x00, 0x00, 0xa0, 0x00, 0x00, 0x00,
 0x98, 0x00, 0x00, 0x00, 0x90, 0x00, 0x00, 0x00, 0x88, 0x00, 0x00, 0x00,
 0x68, 0x00, 0x00, 0x00, 0x04, 0x00, 0x00, 0x00, 0x12, 0xe5, 0xff, 0xff,
 0x04, 0x00, 0x00, 0x00, 0x54, 0x00, 0x00, 0x00, 0x0c, 0x00, 0x00, 0x00,
 0x08, 0x00, 0x0e, 0x00, 0x08, 0x00, 0x04, 0x00, 0x08, 0x00, 0x00, 0x00,
 0x10, 0x00, 0x00, 0x00, 0x24, 0x00, 0x00, 0x00, 0x00, 0x00, 0x06, 0x00,
 0x08, 0x00, 0x04, 0x00, 0x06, 0x00, 0x00, 0x00, 0x04, 0x00, 0x00, 0x00,
 0x00, 0x00, 0x00, 0x00, 0x00, 0x00, 0x0a, 0x00, 0x10, 0x00, 0x0c, 0x00,
 0x08, 0x00, 0x04, 0x00, 0x0a, 0x00, 0x00, 0x00, 0x02, 0x00, 0x00, 0x00,
 0x02, 0x00, 0x00, 0x00, 0x04, 0x00, 0x00, 0x00, 0x06, 0x00, 0x00, 0x00,
 0x32, 0x2e, 0x31, 0x35, 0x2e, 0x30, 0x00, 0x00, 0x72, 0xe5, 0xff, 0xff,
 0x04, 0x00, 0x00, 0x00, 0x10, 0x00, 0x00, 0x00, 0x31, 0x2e, 0x31, 0x34,
 0x2e, 0x30, 0x00, 0x00, 0x00, 0x00, 0x00, 0x00, 0x00, 0x00, 0x00, 0x00,
 0x5c, 0xe1, 0xff, 0xff, 0x60, 0xe1, 0xff, 0xff, 0x64, 0xe1, 0xff, 0xff,
 0x9a, 0xe5, 0xff, 0xff, 0x04, 0x00, 0x00, 0x00, 0xa0, 0x00, 0x00, 0x00,
 0x5b, 0xe9, 0x86, 0x3e, 0xeb, 0x13, 0x2a, 0xbe, 0xcc, 0x92, 0x20, 0x3e,
 0xf7, 0xba, 0x60, 0x3e, 0x36, 0xc4, 0x95, 0x3f, 0x8d, 0x95, 0x4a, 0xbe,
 0x6a, 0x9b, 0x54, 0xbe, 0x94, 0x37, 0x44, 0x3e, 0xb1, 0x19, 0x3d, 0xbe,
 0x46, 0x44, 0x64, 0xbe, 0x71, 0x93, 0x67, 0x3e, 0x3b, 0x20, 0x2b, 0xbe,
 0xfb, 0x6a, 0x15, 0x3f, 0x34, 0x5c, 0x81, 0xbd, 0x05, 0xdf, 0x0c, 0x3b,
 0x7d, 0x61, 0x4b, 0xbe, 0x1e, 0xd8, 0x4e, 0xbe, 0xe0, 0x77, 0x7e, 0xbd,
 0xf3, 0xa6, 0x8e, 0x3d, 0x6f, 0x05, 0x52, 0xbe, 0x38, 0xf0, 0x1b, 0xbe,
 0x75, 0xd4, 0x35, 0x3e, 0x2c, 0x2c, 0x97, 0x3e, 0xc8, 0xba, 0xac, 0x3d,
 0xe0, 0x6e, 0x4f, 0xbf, 0x9b, 0x27, 0x37, 0x3e, 0x73, 0x8a, 0x6f, 0x3e,
 0x5a, 0x16, 0x42, 0x3e, 0x1d, 0x35, 0x8c, 0xbe, 0x70, 0xbc, 0x88, 0xbe,
 0x9c, 0xbf, 0x85, 0xbe, 0x9f, 0xc9, 0x5e, 0xbe, 0xfa, 0x71, 0x26, 0xbe,
 0x80, 0xec, 0x47, 0x3e, 0x91, 0x9c, 0x15, 0xbf, 0x34, 0xc2, 0x89, 0x3d,
 0x6c, 0x80, 0x01, 0x3e, 0x90, 0xb1, 0xcb, 0x3e, 0x32, 0xad, 0x8b, 0x3d,
 0x7d, 0xf8, 0x7a, 0x3d, 0x46, 0xe6, 0xff, 0xff, 0x04, 0x00, 0x00, 0x00,
 0x00, 0x19, 0x00, 0x00, 0xc2, 0xf0, 0x51, 0xbe, 0xa3, 0xf3, 0x84, 0xbd,
 0x09, 0x07, 0xac, 0xbd, 0xa5, 0xa6, 0x24, 0xbe, 0xeb, 0x59, 0x92, 0xbd,
 0x87, 0x92, 0xfe, 0x3c, 0xa0, 0xf5, 0x1a, 0x3d, 0x81, 0x8e, 0x06, 0xbd,
 0xeb, 0xed, 0xc4, 0x3d, 0x8e, 0x5a, 0xdb, 0x3c, 0xc9, 0xf1, 0x14, 0x3d,
 0xd6, 0x75, 0x9d, 0xbd, 0xb2, 0xe3, 0x1e, 0x3e, 0x12, 0xed, 0x48, 0xbd,
 0xc1, 0xab, 0x3a, 0x3d, 0x20, 0x11, 0x31, 0xbe, 0x3e, 0x9c, 0x5b, 0x3e,
 0x07, 0x51, 0xb9, 0xbd, 0x0b, 0xa1, 0x41, 0x3e, 0x19, 0xac, 0xf2, 0xbd,
 0x03, 0x5e, 0x59, 0xbe, 0x6f, 0x99, 0x6b, 0x3c, 0xc3, 0x6f, 0x0c, 0x3e,
 0x2b, 0x8b, 0xbf, 0x3d, 0xbe, 0xd1, 0x83, 0xbe, 0x74, 0x5f, 0xe3, 0x3b,
 0xa8, 0x69, 0x4f, 0xbe, 0xaf, 0x7a, 0xeb, 0xbd, 0x79, 0x0d, 0x25, 0x3d,
 0x26, 0x9d, 0x16, 0x3e, 0xf3, 0x30, 0x63, 0x3e, 0xef, 0xa8, 0x30, 0x3e,
 0xe4, 0x2c, 0x07, 0x3e, 0x25, 0x41, 0xe9, 0x3b, 0xdb, 0xf3, 0xf1, 0x3d,
 0xa1, 0xe2, 0x8f, 0xbe, 0xf0, 0x26, 0x80, 0x3e, 0x19, 0x6e, 0xec, 0xbb,
 0x23, 0x06, 0x14, 0x3d, 0x9e, 0xaa, 0x34, 0xbe, 0x8c, 0xe1, 0x14, 0xbe,
 0xa7, 0xdd, 0x4f, 0xbe, 0x48, 0xee, 0x7f, 0x3e, 0x50, 0x5b, 0x6e, 0xbe,
 0x1b, 0x26, 0x2c, 0x3e, 0xf3, 0x69, 0x16, 0x3e, 0x1b, 0x55, 0x0a, 0xbe,
 0x21, 0x34, 0x08, 0x3e, 0x6f, 0x35, 0x55, 0x3c, 0xd6, 0xc3, 0xf8, 0xbd,
 0xe4, 0x98, 0xac, 0x3e, 0x5c, 0x74, 0x18, 0x3d, 0x8f, 0x4a, 0x5e, 0xbe,
 0x08, 0x85, 0x77, 0xbe, 0x3a, 0x4c, 0x8f, 0x3d, 0xbe, 0x29, 0x01, 0x3c,
 0x6b, 0xbe, 0xda, 0x3d, 0xc0, 0x24, 0xb0, 0xbe, 0xb1, 0x53, 0x6b, 0xbd,
 0x53, 0xee, 0x88, 0xbd, 0xde, 0x39, 0x7b, 0x3e, 0xca, 0x55, 0x2d, 0x3e,
 0x49, 0x30, 0x0b, 0xbd, 0x3a, 0x2b, 0x23, 0x3e, 0x6a, 0x7d, 0x7a, 0x3e,
 0x92, 0x67, 0xe3, 0xbd, 0xd4, 0x22, 0x38, 0x3d, 0x5d, 0x63, 0x61, 0x3e,
 0x94, 0x75, 0x86, 0x3d, 0x86, 0x95, 0xb1, 0xbc, 0x2b, 0xf1, 0x96, 0xbe,
 0xbe, 0xf7, 0x80, 0xbe, 0x6f, 0x70, 0xbc, 0xbe, 0x13, 0xc8, 0x7c, 0x3e,
 0x54, 0x0a, 0x18, 0x3e, 0x56, 0xf6, 0x01, 0x3e, 0x57, 0x37, 0x6c, 0x3e,
 0xae, 0x0a, 0xcf, 0x3e, 0x48, 0xee, 0xc1, 0x3e, 0xd9, 0x59, 0x54, 0x3e,
 0x70, 0x8d, 0xa3, 0xbd, 0x24, 0x6d, 0x1e, 0x3d, 0xc0, 0x3f, 0x08, 0xbd,
 0x4f, 0x95, 0x2d, 0xbe, 0x53, 0x33, 0x1e, 0xbe, 0x8d, 0x8f, 0x81, 0xbe,
 0xa2, 0xcf, 0x32, 0x3e, 0x2d, 0xae, 0x5a, 0x3d, 0xec, 0xda, 0x33, 0x3e,
 0x34, 0x4f, 0xda, 0x3d, 0xe1, 0x3e, 0xb7, 0xbd, 0x68, 0xe8, 0x08, 0xbe,
 0xe2, 0xd1, 0xd6, 0x3d, 0x3e, 0x5f, 0x5f, 0x3d, 0x06, 0x6f, 0x4d, 0xbc,
 0xdf, 0x18, 0x06, 0xbe, 0x46, 0x43, 0x3a, 0x3d, 0x82, 0x75, 0x28, 0xbe,
 0x80, 0x2b, 0x05, 0xbe, 0x9e, 0x9c, 0x61, 0xbc, 0xde, 0x22, 0x17, 0xbe,
 0x3b, 0x39, 0x6a, 0xbb, 0x23, 0xf5, 0x5f, 0xbd, 0xdd, 0x00, 0xe9, 0x3d,
 0xdf, 0xf9, 0x89, 0xbe, 0x7d, 0x72, 0x12, 0x3e, 0x20, 0x21, 0x8e, 0x3e,
 0x5a, 0x6c, 0x1a, 0xbe, 0x3b, 0xa2, 0x0f, 0x3e, 0x18, 0x9c, 0x77, 0xbe,
 0xcc, 0x89, 0x30, 0x3e, 0x1d, 0xe9, 0x58, 0x3d, 0x7f, 0xc4, 0xa8, 0x3d,
 0x37, 0x24, 0xea, 0x3d, 0xeb, 0x57, 0x3c, 0xbe, 0x87, 0x7f, 0x6e, 0xbe,
 0x8a, 0x0c, 0x84, 0x3e, 0x10, 0xed, 0x3c, 0xbe, 0xbd, 0x28, 0xc1, 0xbd,
 0xe3, 0xbf, 0x9c, 0xbd, 0x3c, 0xf3, 0x3b, 0xbe, 0x10, 0x3e, 0x8e, 0x3d,
 0x59, 0xce, 0x12, 0xbc, 0x2d, 0xb9, 0xb2, 0xbd, 0x22, 0xc8, 0x26, 0xbe,
 0x38, 0xd9, 0xca, 0xbc, 0xc7, 0xe7, 0x47, 0xbe, 0xb4, 0x3c, 0xe6, 0x3d,
 0x97, 0x4b, 0xa6, 0x3d, 0x5a, 0xb6, 0x99, 0xbd, 0x41, 0x03, 0x17, 0x3e,
 0x59, 0x5b, 0x24, 0x3e, 0x02, 0x55, 0x83, 0x3d, 0xf2, 0xb3, 0x8d, 0xbe,
 0x04, 0x2c, 0x82, 0x3d, 0xcf, 0xda, 0x8d, 0x3d, 0xde, 0xf7, 0xc8, 0xbd,
 0x29, 0xe7, 0x53, 0x3c, 0x2d, 0xbc, 0x9a, 0xbe, 0xed, 0x54, 0xc2, 0xbd,
 0x81, 0x34, 0x79, 0x3e, 0x5b, 0x10, 0xb5, 0xbb, 0xc5, 0xe7, 0x17, 0x3c,
 0xca, 0x10, 0x6c, 0x3d, 0xc8, 0x13, 0x77, 0xbe, 0xe9, 0x34, 0x35, 0xbe,
 0xe5, 0x87, 0x19, 0xbe, 0x80, 0x42, 0x36, 0xbe, 0xe7, 0x03, 0xc8, 0xbd,
 0x62, 0xee, 0x0f, 0xbe, 0x93, 0x72, 0x58, 0xbe, 0xa1, 0x3a, 0x47, 0x3d,
 0x05, 0x88, 0x95, 0x3e, 0x3f, 0xec, 0x51, 0xbe, 0x59, 0x84, 0x15, 0x3d,
 0x52, 0x94, 0x39, 0xbd, 0x55, 0x57, 0x06, 0xbe, 0xda, 0x77, 0xf1, 0xbc,
 0x16, 0x29, 0x93, 0x3d, 0x98, 0x55, 0x95, 0x3e, 0x02, 0x34, 0x8f, 0x3c,
 0xf1, 0x5e, 0x4b, 0xbd, 0x85, 0x2a, 0x39, 0x3d, 0x44, 0x34, 0x75, 0xbc,
 0xe9, 0xbf, 0xff, 0x3e, 0x58, 0x8a, 0x1a, 0xbf, 0xf3, 0x0f, 0xaf, 0xbe,
 0x98, 0x5a, 0x9b, 0x3e, 0x5e, 0xdc, 0xfc, 0xbe, 0xae, 0x6a, 0xd4, 0x3e,
 0x69, 0x1a, 0xed, 0x3e, 0x84, 0x9e, 0x67, 0xbd, 0x48, 0xed, 0xda, 0x3d,
 0xf0, 0x7d, 0x2a, 0x3f, 0xe3, 0x0c, 0x6b, 0x3d, 0x5a, 0xfa, 0x6b, 0x3e,
 0xc5, 0x3a, 0x22, 0x3f, 0xf2, 0xaa, 0xb9, 0xbd, 0x9b, 0xd6, 0xae, 0x3c,
 0x8f, 0xfa, 0xb8, 0x3e, 0x1e, 0xa1, 0xf3, 0xbd, 0x14, 0x6b, 0x88, 0x3e,
 0x66, 0x45, 0x5b, 0xbe, 0x8b, 0x4f, 0x5b, 0xbe, 0x32, 0x76, 0x16, 0x3f,
 0x97, 0xe8, 0xbc, 0xbe, 0xba, 0x6b, 0x3b, 0xbe, 0x84, 0x05, 0x37, 0x3e,
 0xb0, 0x74, 0x4a, 0x3e, 0x9e, 0xb0, 0x03, 0x3f, 0xa1, 0x6d, 0x92, 0xbe,
 0x65, 0x66, 0x47, 0x3e, 0xdc, 0xbf, 0x32, 0xbe, 0x05, 0xc8, 0x55, 0x3d,
 0x0b, 0x4b, 0xd5, 0x3e, 0x2d, 0xe3, 0xe4, 0xbe, 0x12, 0x96, 0xa2, 0xbe,
 0x0b, 0xcc, 0x63, 0xbe, 0x90, 0xe9, 0x7a, 0x3b, 0x54, 0x01, 0xc4, 0x3d,
 0x88, 0x6e, 0xdc, 0x3c, 0xc8, 0x66, 0xa1, 0x3c, 0x61, 0xde, 0x42, 0xbe,
 0x49, 0xe9, 0xea, 0xbd, 0x59, 0xf8, 0xa9, 0x3d, 0xee, 0x1c, 0x90, 0x3e,
 0x35, 0x5e, 0x9b, 0xbe, 0x56, 0xf5, 0xc9, 0xbd, 0xeb, 0x07, 0xba, 0x3e,
 0x9b, 0x89, 0xdb, 0x3d, 0xb0, 0x96, 0x39, 0x3f, 0x46, 0x9c, 0xd0, 0xbd,
 0x47, 0x67, 0x78, 0x3e, 0x6a, 0x53, 0x3a, 0x3d, 0xc7, 0xd2, 0x85, 0xbe,
 0x1c, 0x17, 0x1e, 0x3d, 0x85, 0xc7, 0x3d, 0xbf, 0xc8, 0x2e, 0x2e, 0x3c,
 0x69, 0x4c, 0xb8, 0xbe, 0xb2, 0x69, 0xba, 0xbe, 0x63, 0x66, 0xe2, 0xbe,
 0xe9, 0xc4, 0x2c, 0x3f, 0x57, 0xfd, 0xb0, 0x3c, 0xdd, 0x37, 0x78, 0xbd,
 0x9d, 0x1b, 0xe7, 0xbe, 0x71, 0x8e, 0xc2, 0x3d, 0xe0, 0x04, 0x18, 0x3f,
 0x7c, 0xd9, 0xd7, 0xbe, 0x1e, 0xbb, 0x00, 0x3f, 0xd1, 0xee, 0x87, 0xbf,
 0xd0, 0xde, 0xd7, 0x3e, 0xea, 0x6e, 0x69, 0xbe, 0xc4, 0xa6, 0x01, 0xbe,
 0x32, 0xbc, 0x7d, 0xbe, 0xd7, 0x43, 0xa4, 0xbd, 0xca, 0xe9, 0x92, 0xbe,
 0x88, 0x34, 0x1f, 0xbe, 0xd5, 0xb0, 0xbb, 0x3d, 0x3d, 0xa8, 0x0e, 0xbf,
 0xfc, 0xe7, 0x1d, 0x3e, 0x93, 0xaa, 0xe5, 0xbd, 0x06, 0x41, 0x1c, 0xbe,
 0x14, 0xad, 0x3e, 0xbd, 0x6d, 0xa0, 0x5e, 0xbe, 0x9e, 0x9a, 0x92, 0xbe,
 0x97, 0x0d, 0xc9, 0x3d, 0xea, 0xc4, 0x1b, 0xbe, 0x26, 0x07, 0x37, 0x3e,
 0x16, 0x33, 0x8f, 0x3d, 0xe0, 0xe2, 0x3d, 0xbe, 0x0d, 0x59, 0x85, 0xbe,
 0x20, 0x76, 0x39, 0x3e, 0x81, 0xaa, 0x12, 0x3e, 0xb0, 0x07, 0x1d, 0xbe,
 0x01, 0xb6, 0x14, 0xbe, 0xe2, 0xa4, 0x06, 0xbe, 0x14, 0x87, 0x6f, 0x3e,
 0x63, 0x35, 0x34, 0xbe, 0x90, 0x21, 0xa1, 0xbd, 0xc8, 0x9d, 0x8f, 0x3e,
 0x57, 0x29, 0x34, 0xbe, 0xe7, 0x22, 0x80, 0x3e, 0x98, 0x9d, 0xd9, 0xba,
 0x4c, 0x84, 0xa5, 0x3b, 0x74, 0xb0, 0xc4, 0x3c, 0x76, 0x8c, 0x78, 0xbd,
 0xde, 0x91, 0x43, 0xbe, 0xd5, 0xaa, 0xbe, 0x3c, 0x0b, 0x90, 0xfc, 0xbd,
 0x9c, 0x8c, 0x26, 0x3d, 0xa3, 0xe4, 0xa2, 0xbd, 0x19, 0x33, 0x84, 0x3e,
 0x2f, 0x17, 0x5d, 0xbc, 0xae, 0x90, 0x93, 0xbd, 0xbb, 0x85, 0xa1, 0x3e,
 0xdc, 0x94, 0x4b, 0x3e, 0x99, 0x13, 0x2e, 0x3e, 0x2f, 0x0c, 0xf0, 0x3d,
 0x4d, 0x37, 0xcd, 0x3d, 0x0e, 0x41, 0x51, 0xbc, 0x97, 0xf3, 0x94, 0x3d,
 0xe9, 0xe1, 0xe9, 0x3d, 0x0f, 0x45, 0xba, 0x3e, 0x11, 0x26, 0xc9, 0x3e,
 0x64, 0xd9, 0x37, 0xbd, 0x9b, 0x09, 0x0f, 0x3c, 0x3d, 0xa6, 0x19, 0x3e,
 0x54, 0x2c, 0xa3, 0x3d, 0x2f, 0xc9, 0xff, 0x3e, 0xed, 0x34, 0x78, 0x3e,
 0x45, 0xf4, 0xaf, 0xbe, 0xad, 0xe8, 0xf7, 0x3d, 0xaf, 0x6d, 0x23, 0x3e,
 0xc8, 0xa2, 0x08, 0x3e, 0x4e, 0x02, 0xfd, 0xbc, 0x2e, 0x6c, 0x53, 0xbe,
 0x55, 0x85, 0xd4, 0x3e, 0xe3, 0xf7, 0xa4, 0xbd, 0x87, 0x3b, 0x2e, 0xbe,
 0xfb, 0x27, 0x3f, 0xbf, 0xf6, 0x95, 0xbd, 0x3e, 0x71, 0xc1, 0x16, 0x3d,
 0xd7, 0x09, 0x2f, 0xbe, 0x54, 0xe9, 0x0f, 0xbf, 0x18, 0x8a, 0x1b, 0xbe,
 0x6e, 0xb4, 0xaa, 0xbe, 0xea, 0xe6, 0x24, 0xbe, 0x4d, 0x22, 0xfe, 0x3e,
 0x8d, 0xf1, 0xd0, 0x3e, 0x3a, 0x3c, 0x4c, 0x3f, 0xca, 0x8a, 0x32, 0xbf,
 0x93, 0x8b, 0x56, 0x3e, 0xb1, 0xe4, 0x05, 0x3f, 0xec, 0xee, 0xd9, 0x3d,
 0x41, 0x6e, 0x32, 0x3e, 0xb8, 0x68, 0x72, 0xbd, 0x44, 0x94, 0x0d, 0x3e,
 0xe9, 0xb0, 0x23, 0xbf, 0xc5, 0x88, 0x69, 0x3f, 0xd3, 0xd9, 0xaf, 0x3e,
 0x42, 0x6b, 0x7b, 0xbe, 0x2b, 0xd3, 0xb6, 0x3d, 0x51, 0x4c, 0xa5, 0xbd,
 0xcb, 0x29, 0xbc, 0xbd, 0xb0, 0xa0, 0x34, 0x3e, 0x5e, 0x4e, 0x33, 0x3e,
 0xf0, 0x51, 0x43, 0x3e, 0xab, 0x1d, 0x2b, 0x3e, 0x6e, 0x7f, 0xe9, 0xbc,
 0xea, 0x29, 0x19, 0x3e, 0x40, 0xcd, 0xe8, 0xbc, 0x56, 0xaa, 0x91, 0x3e,
 0x4e, 0xb3, 0x1e, 0xbe, 0x4a, 0x38, 0x2d, 0x3e, 0x2d, 0x23, 0x38, 0xbe,
 0xa9, 0x73, 0x47, 0xbe, 0x83, 0x00, 0x0a, 0x3e, 0xc8, 0x78, 0x80, 0x3e,
 0x5d, 0x36, 0xa7, 0xbd, 0x0b, 0xfc, 0x13, 0xbc, 0x74, 0x03, 0xc3, 0xbd,
 0xd6, 0x33, 0x97, 0x3c, 0x26, 0x1e, 0x55, 0xbe, 0xa0, 0x51, 0x13, 0x3e,
 0x37, 0x67, 0x72, 0xbe, 0x59, 0x97, 0x04, 0xbe, 0x88, 0x44, 0x24, 0xbd,
 0x7a, 0x84, 0x97, 0xbc, 0x00, 0x9c, 0x64, 0x3e, 0x76, 0xd0, 0x8f, 0x3d,
 0x94, 0xdb, 0x50, 0xbe, 0xc7, 0x36, 0x70, 0xbd, 0x4d, 0x13, 0x4d, 0x3d,
 0x58, 0x71, 0x80, 0xbd, 0x51, 0xd3, 0xe5, 0x3d, 0x78, 0xc0, 0x32, 0x3e,
 0x56, 0xfc, 0x2c, 0x3e, 0x5a, 0x99, 0x08, 0x3e, 0xba, 0x8d, 0x95, 0xbd,
 0x7d, 0x16, 0x35, 0x3c, 0xb6, 0x08, 0x1b, 0x3e, 0x52, 0x55, 0x4a, 0xbe,
 0x58, 0x09, 0x7e, 0x3e, 0x1c, 0x46, 0x4b, 0x3e, 0xf0, 0xff, 0xd4, 0x3d,
 0x98, 0x99, 0x36, 0x3d, 0xb4, 0x7d, 0x17, 0x3e, 0xad, 0xfb, 0x3b, 0xbe,
 0x90, 0x92, 0x23, 0x3d, 0x56, 0xf7, 0x38, 0x3e, 0xd0, 0x7f, 0x9c, 0x3d,
 0x32, 0xba, 0x4b, 0x3e, 0xbc, 0xa7, 0xa8, 0x3d, 0xea, 0xa3, 0x7f, 0xbe,
 0x30, 0xd7, 0xdd, 0x3c, 0x0a, 0xb7, 0x0b, 0x3e, 0x20, 0xbe, 0x7a, 0xbe,
 0x18, 0x32, 0xfa, 0x3d, 0x0c, 0xa1, 0x47, 0xbe, 0xbc, 0x19, 0x52, 0xbd,
 0xa2, 0x61, 0x9f, 0xbd, 0x1c, 0x1d, 0xbf, 0x3d, 0x7e, 0xec, 0x1c, 0xbe,
 0xb8, 0x32, 0x25, 0x3e, 0x8e, 0xc7, 0x26, 0x3e, 0x80, 0xde, 0x4c, 0x3d,
 0xe8, 0xfe, 0x89, 0xbd, 0x8c, 0x6f, 0x50, 0xbd, 0xac, 0x99, 0x8e, 0xbd,
 0xa8, 0xb6, 0xd3, 0xbd, 0xe4, 0x21, 0x1d, 0x3e, 0x16, 0x07, 0xeb, 0xbd,
 0xd8, 0xa9, 0x76, 0x3e, 0xc0, 0x36, 0xb5, 0x3c, 0x40, 0x41, 0x12, 0xbc,
 0x00, 0xcb, 0xce, 0xbd, 0x2c, 0xa7, 0xb6, 0x3d, 0x0a, 0xb3, 0x86, 0x3e,
 0x1c, 0xa2, 0x75, 0xbd, 0xf0, 0x76, 0x46, 0x3e, 0xae, 0x70, 0xfa, 0xbb,
 0x49, 0x94, 0xb1, 0xbc, 0xfd, 0xba, 0xd6, 0x3d, 0x54, 0xa9, 0xda, 0x3d,
 0x15, 0xe1, 0x60, 0x3d, 0x9a, 0xc6, 0x08, 0x3d, 0x63, 0x74, 0x1e, 0x3d,
 0x37, 0x4d, 0xa4, 0xbd, 0x29, 0x82, 0x9b, 0xbe, 0xf9, 0x2a, 0x2e, 0xbe,
 0xfc, 0x87, 0x5e, 0x3f, 0x31, 0x78, 0x24, 0x3f, 0xe1, 0x7b, 0xb4, 0xbe,
 0x7e, 0x78, 0x6d, 0xbe, 0x56, 0xf4, 0x55, 0x3e, 0xd3, 0x8f, 0xcb, 0x3d,
 0x4e, 0x84, 0x08, 0xbf, 0x60, 0xa0, 0x8f, 0xbe, 0xb3, 0x95, 0xad, 0x3e,
 0x0b, 0xcc, 0xaa, 0xbb, 0xe1, 0xcc, 0x98, 0xbd, 0x06, 0xe9, 0x1a, 0x3f,
 0xe9, 0x29, 0xcd, 0x3d, 0xf0, 0x34, 0x76, 0x3e, 0x9d, 0x8c, 0x08, 0x3d,
 0x4e, 0x4a, 0xd8, 0xbe, 0x57, 0xaf, 0xb6, 0xbe, 0x0a, 0x58, 0x28, 0x3d,
 0xc3, 0xc1, 0xb0, 0xbc, 0x8b, 0x49, 0x92, 0x3e, 0xf3, 0xbc, 0x0f, 0xbf,
 0xad, 0x6a, 0x74, 0x3d, 0x37, 0x8a, 0x6f, 0x3e, 0x48, 0xd9, 0xc3, 0xbe,
 0xfc, 0x3b, 0x34, 0xbe, 0x0e, 0x0f, 0xea, 0x3d, 0xb2, 0x7d, 0xc0, 0xba,
 0x36, 0x67, 0x8e, 0xbe, 0x69, 0x87, 0x62, 0xbc, 0x3a, 0x6c, 0x56, 0xbd,
 0xc7, 0xe7, 0xec, 0xbd, 0x66, 0x5e, 0xa0, 0x3b, 0xe3, 0x71, 0xeb, 0x3c,
 0xe2, 0x2e, 0xe1, 0xbd, 0x07, 0xdb, 0x63, 0xbe, 0x27, 0xc2, 0x38, 0x3e,
 0x6c, 0x1c, 0x64, 0x3d, 0x82, 0x0e, 0x99, 0x3d, 0x24, 0x11, 0xa8, 0xbd,
 0xd3, 0x04, 0x90, 0x3e, 0x3a, 0xd9, 0x0e, 0x3e, 0xa8, 0x53, 0x34, 0x3e,
 0x38, 0x81, 0xcc, 0xbc, 0xd3, 0x55, 0x2f, 0xbd, 0x56, 0xa8, 0xc8, 0xbd,
 0x7e, 0x83, 0x72, 0x3e, 0x71, 0x63, 0xb7, 0x3c, 0x1d, 0x44, 0xeb, 0xbb,
 0x17, 0x48, 0xb4, 0xbd, 0x13, 0xd7, 0x5f, 0xbe, 0xf6, 0xcf, 0x68, 0x3e,
 0x9b, 0xec, 0x1a, 0x3e, 0xf3, 0x43, 0xd3, 0xbd, 0x9a, 0x39, 0x71, 0xbc,
 0xaa, 0x4b, 0xdb, 0xbd, 0xdf, 0xc5, 0x5a, 0x3d, 0x45, 0xc3, 0x4f, 0xbd,
 0x22, 0x5f, 0x85, 0x3e, 0xaf, 0xfe, 0x93, 0xbd, 0x59, 0x47, 0xc6, 0x3d,
 0xbc, 0xab, 0xc3, 0x3c, 0xc6, 0xf4, 0x82, 0x3e, 0xd3, 0x65, 0x18, 0x3e,
 0x75, 0x14, 0x42, 0x3e, 0x74, 0x5e, 0x4c, 0xbe, 0x15, 0x1b, 0x00, 0x3e,
 0xd7, 0x61, 0x26, 0x3e, 0xb9, 0x30, 0x54, 0xbe, 0x19, 0x35, 0xd9, 0x3d,
 0x67, 0xc8, 0x31, 0x3e, 0x76, 0xf4, 0x31, 0x3e, 0xdc, 0x6c, 0x52, 0x3e,
 0x4c, 0xe9, 0x34, 0xbd, 0x1d, 0x6f, 0xb1, 0x3e, 0x10, 0xb8, 0xa9, 0x3d,
 0xb3, 0xd8, 0x9c, 0x3e, 0xed, 0x33, 0x53, 0xbd, 0xb8, 0x3f, 0xfe, 0xbe,
 0x1e, 0x26, 0x76, 0xbc, 0x28, 0x3c, 0x9d, 0xbe, 0x4f, 0x5f, 0xa8, 0x3d,
 0x45, 0x8f, 0x25, 0xbc, 0x54, 0x50, 0x52, 0xbe, 0x4c, 0x08, 0xaf, 0xba,
 0x12, 0xdc, 0x06, 0xbf, 0x00, 0xb6, 0x81, 0x3e, 0xba, 0x18, 0x46, 0x3e,
 0x52, 0x72, 0xfa, 0x3c, 0x30, 0x69, 0xd9, 0xbe, 0xc0, 0x3c, 0x6a, 0xbe,
 0x98, 0x18, 0xdf, 0x3e, 0xe8, 0xef, 0x91, 0x3c, 0x5b, 0x0c, 0x3c, 0x3f,
 0x9b, 0xe5, 0x3c, 0x3d, 0x27, 0xc9, 0xb9, 0xbc, 0x85, 0x07, 0x36, 0x3f,
 0x15, 0x71, 0x68, 0xbe, 0x64, 0xd9, 0x0e, 0x3d, 0x7d, 0xd1, 0x8d, 0x3d,
 0x95, 0x88, 0x82, 0xbe, 0xb5, 0xf8, 0x9f, 0xbe, 0xb1, 0x56, 0x40, 0x3f,
 0x6d, 0xea, 0x82, 0x3e, 0x32, 0xd3, 0xf5, 0x3e, 0x1c, 0x02, 0x62, 0x3d,
 0x36, 0x33, 0x92, 0xbe, 0x39, 0xf0, 0x80, 0xbe, 0xb7, 0x76, 0x8a, 0xbf,
 0x25, 0x37, 0x80, 0xbd, 0x9a, 0x5f, 0x93, 0xbe, 0x2a, 0xda, 0x1d, 0x3e,
 0x4c, 0x4b, 0x38, 0xbe, 0x06, 0xa8, 0x51, 0x3e, 0xa0, 0x8b, 0xa1, 0x3d,
 0xbc, 0xb0, 0x99, 0x3d, 0xb0, 0xd2, 0x87, 0xbc, 0xed, 0x77, 0x70, 0xbe,
 0x9b, 0x84, 0x0e, 0xbe, 0xfa, 0xed, 0x51, 0x3e, 0x88, 0x7c, 0x44, 0xbe,
 0x94, 0x55, 0x11, 0x3e, 0xdc, 0x46, 0x63, 0xbe, 0x60, 0x83, 0x03, 0xbc,
 0xfe, 0x26, 0x82, 0xbe, 0x14, 0xd6, 0x8b, 0xbe, 0x24, 0xc3, 0xdc, 0x3d,
 0x34, 0x15, 0xf6, 0xbd, 0x6c, 0x48, 0x49, 0xbe, 0xb8, 0x42, 0x57, 0x3d,
 0xc4, 0xf9, 0x87, 0xbe, 0xfa, 0xe7, 0x02, 0xbe, 0x3c, 0xb3, 0x18, 0xbd,
 0xa8, 0x95, 0x6c, 0x3e, 0xdc, 0xb7, 0x00, 0x3e, 0x9e, 0x32, 0xbe, 0xbd,
 0x44, 0x6a, 0x3a, 0xbe, 0x7c, 0x11, 0xca, 0x3d, 0xc0, 0xa9, 0x8a, 0xbc,
 0x6a, 0x52, 0x45, 0x3e, 0xd8, 0xe8, 0xe3, 0xbd, 0x9c, 0x7d, 0x31, 0xbe,
 0x80, 0x0e, 0x59, 0x3b, 0x80, 0x85, 0x65, 0x3b, 0xe0, 0x6c, 0xbd, 0xbc,
 0x0e, 0xf0, 0x3d, 0xbe, 0xdc, 0x68, 0xc5, 0xbd, 0x34, 0x93, 0xe2, 0xbd,
 0x8e, 0x32, 0x22, 0x3e, 0xc1, 0x84, 0x7e, 0xbe, 0x86, 0x3a, 0xfd, 0xbd,
 0x1d, 0x2d, 0xc2, 0x3d, 0x2c, 0xf1, 0xd9, 0x3d, 0x11, 0x1b, 0x45, 0x3e,
 0x98, 0xa0, 0xd2, 0xbd, 0xe4, 0xb8, 0x72, 0x3e, 0x65, 0xd4, 0x5a, 0xbd,
 0xa6, 0xf2, 0xfe, 0x3d, 0x87, 0x3d, 0x06, 0xbc, 0xa0, 0xa9, 0x14, 0xbc,
 0x30, 0xf5, 0x74, 0xbd, 0x23, 0x01, 0x2b, 0x3e, 0xeb, 0x21, 0x03, 0x3e,
 0xca, 0xaf, 0x89, 0x3e, 0xe1, 0x27, 0xd1, 0xbd, 0xe9, 0x41, 0x53, 0xbd,
 0xfa, 0x2d, 0x87, 0xbe, 0x81, 0x95, 0x0d, 0x3e, 0xfe, 0x2e, 0x5b, 0x3e,
 0x5e, 0x5f, 0x37, 0x3e, 0x58, 0xcd, 0xa9, 0xbc, 0x09, 0xe5, 0x1e, 0x3e,
 0x71, 0x0d, 0x43, 0x3e, 0xfa, 0x98, 0x91, 0x3d, 0x92, 0x22, 0x04, 0x3e,
 0x81, 0xdd, 0x06, 0xbe, 0xcf, 0xe8, 0xfe, 0xbd, 0x45, 0xc9, 0x44, 0x3d,
 0x9a, 0x85, 0x81, 0x3e, 0x59, 0x9e, 0x1d, 0x3e, 0xc7, 0xfd, 0x79, 0xbe,
 0xc5, 0x6c, 0x5e, 0x3e, 0x3e, 0xf8, 0xb4, 0x3d, 0x3a, 0x0d, 0x31, 0x3d,
 0x32, 0x44, 0x6d, 0x3d, 0x71, 0x1f, 0x6a, 0xbb, 0x73, 0x09, 0x90, 0x3e,
 0xf9, 0x38, 0x3a, 0xbe, 0x6a, 0x2d, 0x08, 0x3d, 0xd4, 0x20, 0x02, 0x3e,
 0x45, 0x3c, 0x8d, 0xbe, 0x47, 0xe6, 0x54, 0xbe, 0x30, 0x18, 0x5e, 0x3e,
 0x07, 0x7b, 0x37, 0xbe, 0x92, 0x19, 0x2c, 0xbe, 0xfc, 0xef, 0x21, 0xbe,
 0x3c, 0x93, 0x64, 0x3d, 0x7c, 0xf1, 0x45, 0x3c, 0xea, 0xfc, 0xa2, 0xbd,
 0xa5, 0x86, 0x9f, 0xbe, 0xd0, 0xbb, 0x40, 0x3d, 0x15, 0xe3, 0x16, 0xbe,
 0x3a, 0x5f, 0x00, 0x3e, 0x2f, 0x7b, 0x80, 0xbe, 0x0d, 0x26, 0x45, 0x3e,
 0x91, 0xc3, 0x84, 0xbd, 0x6c, 0x62, 0x6d, 0x3e, 0x90, 0xb0, 0x96, 0xbd,
 0x88, 0x12, 0x46, 0x3e, 0x65, 0xd7, 0x4e, 0x3e, 0x74, 0x5e, 0x5c, 0x3c,
 0xe5, 0xf9, 0x66, 0x3e, 0xc6, 0xff, 0x32, 0x3e, 0x97, 0x27, 0x41, 0xbe,
 0x82, 0xa8, 0x52, 0x3d, 0xae, 0xa3, 0x39, 0xbd, 0xf8, 0x56, 0x3a, 0x3b,
 0x98, 0xb0, 0x27, 0xbe, 0x42, 0x7b, 0x47, 0xbe, 0xee, 0xf0, 0x26, 0x3d,
 0xa2, 0x3f, 0x9a, 0x3d, 0x2d, 0xaf, 0x56, 0xbd, 0x83, 0xde, 0x47, 0x3d,
 0xf3, 0xea, 0xdd, 0x3d, 0x9c, 0xc2, 0x0d, 0xbd, 0x2d, 0x89, 0x08, 0xbe,
 0x34, 0xe0, 0xb5, 0x3c, 0x7d, 0x34, 0x6b, 0x3e, 0x1c, 0x23, 0x65, 0x3d,
 0x56, 0x6b, 0xb9, 0x3e, 0x4e, 0x72, 0x88, 0xbe, 0x45, 0x87, 0x1b, 0x3c,
 0x73, 0x63, 0x43, 0x3e, 0xd3, 0x6c, 0x20, 0xbd, 0x0b, 0x13, 0x84, 0xbe,
 0xdf, 0xe1, 0x6a, 0x3c, 0x1e, 0x27, 0xb7, 0xbe, 0x80, 0xe8, 0x59, 0x3e,
 0x6e, 0x01, 0x90, 0x3e, 0x2a, 0xf3, 0x08, 0xbe, 0xac, 0x62, 0x17, 0x3e,
 0x1b, 0xed, 0x98, 0xbc, 0xf5, 0x81, 0x97, 0xbe, 0x67, 0x3b, 0xc8, 0x3e,
 0x83, 0x6a, 0x89, 0xbe, 0x37, 0xb0, 0x81, 0xbe, 0x9c, 0xc2, 0xd7, 0xbd,
 0xeb, 0x1d, 0x6c, 0xbd, 0x1b, 0x86, 0xc4, 0xbe, 0x81, 0x21, 0x85, 0xbd,
 0xd8, 0x02, 0xa6, 0xbd, 0x14, 0xb1, 0x27, 0x3d, 0x9c, 0x1c, 0x23, 0xbd,
 0x7e, 0x79, 0xe8, 0x3d, 0x64, 0xf4, 0xee, 0x3e, 0xe8, 0x8d, 0xa6, 0x3d,
 0xbe, 0x59, 0xa9, 0x3e, 0xfe, 0x17, 0x8f, 0x3d, 0xa4, 0x53, 0xe4, 0x3d,
 0x35, 0x3c, 0x62, 0x3e, 0x2e, 0xfa, 0x5d, 0x3b, 0xe8, 0x57, 0xde, 0xbc,
 0x76, 0xb9, 0x73, 0xbe, 0x70, 0xfc, 0x3a, 0x3e, 0x4e, 0x84, 0x54, 0xbd,
 0x79, 0x63, 0xbf, 0xbe, 0x5c, 0xf8, 0x8e, 0xbe, 0xa6, 0xad, 0x9a, 0xbe,
 0x2a, 0x5c, 0xa2, 0xbd, 0xb7, 0xd2, 0x8e, 0xbd, 0xbd, 0x8d, 0x11, 0xbe,
 0x2a, 0xbf, 0x89, 0x3e, 0xf9, 0xe9, 0x44, 0xbe, 0x50, 0xf8, 0x40, 0xbe,
 0x1c, 0x9b, 0x72, 0x3e, 0xdc, 0x92, 0x6d, 0x3e, 0x70, 0xb9, 0x5a, 0xbe,
 0x76, 0xb6, 0x69, 0xbe, 0xce, 0xdd, 0x20, 0x3e, 0x24, 0xd3, 0x8f, 0xbd,
 0x68, 0x6f, 0x91, 0xbd, 0x2e, 0xcb, 0x9e, 0xbd, 0xf0, 0x8c, 0x79, 0x3d,
 0x3e, 0x40, 0x29, 0x3e, 0x72, 0xd6, 0x42, 0x3e, 0xa0, 0xca, 0x48, 0xbc,
 0x00, 0x15, 0xfe, 0x3a, 0xae, 0x5f, 0x45, 0x3e, 0x50, 0xdb, 0xce, 0x3c,
 0xd0, 0xf3, 0x2d, 0x3e, 0xd2, 0xca, 0xf4, 0xbd, 0x88, 0xae, 0xf2, 0xbc,
 0x54, 0xd3, 0xdd, 0xbd, 0x00, 0xb3, 0xd0, 0x3a, 0xbe, 0xab, 0x65, 0xbe,
 0x18, 0xc3, 0xbd, 0x3d, 0xb0, 0xf8, 0x36, 0xbd, 0xf6, 0xd8, 0x05, 0x3e,
 0xdb, 0x28, 0x17, 0xbe, 0x0a, 0x24, 0x16, 0xbe, 0x84, 0xbc, 0xfc, 0xbd,
 0x48, 0x6a, 0x36, 0x3e, 0xe6, 0x4b, 0xbc, 0xbd, 0x40, 0x2b, 0x1c, 0x3e,
 0xfa, 0x03, 0x8c, 0xbe, 0x3c, 0x68, 0xb5, 0xbd, 0x60, 0xed, 0x20, 0x3d,
 0x04, 0x77, 0x72, 0x3e, 0xc0, 0xab, 0x94, 0xbc, 0x20, 0x63, 0xd5, 0x3c,
 0xdc, 0x49, 0x7c, 0x3e, 0x2a, 0xf4, 0x89, 0xbd, 0x45, 0x05, 0x4a, 0xbe,
 0x69, 0x59, 0xf2, 0x3c, 0x1a, 0x4c, 0x19, 0xbe, 0x29, 0x9f, 0x15, 0x3e,
 0xe7, 0x72, 0x06, 0x3c, 0xea, 0x7f, 0x86, 0x3e, 0x35, 0xee, 0x79, 0xbe,
 0x9c, 0x8c, 0x4a, 0xbe, 0xe2, 0xad, 0x37, 0xbf, 0xe9, 0x28, 0x84, 0x3d,
 0x1a, 0xcb, 0xfe, 0xbd, 0x8d, 0x70, 0x50, 0xbe, 0xbe, 0xa8, 0x75, 0x3e,
 0x1b, 0x07, 0xd4, 0x3c, 0xfb, 0x1a, 0xfe, 0x3e, 0x23, 0xa6, 0xcf, 0xbd,
 0xa1, 0x96, 0x43, 0xbf, 0x0f, 0x87, 0x01, 0xbe, 0x5e, 0xb8, 0x5c, 0xbe,
 0x1a, 0x9b, 0x8d, 0x3e, 0x44, 0xf5, 0xcf, 0x3e, 0xb0, 0x8d, 0x93, 0x3e,
 0x1c, 0x36, 0x6d, 0xbd, 0x0e, 0xdf, 0x39, 0xbc, 0xd6, 0x02, 0xe0, 0x3e,
 0x69, 0x00, 0x24, 0x3e, 0x50, 0x8e, 0xc1, 0x3e, 0x8d, 0x66, 0xe0, 0x3e,
 0x7e, 0x9b, 0xf3, 0xbc, 0xd0, 0x61, 0xf3, 0x3e, 0xba, 0x42, 0x82, 0xbe,
 0x7b, 0xed, 0x89, 0x3e, 0xdd, 0x6e, 0xeb, 0xbe, 0xb3, 0xf3, 0x7a, 0x3e,
 0xe6, 0xf4, 0x9b, 0xbe, 0x06, 0x37, 0x13, 0xbe, 0xe8, 0x38, 0x7e, 0xbe,
 0x6e, 0x49, 0x80, 0xbf, 0x64, 0x75, 0x5c, 0x3e, 0x04, 0xc9, 0xc1, 0xbd,
 0x1e, 0x8c, 0xc5, 0x3d, 0x31, 0x45, 0x84, 0xbe, 0x77, 0x11, 0x40, 0x3e,
 0x29, 0x54, 0x3f, 0x3d, 0x31, 0x1e, 0x97, 0x3d, 0x96, 0xc7, 0x53, 0x3e,
 0xce, 0x1e, 0x17, 0x3e, 0xe8, 0x4d, 0xe9, 0xbd, 0x85, 0xce, 0x28, 0xbe,
 0x0c, 0xfe, 0x3d, 0xbe, 0x4d, 0x27, 0x53, 0x3e, 0x42, 0x22, 0x1e, 0x3e,
 0xc7, 0xa4, 0x8d, 0xbd, 0xeb, 0x76, 0x2c, 0xbe, 0x05, 0x7a, 0xa6, 0x3d,
 0xe1, 0x75, 0xf8, 0xbc, 0xf1, 0x19, 0x7d, 0xbd, 0x98, 0x97, 0xef, 0x3c,
 0x2a, 0x2a, 0x48, 0x3e, 0x6f, 0x37, 0x86, 0x3d, 0x59, 0x7d, 0x3c, 0xbd,
 0x33, 0xaa, 0x8d, 0xbd, 0x25, 0x59, 0x2f, 0xbe, 0x1a, 0x75, 0x07, 0xbe,
 0xfa, 0xd1, 0x67, 0xbe, 0x16, 0x61, 0x0d, 0xbe, 0x8e, 0x7c, 0x2a, 0xbe,
 0x17, 0xae, 0xb4, 0x3d, 0xcd, 0x90, 0x41, 0x3e, 0xeb, 0x1d, 0x5f, 0x3d,
 0x6b, 0xdc, 0x03, 0x3e, 0xab, 0xcf, 0xd1, 0x3c, 0xd5, 0xc5, 0x10, 0xbe,
 0x56, 0x5e, 0xd1, 0xbd, 0x24, 0x71, 0xc6, 0xbd, 0x62, 0x16, 0x1c, 0x3e,
 0x1a, 0x31, 0x50, 0x3e, 0x4c, 0x94, 0xe7, 0xbd, 0x4d, 0x0f, 0x4d, 0x3e,
 0xd4, 0x93, 0x44, 0xbe, 0x6b, 0xf6, 0xbb, 0xbc, 0x07, 0xf8, 0x06, 0x3e,
 0xb3, 0xd9, 0xd6, 0x3d, 0x60, 0x8b, 0xf1, 0x3b, 0xa2, 0x46, 0xc8, 0xbd,
 0x7e, 0x19, 0x3e, 0x3e, 0xbd, 0xe3, 0x2b, 0x3d, 0xa8, 0xe5, 0x8b, 0xbe,
 0x21, 0xb9, 0x6a, 0x3e, 0xd6, 0x6f, 0x09, 0x3d, 0xbc, 0xa4, 0xb5, 0xbd,
 0xdb, 0xcc, 0x39, 0x3e, 0xd3, 0x93, 0x16, 0x3e, 0xb0, 0xea, 0x53, 0x3e,
 0x21, 0x78, 0x60, 0x3e, 0x0d, 0x33, 0x1c, 0xbe, 0x80, 0x2b, 0xd0, 0x3d,
 0xbf, 0xe1, 0x57, 0x3e, 0x5b, 0x08, 0x7f, 0x3e, 0x1e, 0x08, 0x55, 0x3e,
 0x74, 0x66, 0x94, 0xbd, 0x3a, 0xe0, 0x71, 0x3e, 0xb0, 0xa7, 0x89, 0x3d,
 0xbd, 0xc5, 0x5c, 0x3e, 0xb7, 0xd2, 0x38, 0x3e, 0xed, 0x0c, 0x50, 0xbe,
 0x0b, 0x83, 0x10, 0xbd, 0x46, 0xa4, 0x81, 0x3c, 0xd6, 0xeb, 0xbd, 0xbd,
 0x09, 0x0f, 0xbd, 0x3d, 0x7c, 0x61, 0x9a, 0x3d, 0xf3, 0xb6, 0x2a, 0x3e,
 0x90, 0xd9, 0xb3, 0x3d, 0xa9, 0x3b, 0x05, 0xbe, 0xec, 0x1a, 0xf8, 0x3b,
 0x6c, 0xe3, 0xdd, 0x3d, 0xbe, 0x84, 0xd5, 0xbd, 0x6d, 0xc0, 0x06, 0x3d,
 0x32, 0xba, 0x1a, 0x3b, 0x89, 0xb8, 0x74, 0x3d, 0x04, 0x75, 0x59, 0xbe,
 0x75, 0x27, 0x55, 0x3e, 0x89, 0x34, 0x53, 0x3e, 0x2c, 0x52, 0x1b, 0xbe,
 0xef, 0x2d, 0x18, 0x3e, 0xea, 0x80, 0xb9, 0xbd, 0xe3, 0xbd, 0x5c, 0x3e,
 0xc8, 0x30, 0x2b, 0xbc, 0x78, 0x19, 0x71, 0xbe, 0xc2, 0xac, 0x19, 0xbd,
 0x45, 0x0f, 0xa9, 0x3d, 0x26, 0x4e, 0x59, 0xbe, 0x4c, 0x6e, 0xd6, 0xbc,
 0xc6, 0x0e, 0xa3, 0xbd, 0xa7, 0x88, 0xfd, 0x3d, 0xa2, 0x1c, 0x84, 0x3e,
 0x34, 0xed, 0x6a, 0x3d, 0xe2, 0x27, 0x4a, 0xbe, 0xa4, 0xa4, 0x61, 0xbd,
 0xc0, 0xfc, 0x22, 0xbe, 0x6a, 0x8a, 0x41, 0xbe, 0xb5, 0x44, 0x58, 0xbe,
 0x11, 0x84, 0x0b, 0x3d, 0x73, 0xa6, 0xfb, 0x3d, 0x9e, 0x4c, 0x83, 0x3e,
 0xc6, 0xad, 0x22, 0x3e, 0xf5, 0xbd, 0x9a, 0x3b, 0x97, 0xa9, 0xa7, 0x3c,
 0xca, 0x33, 0xe0, 0xbd, 0x1b, 0x1e, 0x2c, 0x3e, 0xde, 0xb2, 0x8f, 0x3e,
 0x33, 0xdf, 0xfe, 0x3c, 0x87, 0x4c, 0xc7, 0xbd, 0xe8, 0x15, 0x11, 0xbd,
 0x1b, 0x78, 0xbf, 0xbd, 0x0c, 0xcb, 0x4e, 0xbe, 0x2e, 0x2f, 0x64, 0x3e,
 0x08, 0x57, 0x70, 0xbe, 0x7e, 0x06, 0x78, 0xbe, 0xff, 0xf1, 0xff, 0xbd,
 0x2d, 0x86, 0x9f, 0x3d, 0x6f, 0xc8, 0x36, 0xbe, 0x82, 0xef, 0x58, 0xbd,
 0x66, 0xf9, 0x0e, 0xbe, 0x42, 0xda, 0x4e, 0x3e, 0x5e, 0x7e, 0xa5, 0x3e,
 0xd8, 0xd5, 0x63, 0x3e, 0x49, 0x49, 0x83, 0xbc, 0xbf, 0x81, 0xc6, 0xbd,
 0xf4, 0x8f, 0xd3, 0x3b, 0xc4, 0xda, 0x58, 0xbe, 0x3c, 0xba, 0x05, 0x3e,
 0x2e, 0x62, 0xd2, 0xbc, 0xc4, 0x85, 0xf3, 0xbd, 0xbc, 0xdc, 0x98, 0xbd,
 0x07, 0xb6, 0x12, 0xbe, 0xb2, 0xeb, 0x11, 0x3e, 0x78, 0xe9, 0x2b, 0x3e,
 0x1d, 0x16, 0x70, 0x3e, 0x08, 0x9b, 0xb5, 0x3c, 0x27, 0x32, 0xf8, 0x3d,
 0x12, 0x07, 0x16, 0x3e, 0x4e, 0xec, 0x36, 0x3d, 0xdc, 0x96, 0xa9, 0xbc,
 0x26, 0x5e, 0xe6, 0xbc, 0xdf, 0xc1, 0x36, 0xbe, 0x35, 0xc6, 0xc2, 0x3d,
 0xe1, 0x98, 0x25, 0x3e, 0xfa, 0x67, 0xb8, 0xbc, 0xe8, 0x13, 0x25, 0x3e,
 0x0f, 0xd7, 0x41, 0xbd, 0x91, 0x84, 0xab, 0x3d, 0xc1, 0xe1, 0xcb, 0x3d,
 0xaf, 0x44, 0x7b, 0xbd, 0x98, 0xa4, 0x1a, 0xbd, 0xc5, 0x8d, 0x4c, 0x3e,
 0x3a, 0xeb, 0x8d, 0x3e, 0x86, 0xda, 0xd1, 0xbc, 0xbf, 0x3d, 0x32, 0x3d,
 0x7e, 0xa6, 0x4d, 0x3e, 0x8c, 0x27, 0x40, 0xbe, 0x14, 0x68, 0xea, 0xbd,
 0x80, 0x30, 0x84, 0xbc, 0x06, 0xf4, 0x54, 0x3e, 0xf4, 0xb2, 0x65, 0xbd,
 0xde, 0xec, 0x5b, 0xbe, 0xa0, 0x00, 0x57, 0x3c, 0xdc, 0x3a, 0xb7, 0xbd,
 0x98, 0x85, 0x88, 0xbd, 0x7c, 0x7a, 0x7c, 0xbd, 0xe0, 0x33, 0xc4, 0x3d,
 0xb6, 0xaa, 0x31, 0x3e, 0x00, 0x61, 0x19, 0xbd, 0x2a, 0xa8, 0x7a, 0xbe,
 0x6a, 0x80, 0x55, 0xbe, 0xc8, 0x60, 0xd9, 0xbd, 0x1a, 0x94, 0x1c, 0x3e,
 0x16, 0x42, 0xbf, 0xbd, 0x28, 0x6d, 0xdc, 0xbd, 0x8e, 0x52, 0x02, 0x3e,
 0xb6, 0x12, 0x1b, 0xbe, 0xdc, 0xa8, 0x29, 0xbe, 0x42, 0x3a, 0xb5, 0xbd,
 0x2a, 0x03, 0x65, 0xbe, 0x24, 0xf9, 0xb0, 0x3d, 0x4e, 0xd7, 0x52, 0x3e,
 0x20, 0x0f, 0x8c, 0xbe, 0xcc, 0xd2, 0x42, 0xbd, 0x4c, 0x54, 0x72, 0xbd,
 0x80, 0x3a, 0x70, 0x3e, 0x14, 0xb0, 0x10, 0x3e, 0xa4, 0xb1, 0x81, 0x3e,
 0xa2, 0x8e, 0x81, 0x3e, 0x70, 0x5d, 0xc8, 0x3d, 0x54, 0xf3, 0x70, 0x3e,
 0xe6, 0xb7, 0x52, 0xbe, 0x90, 0xdd, 0xff, 0xbd, 0x18, 0xc4, 0x48, 0xbe,
 0x18, 0x5f, 0xac, 0x3d, 0x89, 0x8f, 0x43, 0x3e, 0x57, 0x02, 0x38, 0x3e,
 0x15, 0x31, 0x39, 0xbd, 0xd4, 0x5f, 0xca, 0x3e, 0x14, 0x41, 0xde, 0x3e,
 0xe0, 0xb6, 0x18, 0x3d, 0x4a, 0xec, 0x73, 0x3e, 0x96, 0x59, 0x60, 0x3e,
 0x5c, 0x89, 0xd5, 0x3e, 0xd2, 0x86, 0xe5, 0x3d, 0x91, 0x9b, 0x5e, 0xbd,
 0x44, 0xad, 0x78, 0x3e, 0x1c, 0x89, 0x5d, 0xbe, 0xe8, 0xe6, 0x3d, 0x3c,
 0x36, 0x81, 0xc2, 0x3e, 0xf8, 0x48, 0x77, 0x3e, 0x66, 0x3b, 0x63, 0x3e,
 0x46, 0x3f, 0x49, 0xbf, 0x6a, 0x84, 0x8e, 0xbb, 0x9a, 0x77, 0xd6, 0x3d,
 0x32, 0x52, 0x83, 0x3e, 0xd6, 0xab, 0x0b, 0x3d, 0x21, 0x05, 0x16, 0xbe,
 0x4d, 0x54, 0x3c, 0x3d, 0x8a, 0x72, 0x16, 0xbe, 0xb6, 0x9d, 0xf2, 0xbd,
 0xee, 0x64, 0x08, 0xbf, 0x8d, 0xc6, 0x0f, 0xbf, 0xfe, 0x65, 0xf7, 0xbd,
 0x6e, 0x50, 0x07, 0x3e, 0x42, 0x13, 0x4d, 0x3e, 0xa7, 0xc5, 0x96, 0xbe,
 0x86, 0xfe, 0x94, 0x3e, 0xcd, 0xf0, 0x43, 0x3f, 0x7f, 0x02, 0x4a, 0xbe,
 0x62, 0xf0, 0x8d, 0xbe, 0xc7, 0x46, 0x49, 0x3f, 0x1f, 0x67, 0x2d, 0x3f,
 0xd4, 0xf2, 0x1f, 0x3e, 0x90, 0xba, 0x16, 0xbf, 0xc3, 0x8d, 0x42, 0x3b,
 0x7c, 0xd9, 0x3d, 0xbd, 0x71, 0x66, 0x40, 0x3d, 0x80, 0x41, 0x80, 0x3b,
 0x58, 0x84, 0x43, 0xbd, 0xef, 0xc9, 0x06, 0xbe, 0x93, 0xf9, 0x5f, 0xbe,
 0x6f, 0x7e, 0x9b, 0xbe, 0x33, 0x9b, 0xc3, 0xbd, 0x17, 0xb3, 0x0d, 0xbe,
 0xca, 0xd9, 0xa8, 0x3e, 0x63, 0x33, 0x25, 0x3f, 0x8d, 0x23, 0x14, 0x3f,
 0x5b, 0x0e, 0x30, 0x3f, 0xc9, 0x1d, 0xed, 0x3e, 0xe1, 0x75, 0xf2, 0xbd,
 0xc9, 0x27, 0xae, 0x3c, 0x44, 0x15, 0x44, 0x3e, 0x65, 0x07, 0x41, 0xbd,
 0xf1, 0x0e, 0x9b, 0x3e, 0xd0, 0x9a, 0x1a, 0x3f, 0x71, 0x77, 0xce, 0xbc,
 0x41, 0x54, 0xbf, 0xbe, 0x99, 0x66, 0x0f, 0x3e, 0x2a, 0x8e, 0xd2, 0x3e,
 0x0b, 0xf3, 0xf7, 0x3d, 0x2c, 0x82, 0xa5, 0xbd, 0x1c, 0x84, 0xb1, 0xbe,
 0xb5, 0x80, 0xd9, 0xbe, 0xf6, 0xf6, 0x36, 0xbf, 0xcf, 0x00, 0x4e, 0xbf,
 0x0b, 0xaa, 0x55, 0xbe, 0xf2, 0xd6, 0x4a, 0xbd, 0x9e, 0xfb, 0x66, 0x3e,
 0xc7, 0xc2, 0x0d, 0x3f, 0x49, 0x7c, 0x12, 0xbf, 0x36, 0x59, 0x47, 0xbe,
 0xc9, 0xc5, 0x8e, 0x3d, 0xec, 0xa1, 0x7d, 0xbd, 0x60, 0x9b, 0x02, 0xbf,
 0xb7, 0x08, 0x2f, 0xbe, 0xb8, 0x43, 0x57, 0x3d, 0x09, 0x18, 0x8a, 0x3e,
 0x50, 0x18, 0x1d, 0x3e, 0x20, 0xec, 0x95, 0xbc, 0xbb, 0x5a, 0xa8, 0xbd,
 0xe6, 0x75, 0xcb, 0xbd, 0x3a, 0xb7, 0xc9, 0x3c, 0xfb, 0xf9, 0xa0, 0x3d,
 0xb0, 0xd2, 0x17, 0x3e, 0xcc, 0x3b, 0x23, 0xbe, 0x91, 0x60, 0x52, 0xbe,
 0x14, 0xd3, 0x0a, 0x3e, 0xaf, 0xb4, 0x8d, 0xbe, 0xab, 0x6d, 0x32, 0x3e,
 0x28, 0xd0, 0x67, 0x3e, 0x19, 0xa0, 0xb0, 0xbd, 0xbd, 0xae, 0x07, 0xbe,
 0xce, 0x53, 0x45, 0x3e, 0x9a, 0x60, 0x83, 0x3e, 0x7b, 0x61, 0x80, 0x3e,
 0xa1, 0x8f, 0xfc, 0x3d, 0xf2, 0x02, 0x63, 0xbe, 0x55, 0x9f, 0xbf, 0x3c,
 0x4b, 0x0f, 0xf4, 0xbd, 0x28, 0xc3, 0x98, 0x3e, 0x3e, 0xd7, 0xdb, 0x3b,
 0xa9, 0xe8, 0x86, 0x3e, 0x4b, 0x3a, 0x6e, 0x3d, 0x35, 0xb6, 0xc4, 0x3d,
 0x1d, 0x36, 0x97, 0x3d, 0x72, 0x61, 0x50, 0xbe, 0x58, 0x01, 0xc7, 0xbd,
 0x21, 0x39, 0xfb, 0x3d, 0x15, 0x62, 0xb2, 0x3d, 0xa2, 0x23, 0xe7, 0x3c,
 0xe8, 0x7b, 0x69, 0x3d, 0xca, 0xea, 0x8c, 0x3d, 0xae, 0x0a, 0x5c, 0xbe,
 0x80, 0x10, 0x33, 0xbe, 0xf0, 0x66, 0xd4, 0x3d, 0x12, 0x7b, 0x55, 0x3e,
 0x17, 0xe8, 0x16, 0xbe, 0xd6, 0x57, 0xa3, 0xbd, 0xa7, 0x9b, 0xc8, 0x3e,
 0x7b, 0x48, 0x8e, 0x3c, 0x69, 0x97, 0x85, 0xbe, 0xe5, 0x6c, 0xda, 0x3d,
 0x14, 0x72, 0xaa, 0xbe, 0xa7, 0xd4, 0xbe, 0xbe, 0x8a, 0xb1, 0xb8, 0xbd,
 0x3e, 0xab, 0x9f, 0x3e, 0x8e, 0x03, 0x80, 0x3e, 0x12, 0x20, 0x05, 0xbe,
 0xdd, 0x04, 0xc1, 0x3d, 0xdc, 0x18, 0xb9, 0xbd, 0x0b, 0xa0, 0x65, 0xbe,
 0xf6, 0x1b, 0xc0, 0xbe, 0x3e, 0x2f, 0xef, 0xbd, 0x30, 0x3c, 0xbb, 0x3d,
 0xb5, 0xfb, 0xec, 0xbe, 0x41, 0x3b, 0xfa, 0x3e, 0xbc, 0xa4, 0x13, 0x3e,
 0x9b, 0x0b, 0x21, 0xbd, 0xdb, 0xb5, 0x97, 0x3e, 0x70, 0xfa, 0x80, 0xbe,
 0x57, 0xee, 0x27, 0xbf, 0x8e, 0xa7, 0xa2, 0x3e, 0x80, 0x30, 0x9e, 0xbe,
 0xbc, 0x48, 0xd6, 0x3d, 0x3f, 0x0d, 0x8d, 0xbd, 0xf7, 0x76, 0x9b, 0x3e,
 0xbe, 0x5b, 0x3d, 0xbe, 0x7a, 0xab, 0x32, 0x3e, 0x8d, 0xed, 0xd0, 0x3e,
 0x4a, 0x35, 0x7e, 0xbc, 0xa3, 0x42, 0x0c, 0x3f, 0xbd, 0x8d, 0x39, 0x3f,
 0x5c, 0xa6, 0xc1, 0xbe, 0xd0, 0x80, 0x23, 0x3f, 0xa5, 0x7d, 0x8c, 0x3e,
 0x81, 0x5e, 0x0d, 0x3d, 0x6b, 0x92, 0x21, 0xbe, 0x86, 0xf4, 0x84, 0x3d,
 0x94, 0x9d, 0x20, 0xbe, 0x01, 0x73, 0x1c, 0xbe, 0x6d, 0x02, 0xe2, 0xbc,
 0x0e, 0x75, 0x03, 0x3e, 0x5f, 0xf0, 0xb7, 0x3d, 0xc1, 0xbe, 0x39, 0xbe,
 0x22, 0xe4, 0x82, 0xbe, 0x65, 0xb4, 0x1f, 0xbd, 0xed, 0x2d, 0xe3, 0x3d,
 0x27, 0x64, 0xf0, 0xbc, 0xc1, 0xcd, 0x86, 0xbe, 0x46, 0x8f, 0x9f, 0x3e,
 0xd2, 0xa6, 0xb5, 0xbb, 0x7f, 0x48, 0x8b, 0x3e, 0x49, 0xbc, 0x7b, 0xbd,
 0xdd, 0xd2, 0xd7, 0xbd, 0x5e, 0x9d, 0x1d, 0x3d, 0xe9, 0x28, 0x95, 0xbe,
 0xc7, 0x57, 0x19, 0x3e, 0x11, 0x33, 0x40, 0xbe, 0x75, 0x85, 0x66, 0x3e,
 0x90, 0x40, 0x25, 0x3e, 0xf6, 0xaf, 0x6a, 0x3e, 0xce, 0x68, 0x1d, 0x3e,
 0xd0, 0x80, 0x6a, 0xbc, 0xc2, 0xb6, 0x11, 0xbc, 0xcd, 0xa3, 0x4c, 0x3e,
 0xb9, 0x26, 0x98, 0xbd, 0x10, 0xd0, 0x68, 0xbd, 0xe2, 0x21, 0x9f, 0x3e,
 0xc1, 0xfa, 0xbf, 0xbd, 0x19, 0xd5, 0x70, 0x3d, 0x77, 0x1f, 0x9b, 0xbb,
 0xd2, 0xa0, 0x96, 0xbd, 0x90, 0x35, 0x88, 0x3c, 0xa6, 0xb4, 0xea, 0xbc,
 0xb4, 0x1f, 0xfa, 0xbd, 0xb7, 0x4b, 0x5b, 0x3e, 0x0f, 0xeb, 0x70, 0x3e,
 0x75, 0xdb, 0x7c, 0x3e, 0x5f, 0x27, 0x82, 0xba, 0xe8, 0xcf, 0xf9, 0x3c,
 0x10, 0xf5, 0x7e, 0x3d, 0x98, 0x03, 0xcd, 0x3d, 0xad, 0xca, 0xd5, 0x3d,
 0x0e, 0xfc, 0xc1, 0xbc, 0x39, 0x91, 0xe3, 0xbc, 0xf8, 0xdd, 0x1f, 0xbd,
 0x27, 0x16, 0x01, 0x3b, 0xbc, 0x8a, 0xd9, 0xbc, 0x93, 0x8e, 0xa4, 0x3d,
 0x5b, 0x11, 0x3f, 0xbe, 0x53, 0xf4, 0xbd, 0xbb, 0x01, 0xae, 0xbe, 0x3d,
 0x1b, 0x67, 0x96, 0x3e, 0x75, 0x38, 0x64, 0x3e, 0xeb, 0x2f, 0x5b, 0xbe,
 0x81, 0xe2, 0xb9, 0xbd, 0x20, 0x85, 0x93, 0x3e, 0xe8, 0x93, 0x0b, 0xbe,
 0xf2, 0x43, 0x4a, 0xbe, 0x4e, 0x15, 0xfa, 0x3c, 0x99, 0x97, 0x9e, 0x3d,
 0x38, 0xbb, 0x41, 0xbe, 0xf6, 0x14, 0x3e, 0x3e, 0xb5, 0x95, 0x3c, 0x3e,
 0x29, 0x11, 0x15, 0x3e, 0x21, 0xb4, 0x24, 0xbd, 0xed, 0x6c, 0xdf, 0x3d,
 0xf3, 0x88, 0x22, 0x3d, 0x15, 0xec, 0x95, 0x3d, 0xe3, 0x73, 0xa3, 0xbc,
 0x49, 0xb1, 0x63, 0xbe, 0x78, 0xf6, 0x84, 0xbd, 0xad, 0x5a, 0xe6, 0xbd,
 0x89, 0x51, 0x46, 0x3d, 0x04, 0xf0, 0x39, 0x3e, 0x7d, 0x19, 0xdd, 0xbc,
 0x81, 0xfe, 0xac, 0xbd, 0xad, 0x0f, 0x48, 0x3e, 0x98, 0x0a, 0x89, 0x3e,
 0xdf, 0xd4, 0xa1, 0xbb, 0x5d, 0x82, 0xaf, 0xbd, 0x41, 0x9c, 0x79, 0xbe,
 0x7c, 0x37, 0xcd, 0xbd, 0x1b, 0x5e, 0x4d, 0x3e, 0xc1, 0x52, 0xce, 0xbd,
 0xc2, 0x9f, 0x72, 0x3b, 0x26, 0xa5, 0xb5, 0xbd, 0x37, 0xe6, 0xd5, 0xbd,
 0x55, 0x9c, 0x43, 0x3e, 0x86, 0xb2, 0xba, 0x3d, 0x81, 0x6e, 0x5c, 0x3e,
 0x4b, 0xe3, 0x82, 0x3d, 0x73, 0xea, 0x53, 0xbe, 0x17, 0xcc, 0xb7, 0x3d,
 0x4f, 0x08, 0xe3, 0x3b, 0x1b, 0x4d, 0x1c, 0x3e, 0xa7, 0x8d, 0x50, 0x3e,
 0x46, 0xb0, 0x90, 0xbd, 0x88, 0x02, 0x88, 0xbd, 0x26, 0x89, 0x3e, 0x3b,
 0x75, 0x3d, 0x09, 0xbe, 0x89, 0x95, 0x6f, 0xbe, 0x77, 0x98, 0x3c, 0xbe,
 0xeb, 0x3a, 0x97, 0x3d, 0xc6, 0xe7, 0xd6, 0x3c, 0xb7, 0x36, 0x9b, 0x3e,
 0x63, 0xa7, 0x27, 0x3d, 0xa0, 0xea, 0x3d, 0x3e, 0xf0, 0xc9, 0x59, 0xbe,
 0xec, 0x58, 0x73, 0x3d, 0xe3, 0x77, 0x8f, 0x3d, 0xb4, 0x6f, 0x0b, 0x3e,
 0xc1, 0x9d, 0x8c, 0xbe, 0xa9, 0xf9, 0x87, 0x3e, 0x3e, 0xf7, 0x39, 0x3e,
 0x78, 0x06, 0x2b, 0x3d, 0xe0, 0x32, 0x3a, 0xbc, 0x82, 0xd6, 0x40, 0xbe,
 0x00, 0xd5, 0x30, 0xbe, 0x80, 0x49, 0xea, 0x3d, 0x34, 0x52, 0x59, 0x3e,
 0x20, 0xeb, 0x53, 0xbc, 0x9e, 0x18, 0x3c, 0xbe, 0x60, 0xd5, 0xac, 0xbd,
 0x9c, 0xce, 0x7c, 0x3e, 0x18, 0x50, 0x4b, 0xbe, 0x0a, 0xc2, 0x46, 0x3e,
 0x2a, 0x56, 0x28, 0xbe, 0xa6, 0x76, 0x41, 0x3e, 0x3c, 0xc1, 0x2f, 0x3e,
 0x8b, 0xba, 0x42, 0xbe, 0x24, 0x1c, 0x2e, 0xbe, 0x94, 0x27, 0xc5, 0x3d,
 0x8a, 0xb8, 0x4f, 0x3e, 0xb4, 0x3e, 0x68, 0x3e, 0xfc, 0x75, 0x2e, 0xbd,
 0xde, 0x03, 0x6d, 0xbe, 0x7c, 0x2e, 0x5b, 0xbd, 0x54, 0xcc, 0x4e, 0xbd,
 0x40, 0xee, 0x6b, 0x3c, 0x60, 0x3e, 0x19, 0xbc, 0xee, 0x84, 0x0e, 0xbe,
 0xed, 0xec, 0x87, 0xbe, 0x00, 0x37, 0xe0, 0xba, 0xaa, 0xfd, 0x1f, 0x3e,
 0x20, 0x41, 0xc0, 0x3d, 0x60, 0xf0, 0x14, 0x3c, 0xca, 0xe1, 0x42, 0x3e,
 0xb0, 0x29, 0xd2, 0x3d, 0xf4, 0xec, 0x33, 0x3e, 0x4c, 0x40, 0x66, 0x3e,
 0xda, 0x7f, 0x37, 0x3e, 0x60, 0x64, 0x5d, 0xbc, 0xd9, 0xcf, 0x60, 0xbe,
 0x55, 0x74, 0xa6, 0xbc, 0x44, 0xa6, 0xb0, 0xbd, 0xf5, 0x89, 0xaf, 0xbd,
 0xe5, 0x3a, 0x84, 0x3e, 0xd2, 0x4e, 0x55, 0xbe, 0x8d, 0x0c, 0xc9, 0xbe,
 0xce, 0x83, 0xc0, 0x3c, 0x53, 0x2d, 0x36, 0x3f, 0xbe, 0x51, 0x11, 0x3f,
 0xc8, 0xbf, 0x0b, 0xbf, 0x61, 0xc4, 0xaa, 0xbd, 0x94, 0x03, 0x48, 0x3a,
 0xe7, 0xec, 0xeb, 0x3d, 0x42, 0x6d, 0xcd, 0xbd, 0x22, 0x70, 0xc6, 0x3d,
 0x0b, 0x10, 0x10, 0x3e, 0x47, 0xad, 0x29, 0xbf, 0xfb, 0xf8, 0x0b, 0xbc,
 0x92, 0xf3, 0xbc, 0x3e, 0xa4, 0x4c, 0xd9, 0x3c, 0x94, 0x20, 0x3d, 0x3e,
 0x22, 0xb8, 0xc1, 0xbd, 0x5a, 0x10, 0xa1, 0xbd, 0x38, 0xe9, 0xca, 0x3e,
 0x85, 0x58, 0x9f, 0xbe, 0x90, 0xa9, 0x74, 0xbe, 0x95, 0x6d, 0xd7, 0xbe,
 0x29, 0xbc, 0x89, 0x3e, 0xd9, 0x92, 0x5f, 0x3e, 0xab, 0x80, 0xb7, 0x3e,
 0x56, 0xba, 0x05, 0x3e, 0x82, 0x01, 0x86, 0xbd, 0xd8, 0x2c, 0x31, 0x3e,
 0xd5, 0x48, 0x5d, 0x3e, 0x91, 0xa7, 0x3c, 0xbd, 0x5f, 0xd1, 0x3f, 0xbf,
 0x1a, 0xc9, 0xe3, 0xbc, 0xc2, 0x4c, 0xd7, 0xbe, 0xa4, 0x35, 0xc7, 0xbe,
 0x6e, 0xc0, 0xe8, 0xbd, 0x98, 0xc6, 0x1b, 0xbe, 0x76, 0xf9, 0xfb, 0x3d,
 0xc0, 0xec, 0xb7, 0xbd, 0x7f, 0x2a, 0x16, 0x3d, 0xc0, 0xfb, 0x36, 0xbd,
 0xb0, 0x90, 0x9e, 0xbd, 0x4d, 0x93, 0x85, 0x3d, 0xbc, 0xcc, 0x41, 0x3e,
 0x62, 0xd4, 0xce, 0x3c, 0x14, 0xe4, 0x4b, 0x3e, 0x96, 0xda, 0xda, 0x3d,
 0xf5, 0x0f, 0x58, 0xbe, 0x38, 0xe7, 0x86, 0xbd, 0x20, 0x7d, 0x3c, 0x3c,
 0x96, 0x21, 0x27, 0xbe, 0x23, 0x8f, 0xb8, 0xbc, 0xf7, 0x86, 0x62, 0x3d,
 0xf2, 0x36, 0x11, 0x3d, 0x70, 0x62, 0x13, 0x3e, 0x09, 0x8f, 0xf5, 0x3c,
 0xa8, 0xfb, 0x12, 0xbe, 0x5a, 0xdd, 0x78, 0x3d, 0xda, 0x3f, 0x8a, 0x3d,
 0x68, 0x03, 0x72, 0xbb, 0xc5, 0x36, 0x06, 0xbe, 0x25, 0xd0, 0x07, 0x3e,
 0x4e, 0x02, 0x87, 0x3e, 0x02, 0x0b, 0x27, 0xbe, 0x9a, 0x2f, 0x11, 0x3e,
 0x35, 0xcd, 0x58, 0x3d, 0xc8, 0xc3, 0x24, 0x3d, 0x26, 0xc2, 0x59, 0x3d,
 0xae, 0xe3, 0x0e, 0xbe, 0xc0, 0x9d, 0x17, 0x3e, 0x18, 0x72, 0x9c, 0x3d,
 0xac, 0x50, 0x2a, 0x3d, 0x8a, 0x20, 0x32, 0xbd, 0x3a, 0x57, 0x30, 0x3d,
 0xab, 0x26, 0x2b, 0xbb, 0x49, 0x03, 0x82, 0x3e, 0xd3, 0x13, 0xae, 0x3c,
 0xb9, 0xf5, 0x5b, 0xbe, 0x51, 0x10, 0x67, 0xbe, 0x01, 0x47, 0x16, 0xbc,
 0x01, 0x2e, 0x90, 0x3e, 0x0c, 0x98, 0x84, 0xbe, 0x2d, 0x9d, 0xd5, 0x3d,
 0x1c, 0x73, 0x07, 0x3e, 0x19, 0xdf, 0x1b, 0x3d, 0x89, 0xc3, 0x8d, 0x3c,
 0x3c, 0xcf, 0xf9, 0xbe, 0x1e, 0xbc, 0x1a, 0xbe, 0x99, 0xb3, 0x00, 0xbd,
 0xe2, 0x27, 0x22, 0xbe, 0xba, 0xc5, 0xc3, 0xbe, 0xaa, 0x23, 0x45, 0xbe,
 0x23, 0xbe, 0xe5, 0xbe, 0x44, 0xca, 0x5c, 0xbe, 0x7a, 0x23, 0x66, 0x3e,
 0x73, 0xfc, 0x62, 0xbf, 0xf7, 0xf9, 0x6a, 0xbe, 0xda, 0xd1, 0x1e, 0xbe,
 0x4c, 0x84, 0xb5, 0xbe, 0x8f, 0x85, 0xd4, 0x3e, 0x97, 0x56, 0xcb, 0x3e,
 0x9a, 0x4b, 0x23, 0xbf, 0xcf, 0x61, 0xc3, 0x3e, 0xb3, 0x72, 0xa6, 0x3e,
 0xc2, 0xe9, 0xa7, 0xbe, 0xc8, 0x82, 0x98, 0x3c, 0x2a, 0xad, 0xc4, 0xbd,
 0xb5, 0xe5, 0x86, 0xbe, 0x81, 0xab, 0xa5, 0x3e, 0xae, 0x36, 0x2e, 0x3f,
 0xc6, 0xbe, 0x55, 0x3e, 0xc1, 0x2e, 0x80, 0x3e, 0x63, 0x74, 0xad, 0x3e,
 0x94, 0x0d, 0xb6, 0x3e, 0x6b, 0x98, 0x42, 0x3f, 0xae, 0xb8, 0x58, 0x3f,
 0x1e, 0x96, 0x4f, 0x3e, 0xe4, 0xad, 0x77, 0xbe, 0x00, 0x9a, 0x8a, 0x3b,
 0xa8, 0xa8, 0x13, 0x3d, 0xa0, 0x3c, 0x93, 0x3c, 0x74, 0x6e, 0x6f, 0x3e,
 0xe0, 0x34, 0x8d, 0x3c, 0x62, 0x43, 0x50, 0xbe, 0xf0, 0x03, 0x96, 0x3d,
 0xce, 0x47, 0x49, 0xbe, 0x10, 0xf1, 0xf8, 0x3d, 0x6d, 0x70, 0x79, 0xbe,
 0x8c, 0x53, 0x3f, 0xbd, 0xa0, 0x5d, 0x04, 0xbc, 0x3e, 0xd2, 0x84, 0xbe,
 0x28, 0x1f, 0x0c, 0x3e, 0x9e, 0xa3, 0x2c, 0x3e, 0x93, 0xc7, 0x26, 0xbe,
 0xa6, 0x10, 0x8d, 0xbd, 0xf0, 0x97, 0x88, 0x3d, 0x38, 0x4a, 0x16, 0x3d,
 0xc6, 0x96, 0x7c, 0xbe, 0x76, 0xde, 0x84, 0x3e, 0xb8, 0xb7, 0x48, 0xbe,
 0x2c, 0xb9, 0x2b, 0xbd, 0xe0, 0xd3, 0x87, 0x3c, 0x20, 0xa8, 0x27, 0xbe,
 0x74, 0x67, 0x49, 0xbd, 0xe4, 0x15, 0x67, 0xbe, 0xac, 0x2f, 0x1d, 0x3e,
 0xdf, 0x9b, 0x01, 0xbe, 0xb0, 0x26, 0xe2, 0xbd, 0xde, 0x39, 0x8a, 0xbe,
 0xd2, 0xf0, 0xca, 0xbd, 0x40, 0x8c, 0x80, 0x3b, 0x30, 0xb6, 0x1f, 0x3d,
 0xa6, 0x9d, 0x2f, 0xbe, 0x08, 0x7c, 0xcd, 0xbd, 0xfe, 0x3d, 0x00, 0x3e,
 0xf2, 0xff, 0x1d, 0xbe, 0x19, 0x3e, 0x9c, 0x3a, 0xed, 0xae, 0x40, 0x3e,
 0xa3, 0xa8, 0x31, 0x3c, 0xe0, 0x0e, 0x1c, 0x3c, 0xa2, 0x0d, 0x7f, 0x3d,
 0x23, 0xf6, 0x70, 0x3e, 0xfb, 0x50, 0xd9, 0x3d, 0xb9, 0xdf, 0x68, 0x3e,
 0xcf, 0x97, 0x27, 0x3e, 0x97, 0x14, 0x42, 0xbe, 0x46, 0x9f, 0x97, 0xbd,
 0x5f, 0xf2, 0x9d, 0xbc, 0x0f, 0xe1, 0x51, 0xbe, 0x33, 0x20, 0x54, 0x3d,
 0xcb, 0x86, 0x05, 0x3e, 0x43, 0x20, 0xbb, 0xbd, 0x67, 0xd2, 0xd8, 0xbd,
 0xf7, 0x98, 0xb3, 0x3e, 0xb0, 0xe5, 0x85, 0x3e, 0xb3, 0x9d, 0x6e, 0x3d,
 0x71, 0xfe, 0x4b, 0x3e, 0x25, 0x57, 0x6e, 0x3e, 0x1f, 0xef, 0x61, 0xbe,
 0x2e, 0x64, 0xb4, 0x3d, 0xdd, 0x66, 0x4c, 0x3d, 0xeb, 0x28, 0xa9, 0xbe,
 0x3b, 0x9e, 0xe5, 0xbc, 0xb0, 0x00, 0x92, 0xbd, 0x19, 0x38, 0x6d, 0xbe,
 0x47, 0x92, 0x2f, 0xbe, 0xc7, 0x03, 0x06, 0x3d, 0x71, 0x71, 0xa0, 0xbe,
 0x7d, 0x67, 0x89, 0xbe, 0xde, 0xd1, 0x5c, 0x3e, 0x32, 0x0c, 0xaa, 0xbe,
 0x8c, 0x24, 0xa5, 0x3d, 0x83, 0xa5, 0x58, 0x3e, 0xe1, 0x4f, 0xeb, 0xbd,
 0x21, 0x63, 0x5b, 0xbe, 0x40, 0x62, 0x90, 0xbd, 0x89, 0x5a, 0xa0, 0x3e,
 0x0d, 0x0d, 0x1f, 0x3d, 0x52, 0xb4, 0x21, 0xbe, 0x03, 0x79, 0x70, 0x3d,
 0x0a, 0xb2, 0x1e, 0xb8, 0x4c, 0xc6, 0x94, 0x3e, 0xf2, 0x0d, 0x6e, 0xbe,
 0xd5, 0xac, 0xd3, 0x3d, 0x40, 0x84, 0x00, 0x3f, 0x0d, 0xf9, 0x51, 0xbd,
 0xe8, 0xc0, 0x6c, 0x3e, 0x12, 0x48, 0x13, 0xbf, 0xf3, 0x44, 0x39, 0x3e,
 0xd5, 0x44, 0x05, 0x3e, 0x15, 0xaf, 0x81, 0xbd, 0x97, 0x22, 0xba, 0x3d,
 0xec, 0x75, 0x99, 0x3d, 0x4d, 0x60, 0xf7, 0x3e, 0xc2, 0xbc, 0x77, 0xbc,
 0x63, 0x93, 0x4a, 0xbc, 0x75, 0x25, 0x85, 0xbe, 0xf3, 0xb1, 0x0f, 0xbd,
 0xc0, 0xa0, 0x6c, 0xbe, 0x71, 0x12, 0x98, 0x3d, 0x5c, 0x3c, 0x08, 0xbf,
 0xc4, 0x17, 0x54, 0x3e, 0xb5, 0x3f, 0x9c, 0xbe, 0xaa, 0x38, 0x95, 0x3d,
 0x56, 0xf5, 0x8d, 0x3e, 0xe7, 0xff, 0xb6, 0xbe, 0x93, 0x29, 0x6c, 0xbe,
 0xd0, 0xbf, 0x33, 0xbe, 0x7c, 0xc7, 0x16, 0x3a, 0x78, 0xc8, 0x23, 0xbd,
 0xa2, 0xbb, 0x4b, 0x3e, 0x0c, 0x66, 0xbc, 0x3b, 0xa9, 0xda, 0x14, 0xbf,
 0x62, 0x09, 0x4b, 0x3d, 0xe0, 0xee, 0x01, 0xbf, 0xb1, 0x62, 0x33, 0xbe,
 0xb7, 0x07, 0x23, 0xbe, 0x5f, 0x1e, 0xb3, 0x3b, 0x0c, 0xa8, 0x8a, 0xbd,
 0x02, 0x04, 0xb8, 0xba, 0xb3, 0xf0, 0x13, 0x3d, 0x3b, 0xdc, 0xd5, 0x3d,
 0x77, 0x64, 0xb5, 0x3e, 0x79, 0x65, 0xf2, 0xbd, 0x4c, 0x4d, 0x7d, 0xbd,
 0xd1, 0xc6, 0x56, 0x3d, 0x03, 0x20, 0x2a, 0x3e, 0x1f, 0x2d, 0x2b, 0x3e,
 0x51, 0x05, 0x50, 0xbd, 0x80, 0x4b, 0x8f, 0x3e, 0x76, 0xfb, 0x9a, 0xbe,
 0x39, 0x4e, 0x8a, 0x3e, 0xda, 0x6a, 0x73, 0x3d, 0x2c, 0xd0, 0x07, 0x3e,
 0x6a, 0x46, 0x6f, 0xbe, 0xda, 0xb5, 0xa0, 0xbc, 0x4f, 0xe2, 0x06, 0x3c,
 0x58, 0x4e, 0x33, 0x3e, 0x88, 0x2b, 0x64, 0x3c, 0x4e, 0x8a, 0x81, 0x3e,
 0x2e, 0x85, 0x4c, 0x3e, 0xb0, 0x8a, 0x85, 0x3e, 0x28, 0x84, 0x9f, 0x3e,
 0xc8, 0x73, 0x8a, 0x3e, 0xdb, 0xd7, 0x7b, 0x3b, 0x49, 0x7c, 0x10, 0x3e,
 0xa5, 0x9c, 0x2d, 0x3e, 0xe1, 0xbc, 0x3a, 0xbe, 0x38, 0xc8, 0xb3, 0x3d,
 0xc0, 0x27, 0x6a, 0xbe, 0x71, 0x7d, 0xcc, 0x3d, 0x0d, 0x75, 0x7a, 0x3d,
 0x3a, 0x8f, 0x40, 0xbe, 0xd7, 0x1b, 0xc8, 0x3d, 0xcd, 0xd5, 0x09, 0x3e,
 0x2b, 0xa7, 0xf7, 0xbd, 0xe8, 0xa2, 0xb4, 0xbd, 0x76, 0x9c, 0x93, 0xbc,
 0xcd, 0xc3, 0xc6, 0x3d, 0x53, 0x23, 0x51, 0xbc, 0xf7, 0x62, 0x30, 0x3e,
 0xff, 0x6b, 0xd5, 0xbd, 0xb6, 0x5d, 0x36, 0x3e, 0x4a, 0x70, 0xff, 0xbd,
 0x2a, 0x29, 0xd3, 0xbd, 0x2f, 0xe5, 0xc0, 0x3c, 0x49, 0xf0, 0x77, 0x3e,
 0x6b, 0xb6, 0x24, 0x3e, 0xc9, 0xf0, 0xc6, 0x3d, 0x21, 0x20, 0xb5, 0xbd,
 0xcc, 0x42, 0xc5, 0x3c, 0x1b, 0x31, 0xb3, 0xbd, 0xee, 0x6d, 0x87, 0xbe,
 0xaa, 0x05, 0x9c, 0xbd, 0x0f, 0xa5, 0xab, 0xbd, 0x6d, 0x18, 0xa6, 0x3e,
 0x2c, 0x64, 0x8a, 0xbe, 0x21, 0x07, 0xbf, 0xbd, 0x50, 0x17, 0xab, 0x3c,
 0xcc, 0x21, 0x64, 0x3e, 0x04, 0x22, 0x68, 0x3d, 0xa5, 0x07, 0x91, 0x3e,
 0xd0, 0x88, 0xfa, 0xbd, 0x6d, 0xe8, 0x3a, 0xbe, 0xca, 0xe1, 0x8e, 0x3e,
 0x38, 0x77, 0xcb, 0xbc, 0xb3, 0xd6, 0x79, 0xbe, 0xce, 0x51, 0xa2, 0x3d,
 0x17, 0x36, 0x5d, 0xbc, 0x2b, 0xfa, 0xd5, 0x3d, 0x49, 0x77, 0x73, 0xbe,
 0x08, 0xd0, 0xa7, 0xbd, 0x1e, 0x55, 0x65, 0x3e, 0xc5, 0xff, 0x8a, 0x3e,
 0x90, 0x66, 0x35, 0xbe, 0xc7, 0xa3, 0x94, 0xbc, 0x52, 0xff, 0xff, 0xff,
 0x04, 0x00, 0x00, 0x00, 0xa0, 0x00, 0x00, 0x00, 0x90, 0x6b, 0xf2, 0x3d,
 0xa1, 0xde, 0x06, 0xbe, 0xd7, 0xec, 0xe1, 0x3d, 0x65, 0xd0, 0xec, 0x3d,
 0x55, 0xc1, 0x9a, 0x3b, 0x74, 0x05, 0x6d, 0xbe, 0x27, 0xb2, 0x14, 0xbe,
 0xac, 0xca, 0xa0, 0x3e, 0x64, 0xda, 0x1c, 0xbe, 0x00, 0x00, 0x00, 0x00,
 0x22, 0x52, 0xb6, 0x3d, 0xac, 0xfb, 0x1b, 0xbe, 0x4c, 0x81, 0x1f, 0x3e,
 0x00, 0x00, 0x00, 0x00, 0xba, 0x58, 0x39, 0xbb, 0x35, 0xb0, 0x1b, 0xbe,
 0x94, 0x6d, 0x1a, 0xbe, 0x00, 0x00, 0x00, 0x00, 0xe1, 0xe9, 0xaa, 0x3d,
 0x9b, 0x0b, 0x19, 0xbe, 0xf8, 0xb6, 0x1d, 0xbe, 0x25, 0x59, 0x9b, 0xbc,
 0xa6, 0xc3, 0xf5, 0x3d, 0x00, 0x00, 0x00, 0x00, 0xe0, 0x25, 0x5a, 0xbe,
 0xe4, 0x28, 0x3b, 0xbc, 0x3e, 0xba, 0xee, 0x3d, 0x6e, 0xe3, 0x8e, 0xbd,
 0xb9, 0x25, 0x63, 0xbd, 0x2c, 0x50, 0x16, 0xbe, 0xc2, 0x6f, 0x03, 0xbd,
 0x00, 0x00, 0x00, 0x00, 0xbd, 0x77, 0x1c, 0xbe, 0xd6, 0x7d, 0xe8, 0x3d,
 0xac, 0xf7, 0x44, 0x3e, 0x00, 0x00, 0x00, 0x00, 0x3d, 0x91, 0x16, 0x3e,
 0xad, 0xa8, 0x5c, 0xbc, 0x19, 0x39, 0xae, 0x3d, 0x0d, 0xac, 0x00, 0x3e,
 0x00, 0x00, 0x06, 0x00, 0x08, 0x00, 0x04, 0x00, 0x06, 0x00, 0x00, 0x00,
 0x04, 0x00, 0x00, 0x00, 0x04, 0x00, 0x00, 0x00, 0x62, 0xe9, 0x08, 0x3e,
 0xe4, 0xfb, 0xff, 0xff, 0xe8, 0xfb, 0xff, 0xff, 0x0f, 0x00, 0x00, 0x00,
 0x4d, 0x4c, 0x49, 0x52, 0x20, 0x43, 0x6f, 0x6e, 0x76, 0x65, 0x72, 0x74,
 0x65, 0x64, 0x2e, 0x00, 0x01, 0x00, 0x00, 0x00, 0x14, 0x00, 0x00, 0x00,
 0x00, 0x00, 0x0e, 0x00, 0x18, 0x00, 0x14, 0x00, 0x10, 0x00, 0x0c, 0x00,
 0x08, 0x00, 0x04, 0x00, 0x0e, 0x00, 0x00, 0x00, 0x14, 0x00, 0x00, 0x00,
 0x1c, 0x00, 0x00, 0x00, 0xd0, 0x00, 0x00, 0x00, 0xd4, 0x00, 0x00, 0x00,
 0xd8, 0x00, 0x00, 0x00, 0x04, 0x00, 0x00, 0x00, 0x6d, 0x61, 0x69, 0x6e,
 0x00, 0x00, 0x00, 0x00, 0x03, 0x00, 0x00, 0x00, 0x78, 0x00, 0x00, 0x00,
 0x34, 0x00, 0x00, 0x00, 0x10, 0x00, 0x00, 0x00, 0x00, 0x00, 0x0a, 0x00,
 0x10, 0x00, 0x0c, 0x00, 0x08, 0x00, 0x04, 0x00, 0x0a, 0x00, 0x00, 0x00,
 0x0c, 0x00, 0x00, 0x00, 0x10, 0x00, 0x00, 0x00, 0x01, 0x00, 0x00, 0x00,
 0x01, 0x00, 0x00, 0x00, 0x07, 0x00, 0x00, 0x00, 0x01, 0x00, 0x00, 0x00,
 0x06, 0x00, 0x00, 0x00, 0xce, 0xff, 0xff, 0xff, 0x10, 0x00, 0x00, 0x00,
 0x00, 0x00, 0x00, 0x08, 0x0c, 0x00, 0x00, 0x00, 0x10, 0x00, 0x00, 0x00,
 0x8c, 0xfc, 0xff, 0xff, 0x01, 0x00, 0x00, 0x00, 0x06, 0x00, 0x00, 0x00,
 0x03, 0x00, 0x00, 0x00, 0x05, 0x00, 0x00, 0x00, 0x04, 0x00, 0x00, 0x00,
 0x01, 0x00, 0x00, 0x00, 0x00, 0x00, 0x0e, 0x00, 0x16, 0x00, 0x00, 0x00,
 0x10, 0x00, 0x0c, 0x00, 0x0b, 0x00, 0x04, 0x00, 0x0e, 0x00, 0x00, 0x00,
 0x18, 0x00, 0x00, 0x00, 0x00, 0x00, 0x00, 0x08, 0x18, 0x00, 0x00, 0x00,
 0x1c, 0x00, 0x00, 0x00, 0x00, 0x00, 0x06, 0x00, 0x08, 0x00, 0x07, 0x00,
 0x06, 0x00, 0x00, 0x00, 0x00, 0x00, 0x00, 0x01, 0x01, 0x00, 0x00, 0x00,
 0x05, 0x00, 0x00, 0x00, 0x03, 0x00, 0x00, 0x00, 0x00, 0x00, 0x00, 0x00,
 0x03, 0x00, 0x00, 0x00, 0x02, 0x00, 0x00, 0x00, 0x01, 0x00, 0x00, 0x00,
 0x07, 0x00, 0x00, 0x00, 0x01, 0x00, 0x00, 0x00, 0x00, 0x00, 0x00, 0x00,
 0x08, 0x00, 0x00, 0x00, 0xd0, 0x02, 0x00, 0x00, 0x60, 0x02, 0x00, 0x00,
 0xf4, 0x01, 0x00, 0x00, 0xac, 0x01, 0x00, 0x00, 0x60, 0x01, 0x00, 0x00,
 0xd8, 0x00, 0x00, 0x00, 0x60, 0x00, 0x00, 0x00, 0x04, 0x00, 0x00, 0x00,
 0x66, 0xfd, 0xff, 0xff, 0x00, 0x00, 0x00, 0x01, 0x14, 0x00, 0x00, 0x00,
 0x1c, 0x00, 0x00, 0x00, 0x1c, 0x00, 0x00, 0x00, 0x08, 0x00, 0x00, 0x00,
 0x34, 0x00, 0x00, 0x00, 0x02, 0x00, 0x00, 0x00, 0xff, 0xff, 0xff, 0xff,
 0x01, 0x00, 0x00, 0x00, 0x50, 0xfd, 0xff, 0xff, 0x19, 0x00, 0x00, 0x00,
 0x53, 0x74, 0x61, 0x74, 0x65, 0x66, 0x75, 0x6c, 0x50, 0x61, 0x72, 0x74,
 0x69, 0x74, 0x69, 0x6f, 0x6e, 0x65, 0x64, 0x43, 0x61, 0x6c, 0x6c, 0x3a,
 0x30, 0x00, 0x00, 0x00, 0x02, 0x00, 0x00, 0x00, 0x01, 0x00, 0x00, 0x00,
 0x01, 0x00, 0x00, 0x00, 0xbe, 0xfd, 0xff, 0xff, 0x00, 0x00, 0x00, 0x01,
 0x14, 0x00, 0x00, 0x00, 0x1c, 0x00, 0x00, 0x00, 0x1c, 0x00, 0x00, 0x00,
 0x07, 0x00, 0x00, 0x00, 0x50, 0x00, 0x00, 0x00, 0x02, 0x00, 0x00, 0x00,
 0xff, 0xff, 0xff, 0xff, 0x01, 0x00, 0x00, 0x00, 0xa8, 0xfd, 0xff, 0xff,
 0x34, 0x00, 0x00, 0x00, 0x73, 0x65, 0x71, 0x75, 0x65, 0x6e, 0x74, 0x69,
 0x61, 0x6c, 0x2f, 0x64, 0x65, 0x6e, 0x73, 0x65, 0x5f, 0x31, 0x2f, 0x4d,
 0x61, 0x74, 0x4d, 0x75, 0x6c, 0x3b, 0x73, 0x65, 0x71, 0x75, 0x65, 0x6e,
 0x74, 0x69, 0x61, 0x6c, 0x2f, 0x64, 0x65, 0x6e, 0x73, 0x65, 0x5f, 0x31,
 0x2f, 0x42, 0x69, 0x61, 0x73, 0x41, 0x64, 0x64, 0x00, 0x00, 0x00, 0x00,
 0x02, 0x00, 0x00, 0x00, 0x01, 0x00, 0x00, 0x00, 0x01, 0x00, 0x00, 0x00,
 0x32, 0xfe, 0xff, 0xff, 0x00, 0x00, 0x00, 0x01, 0x14, 0x00, 0x00, 0x00,
 0x1c, 0x00, 0x00, 0x00, 0x1c, 0x00, 0x00, 0x00, 0x06, 0x00, 0x00, 0x00,
 0x60, 0x00, 0x00, 0x00, 0x02, 0x00, 0x00, 0x00, 0xff, 0xff, 0xff, 0xff,
 0x28, 0x00, 0x00, 0x00, 0x1c, 0xfe, 0xff, 0xff, 0x46, 0x00, 0x00, 0x00,
 0x73, 0x65, 0x71, 0x75, 0x65, 0x6e, 0x74, 0x69, 0x61, 0x6c, 0x2f, 0x64,
 0x65, 0x6e, 0x73, 0x65, 0x2f, 0x4d, 0x61, 0x74, 0x4d, 0x75, 0x6c, 0x3b,
 0x73, 0x65, 0x71, 0x75, 0x65, 0x6e, 0x74, 0x69, 0x61, 0x6c, 0x2f, 0x64,
 0x65, 0x6e, 0x73, 0x65, 0x2f, 0x52, 0x65, 0x6c, 0x75, 0x3b, 0x73, 0x65,
 0x71, 0x75, 0x65, 0x6e, 0x74, 0x69, 0x61, 0x6c, 0x2f, 0x64, 0x65, 0x6e,
 0x73, 0x65, 0x2f, 0x42, 0x69, 0x61, 0x73, 0x41, 0x64, 0x64, 0x00, 0x00,
 0x02, 0x00, 0x00, 0x00, 0x01, 0x00, 0x00, 0x00, 0x28, 0x00, 0x00, 0x00,
 0x22, 0xff, 0xff, 0xff, 0x00, 0x00, 0x00, 0x01, 0x10, 0x00, 0x00, 0x00,
 0x10, 0x00, 0x00, 0x00, 0x05, 0x00, 0x00, 0x00, 0x28, 0x00, 0x00, 0x00,
 0x90, 0xfe, 0xff, 0xff, 0x19, 0x00, 0x00, 0x00, 0x73, 0x65, 0x71, 0x75,
 0x65, 0x6e, 0x74, 0x69, 0x61, 0x6c, 0x2f, 0x64, 0x65, 0x6e, 0x73, 0x65,
 0x5f, 0x31, 0x2f, 0x4d, 0x61, 0x74, 0x4d, 0x75, 0x6c, 0x00, 0x00, 0x00,
 0x02, 0x00, 0x00, 0x00, 0x01, 0x00, 0x00, 0x00, 0x28, 0x00, 0x00, 0x00,
 0x6a, 0xff, 0xff, 0xff, 0x00, 0x00, 0x00, 0x01, 0x10, 0x00, 0x00, 0x00,
 0x10, 0x00, 0x00, 0x00, 0x04, 0x00, 0x00, 0x00, 0x24, 0x00, 0x00, 0x00,
 0xd8, 0xfe, 0xff, 0xff, 0x17, 0x00, 0x00, 0x00, 0x73, 0x65, 0x71, 0x75,
 0x65, 0x6e, 0x74, 0x69, 0x61, 0x6c, 0x2f, 0x64, 0x65, 0x6e, 0x73, 0x65,
 0x2f, 0x4d, 0x61, 0x74, 0x4d, 0x75, 0x6c, 0x00, 0x02, 0x00, 0x00, 0x00,
 0x28, 0x00, 0x00, 0x00, 0x28, 0x00, 0x00, 0x00, 0xae, 0xff, 0xff, 0xff,
 0x00, 0x00, 0x00, 0x01, 0x10, 0x00, 0x00, 0x00, 0x10, 0x00, 0x00, 0x00,
 0x03, 0x00, 0x00, 0x00, 0x34, 0x00, 0x00, 0x00, 0x1c, 0xff, 0xff, 0xff,
 0x27, 0x00, 0x00, 0x00, 0x73, 0x65, 0x71, 0x75, 0x65, 0x6e, 0x74, 0x69,
 0x61, 0x6c, 0x2f, 0x64, 0x65, 0x6e, 0x73, 0x65, 0x2f, 0x42, 0x69, 0x61,
 0x73, 0x41, 0x64, 0x64, 0x2f, 0x52, 0x65, 0x61, 0x64, 0x56, 0x61, 0x72,
 0x69, 0x61, 0x62, 0x6c, 0x65, 0x4f, 0x70, 0x00, 0x01, 0x00, 0x00, 0x00,
 0x28, 0x00, 0x00, 0x00, 0x00, 0x00, 0x16, 0x00, 0x18, 0x00, 0x14, 0x00,
 0x00, 0x00, 0x10, 0x00, 0x0c, 0x00, 0x08, 0x00, 0x00, 0x00, 0x00, 0x00,
 0x00, 0x00, 0x07, 0x00, 0x16, 0x00, 0x00, 0x00, 0x00, 0x00, 0x00, 0x01,
 0x10, 0x00, 0x00, 0x00, 0x10, 0x00, 0x00, 0x00, 0x02, 0x00, 0x00, 0x00,
 0x38, 0x00, 0x00, 0x00, 0x84, 0xff, 0xff, 0xff, 0x29, 0x00, 0x00, 0x00,
 0x73, 0x65, 0x71, 0x75, 0x65, 0x6e, 0x74, 0x69, 0x61, 0x6c, 0x2f, 0x64,
 0x65, 0x6e, 0x73, 0x65, 0x5f, 0x31, 0x2f, 0x42, 0x69, 0x61, 0x73, 0x41,
 0x64, 0x64, 0x2f, 0x52, 0x65, 0x61, 0x64, 0x56, 0x61, 0x72, 0x69, 0x61,
 0x62, 0x6c, 0x65, 0x4f, 0x70, 0x00, 0x00, 0x00, 0x01, 0x00, 0x00, 0x00,
 0x01, 0x00, 0x00, 0x00, 0x00, 0x00, 0x16, 0x00, 0x1c, 0x00, 0x18, 0x00,
 0x00, 0x00, 0x14, 0x00, 0x10, 0x00, 0x0c, 0x00, 0x00, 0x00, 0x00, 0x00,
 0x08, 0x00, 0x07, 0x00, 0x16, 0x00, 0x00, 0x00, 0x00, 0x00, 0x00, 0x01,
 0x14, 0x00, 0x00, 0x00, 0x20, 0x00, 0x00, 0x00, 0x20, 0x00, 0x00, 0x00,
 0x01, 0x00, 0x00, 0x00, 0x3c, 0x00, 0x00, 0x00, 0x02, 0x00, 0x00, 0x00,
 0xff, 0xff, 0xff, 0xff, 0x28, 0x00, 0x00, 0x00, 0x04, 0x00, 0x04, 0x00,
 0x04, 0x00, 0x00, 0x00, 0x1d, 0x00, 0x00, 0x00, 0x73, 0x65, 0x72, 0x76,
 0x69, 0x6e, 0x67, 0x5f, 0x64, 0x65, 0x66, 0x61, 0x75, 0x6c, 0x74, 0x5f,
 0x64, 0x65, 0x6e, 0x73, 0x65, 0x5f, 0x69, 0x6e, 0x70, 0x75, 0x74, 0x3a,
 0x30, 0x00, 0x00, 0x00, 0x02, 0x00, 0x00, 0x00, 0x01, 0x00, 0x00, 0x00,
 0x28, 0x00, 0x00, 0x00, 0x02, 0x00, 0x00, 0x00, 0x20, 0x00, 0x00, 0x00,
 0x04, 0x00, 0x00, 0x00, 0xf4, 0xff, 0xff, 0xff, 0x0e, 0x00, 0x00, 0x00,
 0x00, 0x00, 0x00, 0x0e, 0x0c, 0x00, 0x0c, 0x00, 0x0b, 0x00, 0x00, 0x00,
 0x00, 0x00, 0x04, 0x00, 0x0c, 0x00, 0x00, 0x00, 0x09, 0x00, 0x00, 0x00,
 0x00, 0x00, 0x00, 0x09
};

#endif //TINYML_MODEL_H