#ifndef TINYML_MODEL_H
#define TINYML_MODEL_H


unsigned int tinyml_model_len = 8380;
unsigned char tinyml_model[] = {
0x1c, 0x00, 0x00, 0x00, 0x54, 0x46, 0x4c, 0x33, 0x14, 0x00, 0x20, 0x00,
 0x1c, 0x00, 0x18, 0x00, 0x14, 0x00, 0x10, 0x00, 0x0c, 0x00, 0x00, 0x00,
 0x08, 0x00, 0x04, 0x00, 0x14, 0x00, 0x00, 0x00, 0x1c, 0x00, 0x00, 0x00,
 0x84, 0x00, 0x00, 0x00, 0xdc, 0x00, 0x00, 0x00, 0x14, 0x1c, 0x00, 0x00,
 0x24, 0x1c, 0x00, 0x00, 0x58, 0x20, 0x00, 0x00, 0x03, 0x00, 0x00, 0x00,
 0x01, 0x00, 0x00, 0x00, 0x04, 0x00, 0x00, 0x00, 0xa2, 0xe3, 0xff, 0xff,
 0x0c, 0x00, 0x00, 0x00, 0x1c, 0x00, 0x00, 0x00, 0x38, 0x00, 0x00, 0x00,
 0x0f, 0x00, 0x00, 0x00, 0x73, 0x65, 0x72, 0x76, 0x69, 0x6e, 0x67, 0x5f,
 0x64, 0x65, 0x66, 0x61, 0x75, 0x6c, 0x74, 0x00, 0x01, 0x00, 0x00, 0x00,
 0x04, 0x00, 0x00, 0x00, 0x98, 0xff, 0xff, 0xff, 0x07, 0x00, 0x00, 0x00,
 0x04, 0x00, 0x00, 0x00, 0x07, 0x00, 0x00, 0x00, 0x64, 0x65, 0x6e, 0x73,
 0x65, 0x5f, 0x31, 0x00, 0x01, 0x00, 0x00, 0x00, 0x04, 0x00, 0x00, 0x00,
 0x6e, 0xe4, 0xff, 0xff, 0x04, 0x00, 0x00, 0x00, 0x0b, 0x00, 0x00, 0x00,
 0x64, 0x65, 0x6e, 0x73, 0x65, 0x5f, 0x69, 0x6e, 0x70, 0x75, 0x74, 0x00,
 0x02, 0x00, 0x00, 0x00, 0x34, 0x00, 0x00, 0x00, 0x04, 0x00, 0x00, 0x00,
 0xdc, 0xff, 0xff, 0xff, 0x0a, 0x00, 0x00, 0x00, 0x04, 0x00, 0x00, 0x00,
 0x13, 0x00, 0x00, 0x00, 0x43, 0x4f, 0x4e, 0x56, 0x45, 0x52, 0x53, 0x49,
 0x4f, 0x4e, 0x5f, 0x4d, 0x45, 0x54, 0x41, 0x44, 0x41, 0x54, 0x41, 0x00,
 0x08, 0x00, 0x0c, 0x00, 0x08, 0x00, 0x04, 0x00, 0x08, 0x00, 0x00, 0x00,
 0x09, 0x00, 0x00, 0x00, 0x04, 0x00, 0x00, 0x00, 0x13, 0x00, 0x00, 0x00,
 0x6d, 0x69, 0x6e, 0x5f, 0x72, 0x75, 0x6e, 0x74, 0x69, 0x6d, 0x65, 0x5f,
 0x76, 0x65, 0x72, 0x73, 0x69, 0x6f, 0x6e, 0x00, 0x0b, 0x00, 0x00, 0x00,
 0x34, 0x1b, 0x00, 0x00, 0x2c, 0x1b, 0x00, 0x00, 0x18, 0x1b, 0x00, 0x00,
 0x60, 0x1a, 0x00, 0x00, 0x50, 0x01, 0x00, 0x00, 0xa0, 0x00, 0x00, 0x00,
 0x98, 0x00, 0x00, 0x00, 0x90, 0x00, 0x00, 0x00, 0x88, 0x00, 0x00, 0x00,
 0x68, 0x00, 0x00, 0x00, 0x04, 0x00, 0x00, 0x00, 0x12, 0xe5, 0xff, 0xff,
 0x04, 0x00, 0x00, 0x00, 0x54, 0x00, 0x00, 0x00, 0x0c, 0x00, 0x00, 0x00,
 0x08, 0x00, 0x0e, 0x00, 0x08, 0x00, 0x04, 0x00, 0x08, 0x00, 0x00, 0x00,
 0x10, 0x00, 0x00, 0x00, 0x24, 0x00, 0x00, 0x00, 0x00, 0x00, 0x06, 0x00,
 0x08, 0x00, 0x04, 0x00, 0x06, 0x00, 0x00, 0x00, 0x04, 0x00, 0x00, 0x00,
 0x00, 0x00, 0x00, 0x00, 0x00, 0x00, 0x0a, 0x00, 0x10, 0x00, 0x0c, 0x00,
 0x08, 0x00, 0x04, 0x00, 0x0a, 0x00, 0x00, 0x00, 0x02, 0x00, 0x00, 0x00,
 0x02, 0x00, 0x00, 0x00, 0x04, 0x00, 0x00, 0x00, 0x06, 0x00, 0x00, 0x00,
 0x32, 0x2e, 0x31, 0x35, 0x2e, 0x30, 0x00, 0x00, 0x72, 0xe5, 0xff, 0xff,
 0x04, 0x00, 0x00, 0x00, 0x10, 0x00, 0x00, 0x00, 0x31, 0x2e, 0x31, 0x34,
 0x2e, 0x30, 0x00, 0x00, 0x00, 0x00, 0x00, 0x00, 0x00, 0x00, 0x00, 0x00,
 0x5c, 0xe1, 0xff, 0xff, 0x60, 0xe1, 0xff, 0xff, 0x64, 0xe1, 0xff, 0xff,
 0x9a, 0xe5, 0xff, 0xff, 0x04, 0x00, 0x00, 0x00, 0xa0, 0x00, 0x00, 0x00,
 0xa7, 0xe8, 0x2f, 0x3d, 0x1b, 0x7d, 0x5d, 0xbb, 0x38, 0x29, 0x8d, 0x3e,
 0x05, 0x40, 0x48, 0xbe, 0x22, 0x17, 0x2f, 0xbe, 0xfe, 0xbb, 0x4a, 0x3e,
 0xf8, 0xb8, 0x9d, 0x3e, 0xcd, 0xb0, 0xa4, 0xbe, 0x55, 0xb9, 0x6e, 0xbe,
 0x80, 0x3b, 0xd4, 0x3e, 0xda, 0xf1, 0x80, 0x3e, 0xa5, 0xc8, 0x39, 0xbd,
 0x1b, 0x80, 0x15, 0xbf, 0x7f, 0x56, 0xb5, 0xbd, 0x01, 0x9e, 0xa6, 0x3e,
 0x98, 0x09, 0xa2, 0xbe, 0xe9, 0x2d, 0x80, 0x3e, 0x80, 0x16, 0x80, 0xbc,
 0xc3, 0xaa, 0x95, 0xbd, 0x9d, 0x5a, 0x8f, 0xbe, 0x60, 0x17, 0xa4, 0xbc,
 0x24, 0x82, 0x5a, 0xbe, 0x8c, 0x47, 0x33, 0x3f, 0xf0, 0x42, 0xc3, 0xbe,
 0x4f, 0xb9, 0x74, 0xbe, 0x44, 0xce, 0x10, 0xbe, 0xa0, 0xd9, 0x5f, 0x3d,
 0xbc, 0x01, 0xc8, 0x3d, 0x6a, 0x9f, 0x79, 0xbd, 0xa8, 0xe0, 0x2f, 0xbe,
 0xa6, 0xb5, 0x27, 0xbe, 0xeb, 0xba, 0x0d, 0xbe, 0x38, 0x40, 0x4d, 0xbd,
 0x02, 0x97, 0xd1, 0x3c, 0x6e, 0xa6, 0x05, 0xbe, 0xcb, 0x16, 0x4c, 0xbf,
 0x00, 0x03, 0x1f, 0xbe, 0x60, 0x81, 0x21, 0xbf, 0x2f, 0x94, 0x62, 0xbe,
 0xbf, 0x22, 0x66, 0x3e, 0x46, 0xe6, 0xff, 0xff, 0x04, 0x00, 0x00, 0x00,
 0x00, 0x19, 0x00, 0x00, 0xae, 0xab, 0xd6, 0xbc, 0x49, 0x72, 0x24, 0xbd,
 0x59, 0xa2, 0xa9, 0x3d, 0x7c, 0x8d, 0xb9, 0xbe, 0xc2, 0xe8, 0x26, 0x3c,
 0x93, 0x8a, 0x6a, 0xbe, 0x82, 0x68, 0x61, 0xbe, 0xfe, 0x77, 0x9b, 0xbe,
 0x87, 0xfa, 0xbc, 0xbd, 0x45, 0x56, 0x17, 0xbe, 0x23, 0x1e, 0x3c, 0x3e,
 0x45, 0x55, 0x1f, 0x3e, 0x15, 0x83, 0x95, 0xbe, 0x38, 0xa5, 0xa8, 0x3d,
 0x04, 0xf6, 0x6c, 0xbd, 0x54, 0x2c, 0x2d, 0x3e, 0xce, 0xab, 0xa5, 0x3e,
 0xa1, 0xdf, 0x2c, 0x3e, 0xe8, 0x12, 0x1b, 0xbe, 0x6f, 0x00, 0x14, 0x3e,
 0x3b, 0x3f, 0xfc, 0x3e, 0x49, 0x79, 0x18, 0x3e, 0xac, 0x61, 0xe0, 0x3e,
 0x50, 0xa1, 0x70, 0x3e, 0x1a, 0x62, 0x53, 0x3e, 0x55, 0x0b, 0x19, 0x3e,
 0xcb, 0x7f, 0xc0, 0x3e, 0x94, 0x8b, 0xd5, 0x3d, 0x68, 0x62, 0xa4, 0xbe,
 0x41, 0x38, 0x17, 0x3e, 0x02, 0x85, 0xc1, 0x3d, 0x1b, 0x3c, 0xf3, 0x3e,
 0x57, 0xc5, 0xf6, 0x3d, 0xb0, 0x11, 0x72, 0x3e, 0xae, 0x29, 0x9b, 0x3e,
 0x4a, 0xed, 0xde, 0x3e, 0x95, 0x95, 0x90, 0x3e, 0xe8, 0x92, 0xa0, 0x3e,
 0x7c, 0x46, 0x4e, 0x3e, 0xe2, 0xf6, 0x9e, 0x3e, 0x4a, 0x80, 0xe6, 0xbb,
 0xfa, 0x73, 0x2b, 0x3c, 0x76, 0x59, 0x12, 0xbe, 0x14, 0x12, 0x06, 0x3d,
 0xd9, 0xae, 0xd2, 0xbc, 0x12, 0xa7, 0x23, 0xbd, 0x73, 0xf4, 0x4a, 0x3c,
 0x3e, 0xbb, 0x1a, 0x3e, 0x4d, 0xe6, 0xfa, 0x3d, 0xe2, 0xa3, 0x0a, 0xbe,
 0x5e, 0xca, 0x4f, 0x3e, 0x6b, 0x96, 0x33, 0x3d, 0x4e, 0x0d, 0x07, 0x3e,
 0x60, 0x19, 0x7a, 0xbd, 0xaa, 0x8f, 0xa3, 0xbc, 0x5b, 0x89, 0xdc, 0xbd,
 0x83, 0x81, 0x59, 0xbd, 0x62, 0x24, 0x1e, 0xbe, 0xb3, 0x97, 0x20, 0x3c,
 0x08, 0xd9, 0x6c, 0x3e, 0x48, 0xfe, 0xee, 0x3b, 0x4a, 0xda, 0x77, 0xbe,
 0x64, 0x77, 0x36, 0x3e, 0xe7, 0x88, 0xb1, 0xbc, 0xdd, 0x1a, 0x2e, 0x3e,
 0x09, 0x74, 0x22, 0x3c, 0x6d, 0x56, 0x37, 0xbc, 0xd8, 0x05, 0xdb, 0xbd,
 0x19, 0x7c, 0x82, 0x3d, 0x4b, 0xf1, 0x2a, 0xbd, 0x92, 0x4c, 0x7d, 0x3d,
 0xd9, 0x9b, 0x0f, 0x3e, 0x39, 0xde, 0x7f, 0xbe, 0x90, 0xfa, 0x47, 0x3e,
 0x51, 0x73, 0x4d, 0x3e, 0xb3, 0xca, 0xc9, 0x3d, 0x79, 0x47, 0x2b, 0x3e,
 0xd5, 0x1f, 0x7b, 0xbd, 0xc8, 0xfe, 0x98, 0x3b, 0xf2, 0x8d, 0x25, 0xbd,
 0x42, 0x68, 0x4a, 0xbe, 0x5e, 0x06, 0xa2, 0x3d, 0x20, 0x21, 0x2e, 0x3e,
 0xfb, 0xd8, 0x92, 0x3e, 0x41, 0x49, 0xc0, 0x3d, 0x60, 0xea, 0xcd, 0xbc,
 0x98, 0x76, 0xc2, 0xbd, 0xe4, 0x7e, 0x8e, 0xbd, 0xae, 0x33, 0x48, 0x3d,
 0x9d, 0x5b, 0xcd, 0x3c, 0xb4, 0x17, 0x92, 0x3b, 0x54, 0x70, 0xa3, 0x3e,
 0xc9, 0x1c, 0x41, 0xbe, 0x6e, 0x17, 0x2c, 0xbe, 0x73, 0x2b, 0x31, 0x3d,
 0x0b, 0x5c, 0x75, 0xbe, 0xa3, 0x80, 0xa0, 0x3e, 0x29, 0x4c, 0x88, 0xbd,
 0x57, 0x5c, 0x4a, 0xbe, 0xaa, 0xc5, 0x2a, 0x3d, 0x1f, 0x68, 0xe8, 0x3d,
 0x63, 0x3f, 0xcb, 0x3d, 0xb3, 0xe2, 0x89, 0x3d, 0x97, 0x0c, 0x74, 0xbe,
 0x90, 0x83, 0x63, 0xbe, 0x08, 0xe7, 0x92, 0x3e, 0x42, 0x1a, 0x6f, 0xbe,
 0xce, 0x10, 0x96, 0xbd, 0x6b, 0x10, 0xb0, 0xb9, 0x8c, 0xf9, 0xf3, 0xbd,
 0x20, 0xdd, 0xfb, 0x3d, 0x26, 0x89, 0x1a, 0x3e, 0x11, 0xa7, 0xc6, 0x3c,
 0xdf, 0xdf, 0x64, 0xbe, 0x18, 0x0b, 0xc1, 0xbd, 0x65, 0x0f, 0xdc, 0x3d,
 0x29, 0x4d, 0x7b, 0xbe, 0x1b, 0xc8, 0x10, 0x3e, 0x89, 0x25, 0xac, 0xbe,
 0xf8, 0x9b, 0x38, 0xbd, 0x63, 0xbb, 0xed, 0x3b, 0x4e, 0xd0, 0xbc, 0x3c,
 0xfb, 0x4d, 0x06, 0x3e, 0x50, 0x27, 0xf6, 0x3d, 0xf7, 0x16, 0x14, 0x3d,
 0xd0, 0xa2, 0xe3, 0xbd, 0xfb, 0xf4, 0xf4, 0xbb, 0xce, 0x41, 0x50, 0x3e,
 0xad, 0xfe, 0x75, 0x3d, 0x3b, 0xb2, 0x01, 0xbf, 0x39, 0xf4, 0x0f, 0xbf,
 0x0e, 0x72, 0xbf, 0xbd, 0x6a, 0x8e, 0x38, 0x3e, 0x57, 0xb0, 0x1d, 0x3e,
 0x69, 0x42, 0x88, 0xbe, 0xcc, 0x99, 0x51, 0x3e, 0xe8, 0x48, 0x43, 0x3f,
 0x7f, 0xdf, 0x9b, 0x3e, 0xdd, 0x00, 0xd6, 0xbe, 0xef, 0x14, 0x86, 0x3f,
 0xbb, 0x1e, 0xb1, 0x3e, 0x73, 0xe0, 0x16, 0xbf, 0x15, 0xa8, 0x65, 0x3e,
 0xbd, 0x5f, 0xa9, 0x3d, 0x0a, 0x35, 0x36, 0x3e, 0x00, 0x87, 0x67, 0x3e,
 0xba, 0x61, 0xbd, 0xbe, 0x10, 0x98, 0x96, 0x3e, 0xf5, 0xbc, 0xf1, 0xbe,
 0x60, 0xf7, 0x21, 0x3f, 0x5e, 0x1c, 0xeb, 0x3e, 0x77, 0x4c, 0xb9, 0xbe,
 0x04, 0x9f, 0xf6, 0x3e, 0x14, 0xf7, 0x21, 0xbe, 0xaf, 0xe0, 0x63, 0xbd,
 0x33, 0xf0, 0xa7, 0xbe, 0x00, 0x49, 0x2e, 0x3e, 0x93, 0xb5, 0x0c, 0x3e,
 0xe7, 0x4e, 0x9e, 0xbe, 0x12, 0x5b, 0xa8, 0xbe, 0x73, 0xd2, 0xd2, 0xbb,
 0x60, 0xdc, 0xb9, 0xbb, 0x79, 0x87, 0x2b, 0xbd, 0x76, 0xef, 0xbe, 0x3d,
 0x1e, 0xc6, 0xf5, 0xbe, 0x57, 0x14, 0xe5, 0xbe, 0xee, 0x24, 0x85, 0x3e,
 0x76, 0x88, 0x53, 0x3f, 0x00, 0x3b, 0x07, 0x3e, 0x0d, 0xb4, 0xcf, 0xbe,
 0xa8, 0x14, 0xe6, 0x3c, 0x60, 0x9a, 0xc0, 0x3e, 0x79, 0x64, 0x88, 0x3b,
 0x80, 0x7b, 0x3e, 0xbe, 0xee, 0x1b, 0x12, 0xbe, 0x8c, 0x35, 0x1c, 0xbe,
 0x75, 0xb2, 0xfa, 0xbe, 0xc5, 0x8b, 0x0b, 0xbe, 0x43, 0x1c, 0x72, 0xbe,
 0xcb, 0x1e, 0x73, 0x3e, 0xf8, 0x44, 0x12, 0x3e, 0x4e, 0x92, 0x8f, 0x3d,
 0x5f, 0xae, 0xbb, 0x3d, 0x90, 0x7e, 0x82, 0x3e, 0xf4, 0x73, 0xa1, 0xbe,
 0x6b, 0x58, 0x75, 0x3e, 0x5b, 0xe4, 0x47, 0xbd, 0x11, 0x4d, 0x87, 0x3e,
 0xe7, 0x5d, 0x00, 0x3e, 0xf6, 0x62, 0x40, 0xbe, 0x25, 0x90, 0x2a, 0x3e,
 0xc1, 0x64, 0x5a, 0xbe, 0xee, 0x57, 0xc3, 0xbe, 0x71, 0xff, 0xe5, 0xbb,
 0x8c, 0xf3, 0xb7, 0xbe, 0x20, 0xc7, 0x45, 0xbe, 0x0e, 0x26, 0x74, 0xbf,
 0x4c, 0x0b, 0x1e, 0xbe, 0x43, 0x26, 0x82, 0xbe, 0x1b, 0xdf, 0x29, 0xbe,
 0x86, 0x7e, 0x7d, 0xbe, 0x6b, 0xc2, 0x0f, 0xbe, 0x24, 0x79, 0x56, 0xbd,
 0x12, 0xd9, 0x36, 0x3b, 0xbc, 0x0c, 0x48, 0x3e, 0xea, 0xf7, 0xda, 0xbd,
 0x5d, 0xcc, 0xb7, 0x3d, 0x7e, 0x2f, 0x57, 0x3e, 0x7b, 0x6c, 0x56, 0x3e,
 0x3c, 0x62, 0x0d, 0x3e, 0x1a, 0x9e, 0x06, 0x3e, 0x77, 0x85, 0x13, 0xbe,
 0x73, 0x0b, 0xe8, 0xbc, 0x59, 0x78, 0x64, 0xbb, 0x1c, 0xfb, 0xce, 0x3d,
 0x18, 0x24, 0x04, 0x3e, 0x32, 0xbd, 0x35, 0x3e, 0x00, 0x0f, 0x05, 0x3d,
 0x2c, 0xf7, 0xbc, 0xbd, 0x9a, 0xb1, 0x9a, 0xbd, 0x6a, 0x0b, 0xcd, 0xbc,
 0xa5, 0xca, 0x3d, 0xbe, 0xdd, 0x7c, 0xdd, 0x3d, 0xc5, 0x86, 0x9a, 0xbd,
 0x3e, 0xc4, 0x06, 0xbe, 0xba, 0x68, 0x7d, 0x3e, 0xbc, 0x8a, 0xeb, 0xbd,
 0xd3, 0x3e, 0xd3, 0xbb, 0xf3, 0x81, 0xf1, 0xbd, 0x4a, 0x47, 0xd2, 0xbd,
 0xe0, 0xbb, 0x39, 0x3e, 0xeb, 0x6e, 0x24, 0x3e, 0x13, 0x68, 0x6c, 0xbe,
 0x4d, 0xa8, 0x54, 0xbe, 0x0f, 0x0d, 0xab, 0xbe, 0xb6, 0xb4, 0x73, 0x3e,
 0xa4, 0x24, 0x96, 0xbd, 0xe1, 0xda, 0x04, 0xbe, 0xd4, 0x99, 0x6b, 0x3d,
 0xdd, 0x97, 0xec, 0xbd, 0x9e, 0x25, 0x94, 0x3d, 0xe6, 0xa2, 0x49, 0xbd,
 0x70, 0x8f, 0x33, 0xbd, 0xdb, 0xe0, 0xdb, 0x3c, 0x3a, 0x8c, 0x0d, 0xbe,
 0x0a, 0x2d, 0x7f, 0xbe, 0xca, 0x7d, 0x4c, 0x3b, 0x44, 0x1b, 0xf2, 0xbd,
 0x75, 0x12, 0x2c, 0x3e, 0x51, 0xe8, 0xc4, 0xbb, 0x89, 0x50, 0x09, 0xbe,
 0xe9, 0x61, 0xd6, 0xbd, 0xed, 0xc5, 0x07, 0xbe, 0x44, 0x7b, 0x12, 0xbe,
 0xab, 0xd4, 0xa7, 0x3d, 0x68, 0xc4, 0x25, 0x3e, 0x3b, 0x69, 0x02, 0x3e,
 0x6e, 0xd1, 0xc9, 0x3a, 0x34, 0xdf, 0x68, 0xbd, 0x12, 0x77, 0xbd, 0x3b,
 0x9b, 0x7c, 0x5e, 0x3e, 0xa4, 0x60, 0x39, 0x3e, 0xe8, 0xc7, 0x80, 0xbe,
 0x6d, 0x8a, 0xe0, 0xbd, 0xc9, 0xc5, 0xca, 0x3d, 0x50, 0xc2, 0x74, 0x3e,
 0x83, 0xf9, 0x27, 0xbe, 0xce, 0xd1, 0x7d, 0x3e, 0xc2, 0xba, 0x1b, 0xbe,
 0xad, 0x5d, 0xdc, 0x3d, 0xa8, 0xc4, 0xcd, 0xbb, 0x6c, 0xd0, 0xe0, 0xbd,
 0xf0, 0xd6, 0x4a, 0xbe, 0xcb, 0x34, 0x03, 0xbe, 0x1a, 0xcf, 0x73, 0xbe,
 0xf5, 0x8a, 0xda, 0x3d, 0xd1, 0x57, 0x24, 0x3e, 0xf8, 0x60, 0x98, 0x3d,
 0x9e, 0x0d, 0x39, 0x3e, 0x85, 0x73, 0x7a, 0xbe, 0x66, 0x15, 0x5c, 0x3e,
 0x65, 0x6c, 0x05, 0x3e, 0xdc, 0xe2, 0x90, 0x3e, 0xd1, 0xdb, 0xc2, 0x3c,
 0x48, 0xa1, 0x12, 0x3e, 0x31, 0x04, 0x16, 0x3e, 0xff, 0x57, 0xb7, 0xbd,
 0x0e, 0xe7, 0x85, 0xbc, 0x5b, 0xa4, 0x1a, 0x3d, 0x05, 0xe3, 0x45, 0xbd,
 0xfe, 0x87, 0x41, 0x3e, 0x80, 0xda, 0xa2, 0xbd, 0xfc, 0x44, 0x44, 0x3d,
 0x3b, 0x7b, 0x10, 0x3c, 0x2c, 0xf6, 0x50, 0x3e, 0x22, 0x48, 0x16, 0x3d,
 0xea, 0x80, 0x73, 0xbe, 0xd9, 0x3e, 0x63, 0x3e, 0xb4, 0x4d, 0x29, 0x3e,
 0xad, 0xeb, 0x13, 0x3d, 0x87, 0x2f, 0x7d, 0xbe, 0xbc, 0xa8, 0x14, 0x3e,
 0xf6, 0x2f, 0x2c, 0x3e, 0xab, 0x00, 0x6e, 0xbe, 0x00, 0xe1, 0x44, 0x3e,
 0x49, 0x34, 0x4c, 0x3d, 0x3e, 0x0b, 0x80, 0x3d, 0xea, 0x5d, 0xea, 0xbd,
 0x43, 0x13, 0x07, 0xbd, 0xc1, 0xe0, 0x7e, 0x3e, 0x1a, 0x4d, 0x2b, 0xbd,
 0x3b, 0x5d, 0x0b, 0x3e, 0x50, 0x40, 0x8b, 0xbd, 0xd2, 0xcf, 0x1c, 0xbe,
 0x77, 0x43, 0x9c, 0x3c, 0xf1, 0xbf, 0xd0, 0xbd, 0xb7, 0x2b, 0x04, 0x3d,
 0xe6, 0xb8, 0x7c, 0xbe, 0x46, 0x3a, 0x88, 0xba, 0x7a, 0xa2, 0xd5, 0x3c,
 0x92, 0x62, 0x84, 0x3e, 0x8a, 0x2c, 0x41, 0xbe, 0x10, 0x79, 0xbf, 0xbc,
 0x18, 0x9a, 0x08, 0xbd, 0xe4, 0xc0, 0x3a, 0xbe, 0x00, 0xbe, 0x66, 0x3a,
 0x40, 0x59, 0x6d, 0x3d, 0xfe, 0x61, 0xf5, 0xbd, 0xd9, 0x7d, 0x82, 0xbe,
 0xf6, 0x49, 0x88, 0xbd, 0xc4, 0xc4, 0x4e, 0xbe, 0xd2, 0x1f, 0x0c, 0x3e,
 0x7e, 0x2d, 0x0b, 0xbe, 0x80, 0x2b, 0x87, 0x3e, 0x44, 0xc0, 0x76, 0x3e,
 0xac, 0x03, 0x5d, 0xbd, 0xc8, 0x93, 0x03, 0x3d, 0xc6, 0x91, 0x40, 0x3e,
 0x70, 0xdb, 0x53, 0x3e, 0xb7, 0x80, 0x6b, 0xbe, 0x94, 0xdf, 0x3c, 0x3e,
 0xb6, 0x16, 0x24, 0x3e, 0xc0, 0xe4, 0x71, 0x3d, 0xf0, 0xd7, 0x5b, 0xbd,
 0x14, 0xc9, 0x2f, 0x3e, 0x68, 0xd2, 0xc4, 0xbd, 0x98, 0x88, 0x40, 0x3d,
 0x00, 0x94, 0x54, 0x3e, 0xce, 0x6e, 0x55, 0xbe, 0x00, 0x24, 0x46, 0x3c,
 0x50, 0x74, 0xf4, 0x3d, 0x96, 0xa7, 0x5a, 0xbe, 0x16, 0xb2, 0x42, 0x3e,
 0xf2, 0xb7, 0x88, 0x3e, 0xa0, 0x2c, 0x41, 0xbe, 0x0c, 0xbf, 0x8b, 0xbd,
 0xa8, 0xed, 0xd4, 0xbd, 0x00, 0x39, 0x7c, 0x3b, 0xcd, 0x77, 0x1f, 0xbe,
 0x80, 0xe5, 0x49, 0xbb, 0xf2, 0x31, 0xa2, 0x3d, 0xcf, 0x11, 0xa8, 0x3d,
 0xce, 0xd4, 0xc6, 0xbd, 0x7c, 0x5c, 0x11, 0x3e, 0x76, 0xae, 0x2d, 0x3e,
 0xf2, 0xb2, 0xbb, 0x3e, 0x7f, 0x45, 0xf8, 0x3d, 0xb4, 0xa7, 0xbc, 0x3e,
 0x56, 0x6b, 0xbf, 0x3e, 0xc3, 0x4b, 0x10, 0xbf, 0x7f, 0xed, 0xa3, 0xbe,
 0x9c, 0xc7, 0x7f, 0xbc, 0x40, 0x08, 0xb8, 0x3e, 0x61, 0x9f, 0x8e, 0x3d,
 0xa9, 0x38, 0x3d, 0xbe, 0x41, 0x48, 0x1a, 0x3f, 0x9e, 0x3d, 0x6d, 0x3e,
 0xd6, 0x9f, 0xb7, 0x3e, 0x70, 0x52, 0xf6, 0xbe, 0x66, 0x63, 0xd1, 0x3e,
 0x99, 0x70, 0x28, 0x3f, 0x6c, 0x9e, 0xdf, 0x3c, 0x64, 0x3f, 0x4a, 0x3e,
 0xc8, 0xf9, 0x5f, 0xba, 0x88, 0x1b, 0x33, 0x3f, 0x9e, 0x44, 0x1b, 0xbf,
 0xc9, 0xa8, 0xb6, 0x3e, 0x48, 0x76, 0xca, 0x3d, 0xb2, 0x59, 0x8c, 0x3e,
 0x36, 0xc1, 0x47, 0x3f, 0x7d, 0x31, 0x36, 0xbf, 0x78, 0xf2, 0x3b, 0x3e,
 0xa3, 0x3d, 0xd7, 0x3e, 0x7c, 0x34, 0x6f, 0x3f, 0x8a, 0x78, 0x92, 0xbd,
 0x7d, 0xa1, 0x10, 0xbe, 0x79, 0xae, 0x93, 0xbd, 0x77, 0x12, 0xe1, 0xbe,
 0x08, 0x52, 0xee, 0x3d, 0x61, 0xd1, 0xbe, 0xbe, 0xf8, 0x69, 0xec, 0xbd,
 0xaf, 0xa9, 0x72, 0xbe, 0x0e, 0x6a, 0x0f, 0xbe, 0xbd, 0xdf, 0x14, 0x3d,
 0xfa, 0x5a, 0x17, 0xbd, 0x21, 0xa8, 0xe1, 0x3d, 0xca, 0xa4, 0x70, 0x3e,
 0xb7, 0x92, 0x91, 0xbd, 0xbb, 0xb0, 0x41, 0x3e, 0x2f, 0x14, 0x8f, 0xbd,
 0x0c, 0xe5, 0xe4, 0x3d, 0x19, 0xae, 0xb6, 0xbd, 0x30, 0x94, 0x5f, 0x3e,
 0xfb, 0x6c, 0x22, 0xbe, 0x51, 0xf0, 0xff, 0xbd, 0x38, 0x5f, 0x99, 0xbc,
 0xf8, 0x61, 0x1e, 0x3d, 0x9c, 0x5a, 0x6c, 0xbe, 0x05, 0x71, 0xf7, 0x3b,
 0x9e, 0x82, 0x6a, 0xbe, 0x55, 0x37, 0xf7, 0xbc, 0x53, 0xc0, 0x49, 0xbe,
 0x8c, 0x46, 0x3f, 0xbd, 0xf6, 0xf7, 0xa7, 0x3d, 0x7e, 0x02, 0x2b, 0xbd,
 0x2e, 0x75, 0x92, 0x3d, 0xf1, 0x12, 0x81, 0x3e, 0xe7, 0xe1, 0xcc, 0xbd,
 0x29, 0x30, 0x92, 0xbe, 0x25, 0x06, 0xf1, 0xbd, 0x17, 0xf2, 0x64, 0x3d,
 0x25, 0x08, 0xad, 0x3c, 0xf8, 0xb6, 0xc8, 0x3d, 0x34, 0x6a, 0xe8, 0x3c,
 0xf3, 0xd6, 0x1e, 0x3d, 0xc3, 0x95, 0x2c, 0x3e, 0x0e, 0x73, 0x59, 0x3e,
 0x76, 0xf5, 0x7e, 0x3e, 0x53, 0xd1, 0x17, 0xbe, 0xd6, 0xb6, 0x84, 0x3e,
 0xe8, 0x80, 0x22, 0xbd, 0xd7, 0x9f, 0xdf, 0xbc, 0x57, 0x0c, 0x00, 0x3d,
 0xca, 0x80, 0x8a, 0xbd, 0xc0, 0x21, 0x84, 0x3e, 0xc8, 0x13, 0x51, 0x3e,
 0xb8, 0x3f, 0x5d, 0xbe, 0xe8, 0x53, 0xfe, 0x3c, 0x37, 0xee, 0x30, 0xbc,
 0xfa, 0x85, 0x04, 0xbd, 0x00, 0x30, 0xc5, 0xbd, 0xc0, 0x06, 0x3f, 0x3e,
 0xc3, 0x0d, 0x87, 0xbe, 0xcd, 0x24, 0x48, 0xbe, 0x8e, 0xa3, 0xcc, 0x3c,
 0xa4, 0xdb, 0x71, 0xbe, 0xd7, 0xc7, 0xa8, 0xbe, 0xd9, 0x92, 0x38, 0x3e,
 0x1d, 0x1d, 0xeb, 0xbc, 0x07, 0xb3, 0x2b, 0xbe, 0x4b, 0x01, 0x44, 0x3e,
 0xbb, 0xdd, 0x6b, 0xbc, 0xc9, 0xea, 0xa7, 0xbd, 0x69, 0x71, 0x8c, 0x3e,
 0xda, 0x92, 0xc7, 0xbd, 0x7c, 0x38, 0xf1, 0xbc, 0x49, 0x05, 0xc5, 0x3d,
 0xd1, 0xe3, 0x32, 0x3e, 0xc8, 0x67, 0x54, 0xbe, 0x49, 0x81, 0x74, 0xbe,
 0xd6, 0x4f, 0x93, 0x3e, 0xa8, 0xa4, 0x6f, 0xbd, 0x67, 0x66, 0x33, 0x3e,
 0x5d, 0xec, 0xf1, 0x3d, 0x73, 0x21, 0x74, 0x3e, 0xcc, 0xc9, 0xaf, 0xbd,
 0xf4, 0x9a, 0xa1, 0xbd, 0x9c, 0x6b, 0xb9, 0x3c, 0x65, 0x4a, 0xb4, 0xbd,
 0x3f, 0xf8, 0x97, 0xbe, 0xc1, 0xc2, 0x0f, 0x3d, 0xa6, 0x1c, 0x3d, 0xbe,
 0x6d, 0x30, 0x12, 0xbe, 0xc6, 0xfb, 0xfd, 0x3c, 0xae, 0x04, 0x22, 0x3e,
 0x5f, 0xee, 0x35, 0xbe, 0xca, 0xe4, 0x94, 0x3e, 0x6a, 0x4a, 0xdc, 0x3d,
 0x3a, 0xb8, 0x14, 0xbe, 0xe3, 0xa0, 0xaf, 0x3c, 0xe2, 0x1e, 0x0e, 0xbf,
 0x6e, 0x7e, 0x7b, 0xbe, 0x5a, 0xee, 0xcd, 0xbe, 0xb7, 0x0d, 0xb4, 0xbe,
 0x0c, 0x08, 0x46, 0xbe, 0x7a, 0xe0, 0xe0, 0xbd, 0x63, 0xae, 0x08, 0x3d,
 0x53, 0x16, 0x16, 0xbd, 0x5a, 0x57, 0x04, 0xbd, 0xf9, 0x54, 0xfb, 0xbd,
 0x9c, 0x7a, 0x31, 0xbf, 0xdb, 0xbd, 0x1c, 0xbd, 0xe2, 0x97, 0x0f, 0xbe,
 0x01, 0x6d, 0x84, 0x3e, 0x75, 0xfe, 0xfa, 0x3d, 0x64, 0xb0, 0x02, 0xbf,
 0x7f, 0xc3, 0xdf, 0x3c, 0x07, 0x2c, 0xa4, 0x3e, 0xfc, 0x9f, 0xe7, 0xbe,
 0x8e, 0xde, 0x99, 0xbe, 0xa8, 0xf8, 0x06, 0x3d, 0xde, 0x0b, 0x10, 0xbe,
 0xf0, 0xa9, 0x27, 0xb9, 0x64, 0x2d, 0x84, 0x3e, 0xed, 0x6b, 0xc4, 0xbc,
 0xd7, 0xa3, 0xe3, 0x3e, 0x83, 0x7f, 0x54, 0xbd, 0x0e, 0x3b, 0x05, 0x3f,
 0x79, 0xac, 0xa0, 0x3e, 0xd3, 0x7b, 0x05, 0x3f, 0x67, 0x25, 0x23, 0xbe,
 0x8d, 0x8d, 0x26, 0xbe, 0x61, 0x2a, 0x78, 0x3e, 0x10, 0x81, 0x23, 0x3e,
 0x02, 0xa5, 0x99, 0xbd, 0x76, 0x00, 0x0b, 0x3c, 0x85, 0xad, 0x4d, 0x3e,
 0xc4, 0x25, 0x10, 0x3e, 0xe2, 0xee, 0x78, 0xbb, 0x3b, 0x76, 0xa8, 0xbd,
 0x8c, 0xc8, 0xa7, 0x3c, 0x49, 0xa6, 0xcb, 0x3d, 0x72, 0xe5, 0x3f, 0xbe,
 0x00, 0x14, 0x0c, 0xbe, 0x76, 0x8e, 0x65, 0x3d, 0xe9, 0x85, 0x41, 0x3e,
 0x6c, 0xb0, 0xdd, 0x3c, 0x9b, 0x59, 0x0f, 0xbe, 0xce, 0xfc, 0x2d, 0xbe,
 0xf2, 0x26, 0x38, 0x3c, 0xd5, 0x63, 0x83, 0x3e, 0xab, 0x9f, 0x5d, 0x3d,
 0xcd, 0x21, 0xb9, 0x3d, 0x69, 0xc0, 0x90, 0x3e, 0x7c, 0x3c, 0x61, 0x3e,
 0xd0, 0xfe, 0x19, 0x3e, 0x5d, 0x11, 0x00, 0x3d, 0x71, 0x2f, 0x36, 0x3e,
 0x54, 0xda, 0xb6, 0xbd, 0xa4, 0xac, 0xa5, 0x3d, 0x7c, 0xaf, 0xc8, 0xbb,
 0x5c, 0x49, 0x45, 0xbe, 0xdb, 0x9a, 0xcd, 0xbd, 0xc8, 0xda, 0xe8, 0x3d,
 0x14, 0x10, 0x07, 0xbe, 0xe0, 0xf8, 0x41, 0x3d, 0xce, 0x4a, 0x33, 0xbd,
 0x2b, 0x08, 0x87, 0x3e, 0xa0, 0x41, 0xb1, 0xbd, 0x06, 0x0a, 0xbf, 0x3d,
 0x30, 0x5f, 0x83, 0x3e, 0x88, 0x3c, 0x37, 0xbd, 0x5c, 0x0c, 0xf7, 0xbd,
 0xf8, 0xc6, 0x3e, 0x3e, 0x46, 0xfd, 0x87, 0x3e, 0xec, 0x3f, 0x9a, 0x3d,
 0xfc, 0xb7, 0xf6, 0x3d, 0xa0, 0xf5, 0x73, 0x3e, 0x4c, 0xc4, 0x59, 0xbd,
 0x22, 0xa7, 0x1a, 0xbe, 0x10, 0x65, 0xb7, 0x3d, 0xdc, 0x72, 0x71, 0x3e,
 0x82, 0x2a, 0x2f, 0x3e, 0xac, 0xc2, 0x98, 0xbd, 0xf0, 0xd2, 0x6d, 0x3e,
 0x18, 0x9a, 0x86, 0x3e, 0xc8, 0xf2, 0xa7, 0x3d, 0xfe, 0xe5, 0xd4, 0xbd,
 0xa6, 0x23, 0x09, 0x3e, 0x94, 0xa2, 0x6e, 0xbe, 0xc0, 0xaf, 0x9f, 0x3b,
 0x02, 0xa5, 0x3c, 0x3e, 0x88, 0x85, 0x10, 0xbe, 0x7c, 0x9b, 0x06, 0xbd,
 0x98, 0x79, 0xb1, 0x3d, 0x0e, 0x46, 0x4e, 0xbe, 0x80, 0xe4, 0x58, 0xbc,
 0x00, 0x77, 0xee, 0xbd, 0x84, 0x50, 0x4b, 0x3e, 0x4c, 0x9b, 0x69, 0xbd,
 0x40, 0xb0, 0xef, 0xbb, 0x7c, 0x86, 0xc8, 0x3d, 0x60, 0xc0, 0x8d, 0x3c,
 0x0a, 0xbd, 0x81, 0x3e, 0x38, 0xb4, 0x3b, 0x3e, 0x24, 0x60, 0xc8, 0x3d,
 0xe4, 0x01, 0x03, 0xbe, 0x40, 0x3f, 0x2d, 0x3c, 0x3c, 0x96, 0x79, 0xbe,
 0x72, 0xaa, 0x58, 0x3e, 0xf8, 0xe1, 0x61, 0x3e, 0xc5, 0x6d, 0x34, 0xbe,
 0xcc, 0x64, 0x54, 0xbe, 0xd4, 0xab, 0x61, 0xbe, 0xa0, 0x5d, 0xf7, 0x3d,
 0x46, 0x9c, 0x54, 0x3e, 0x36, 0x46, 0x8a, 0x3e, 0xe8, 0x24, 0x26, 0x3d,
 0x06, 0x05, 0x40, 0x3e, 0x84, 0x4a, 0x57, 0x3e, 0xe0, 0x96, 0xb8, 0x3c,
 0xb5, 0x35, 0x20, 0xbe, 0xc2, 0x55, 0x8a, 0xbe, 0x8c, 0x84, 0x8b, 0x3d,
 0x2e, 0xf8, 0xc6, 0xbd, 0xea, 0xbe, 0x24, 0x3e, 0x8b, 0x2f, 0x85, 0xbe,
 0xb8, 0xe3, 0x58, 0x3e, 0x00, 0x01, 0x89, 0xbc, 0x4b, 0xd4, 0x2a, 0xbe,
 0xd0, 0xe7, 0xa1, 0x3c, 0x60, 0xb8, 0x86, 0x3d, 0x76, 0x93, 0x0e, 0xbe,
 0x80, 0x44, 0xa4, 0xbc, 0x22, 0x30, 0x23, 0x3e, 0xbd, 0x4b, 0x7e, 0xbe,
 0xde, 0xd5, 0x80, 0xbd, 0x29, 0x1a, 0x7d, 0xbe, 0x29, 0xb6, 0x14, 0xbe,
 0xb1, 0x53, 0x18, 0xbe, 0x0c, 0x5e, 0xfe, 0x3d, 0x9e, 0x3f, 0x85, 0x3e,
 0x00, 0x7d, 0xa6, 0x3d, 0xd2, 0xa8, 0x2a, 0x3e, 0x40, 0xe9, 0x46, 0xbc,
 0x8d, 0x3e, 0x18, 0xbe, 0x18, 0x32, 0x4c, 0x3e, 0xa0, 0x0b, 0x06, 0xbc,
 0x16, 0x5c, 0x86, 0xbe, 0xe4, 0x78, 0xd0, 0xbd, 0x68, 0xda, 0xa4, 0x3d,
 0xb9, 0x1e, 0x4f, 0x3e, 0xcc, 0x3a, 0x18, 0xbe, 0x46, 0x5b, 0x04, 0xbe,
 0x9a, 0x72, 0x89, 0x3e, 0x20, 0xf9, 0x08, 0xbe, 0xff, 0xc2, 0x91, 0xbd,
 0x05, 0xb6, 0xdb, 0x3d, 0xf8, 0x16, 0x8d, 0xbe, 0x0d, 0xc8, 0xb8, 0xbe,
 0x97, 0x1c, 0xad, 0x3d, 0x4e, 0x09, 0xa5, 0x3c, 0x06, 0x84, 0x51, 0x3d,
 0x2c, 0x30, 0xb2, 0xbe, 0x2a, 0x43, 0x8a, 0x3e, 0x42, 0xae, 0xf3, 0xbd,
 0x6c, 0x18, 0xa9, 0x3d, 0x41, 0x30, 0x34, 0xbd, 0xf7, 0x72, 0x9e, 0xbe,
 0x89, 0x14, 0x2c, 0x3d, 0xb2, 0x6b, 0xdc, 0xbc, 0xae, 0xd7, 0x0c, 0xbf,
 0x37, 0xf5, 0x7f, 0x3e, 0xae, 0x5d, 0x9f, 0xbd, 0x45, 0xea, 0xd3, 0x3e,
 0x27, 0x71, 0x5a, 0xbd, 0xa0, 0xca, 0x5a, 0x3e, 0xde, 0xee, 0x5d, 0xbc,
 0x91, 0x20, 0x8b, 0x3d, 0x5c, 0xbe, 0xc1, 0x3c, 0xa8, 0x5f, 0x8a, 0xbf,
 0x78, 0x46, 0xbc, 0x3e, 0x29, 0x14, 0x23, 0xbd, 0xf7, 0x8c, 0xde, 0x3e,
 0x81, 0xb9, 0x0a, 0x3f, 0x86, 0x7c, 0x89, 0x3e, 0x09, 0x63, 0x94, 0x3f,
 0xc2, 0x28, 0xf0, 0xbd, 0xd1, 0x60, 0xed, 0x3e, 0x09, 0xe0, 0x17, 0xbe,
 0xc0, 0xc3, 0x64, 0x3e, 0x41, 0x2c, 0x6e, 0xbe, 0x96, 0x2c, 0x69, 0xbe,
 0x01, 0xb7, 0x61, 0xbe, 0x78, 0x07, 0x31, 0x3d, 0x5c, 0xd4, 0x7f, 0x3e,
 0x1c, 0x56, 0x3b, 0x3e, 0xac, 0x11, 0x96, 0xbd, 0x0b, 0x17, 0x64, 0xbe,
 0xc4, 0x5f, 0xd8, 0x3d, 0x42, 0x1f, 0xe2, 0xbd, 0x6d, 0x9d, 0x7d, 0xbe,
 0xe2, 0x6b, 0x2c, 0xbe, 0xab, 0x8f, 0x5b, 0xbe, 0x1c, 0x02, 0x5e, 0x3e,
 0x66, 0x46, 0x83, 0xbe, 0xb2, 0xd7, 0x61, 0xbe, 0xa8, 0x77, 0x4e, 0x3e,
 0xe8, 0x0d, 0x48, 0x3e, 0x60, 0xa2, 0xe5, 0x3c, 0x54, 0xba, 0x82, 0x3e,
 0xfa, 0x74, 0x36, 0x3e, 0x6c, 0x25, 0x82, 0x3d, 0x2c, 0xd1, 0xdd, 0xbd,
 0x86, 0xca, 0x1f, 0x3e, 0xf8, 0x3d, 0x20, 0x3d, 0x00, 0xfe, 0x6c, 0xba,
 0xc0, 0xad, 0x81, 0xbc, 0x2c, 0x05, 0xe2, 0xbd, 0x85, 0x05, 0x80, 0xbe,
 0xa6, 0xcb, 0x5f, 0x3e, 0x4c, 0x3e, 0x1e, 0x3e, 0x7e, 0x75, 0x80, 0x3e,
 0x70, 0x1c, 0x1f, 0x3e, 0xac, 0x2d, 0x29, 0x3e, 0x38, 0x42, 0x33, 0xbe,
 0xc0, 0x27, 0xef, 0x3d, 0xd8, 0x76, 0x06, 0x3e, 0x44, 0x18, 0x37, 0xbe,
 0x6c, 0x15, 0xa8, 0x3d, 0x2f, 0xc5, 0x85, 0xbd, 0x17, 0x0e, 0x19, 0xbe,
 0xb6, 0x3b, 0xda, 0xbd, 0xc0, 0x38, 0xbd, 0x3d, 0xfe, 0x2d, 0x03, 0x3e,
 0x1e, 0x23, 0x80, 0x3e, 0xea, 0xb9, 0x1b, 0x3e, 0xf4, 0xa8, 0x0a, 0x3f,
 0x58, 0x84, 0x87, 0x3e, 0xa8, 0x28, 0xbb, 0x3e, 0x5c, 0x65, 0x18, 0x3d,
 0xc6, 0x54, 0x3f, 0xbd, 0x90, 0x81, 0xda, 0x3d, 0x0a, 0x8c, 0xaa, 0xbe,
 0xc5, 0x91, 0xe5, 0xbe, 0x74, 0x08, 0x88, 0x3e, 0xcf, 0x5b, 0x84, 0xbe,
 0x6c, 0xbd, 0x56, 0x3e, 0xcc, 0x99, 0x9c, 0x3e, 0x7c, 0x65, 0xe5, 0x3d,
 0x2b, 0xfa, 0xf5, 0x3d, 0x28, 0x02, 0x1b, 0xbd, 0xa4, 0x95, 0x82, 0x3e,
 0x3a, 0x4e, 0xf1, 0x3d, 0x2e, 0x87, 0x54, 0x3e, 0xe3, 0x78, 0x01, 0x3d,
 0x7a, 0x60, 0x08, 0x3e, 0x77, 0x09, 0x6c, 0x3d, 0xe2, 0x81, 0x0f, 0xbf,
 0xa7, 0xd7, 0xf2, 0xbd, 0x11, 0x25, 0x51, 0x3e, 0xff, 0x48, 0xbe, 0xbd,
 0xff, 0xf6, 0xe9, 0x3d, 0xcb, 0xa9, 0xd6, 0x3e, 0xe5, 0x32, 0x55, 0x3e,
 0x3e, 0xe3, 0xb2, 0xbd, 0xdd, 0xb3, 0x42, 0x3e, 0xda, 0x64, 0x4c, 0x3e,
 0x63, 0x6a, 0xd5, 0x3e, 0x6f, 0x98, 0x6f, 0x3d, 0xda, 0xb0, 0x5d, 0xbe,
 0x6c, 0x20, 0x38, 0xbe, 0x74, 0x1e, 0x34, 0xbe, 0xdf, 0x4e, 0x00, 0x3e,
 0xbd, 0x2e, 0x98, 0x3e, 0xb5, 0xf5, 0xd0, 0xbd, 0x02, 0x64, 0x44, 0x3e,
 0x16, 0x5b, 0x5c, 0xbd, 0x6c, 0x1a, 0x34, 0x3c, 0xe0, 0x52, 0x80, 0x3e,
 0xa1, 0xe9, 0x4f, 0x3e, 0x81, 0x95, 0x4b, 0x3d, 0x48, 0x58, 0x37, 0xbe,
 0xbe, 0x4d, 0x3e, 0xbe, 0xa9, 0x85, 0x82, 0x3c, 0x81, 0x62, 0x0c, 0x3e,
 0xfc, 0x1c, 0x04, 0x3e, 0x24, 0x8a, 0x28, 0xbe, 0xd8, 0x5b, 0x10, 0xbd,
 0x9b, 0xcd, 0xf5, 0xbd, 0xda, 0x51, 0x01, 0xbe, 0x1c, 0x16, 0xfb, 0xbd,
 0xda, 0xc8, 0x2b, 0xbe, 0xf1, 0xd3, 0xea, 0x3d, 0x65, 0x29, 0x5b, 0xbe,
 0x63, 0xce, 0x40, 0x3c, 0x8b, 0x74, 0x77, 0xbe, 0x9a, 0x21, 0x40, 0xbd,
 0x67, 0x39, 0xae, 0xbe, 0xe5, 0x5d, 0x8d, 0xbe, 0x16, 0x9e, 0x43, 0x3e,
 0x2e, 0xbf, 0x7a, 0x3e, 0x6a, 0x8a, 0x21, 0xbe, 0x13, 0x40, 0x1c, 0xbe,
 0x13, 0x6b, 0xec, 0x3d, 0x8d, 0x2b, 0x47, 0x3b, 0xac, 0xcb, 0x2a, 0x3d,
 0x9d, 0x6b, 0x19, 0xbe, 0xd9, 0x21, 0x42, 0xbe, 0x6c, 0x0c, 0xf9, 0x3d,
 0x5e, 0xb0, 0x50, 0x3e, 0xc6, 0x16, 0xc0, 0xbd, 0x80, 0xee, 0x82, 0x3d,
 0x44, 0x15, 0x33, 0xbd, 0xcc, 0x3b, 0xf4, 0x3d, 0x77, 0xa5, 0x88, 0xbe,
 0xb8, 0xbc, 0x7d, 0x3e, 0x46, 0x1e, 0x0d, 0xbe, 0x50, 0xf6, 0x6f, 0x3d,
 0xfa, 0x1d, 0x18, 0x3e, 0x8e, 0xcb, 0x14, 0xbe, 0x60, 0x46, 0x82, 0x3e,
 0xf7, 0xe9, 0x81, 0xbe, 0x20, 0x65, 0x4b, 0x3d, 0x40, 0xa5, 0xe2, 0x3d,
 0xd0, 0xaf, 0xaf, 0x3c, 0xee, 0x1c, 0xc9, 0xbd, 0x4a, 0x6b, 0x5e, 0x3e,
 0x30, 0x6a, 0xad, 0x3d, 0xa4, 0x0b, 0x92, 0x3d, 0xe4, 0x9e, 0x22, 0xbd,
 0xa0, 0xd8, 0x12, 0xbc, 0xf8, 0xee, 0x14, 0xbd, 0x96, 0x13, 0xea, 0xbd,
 0x1a, 0xc2, 0x5e, 0xbe, 0xd0, 0xe0, 0x83, 0x3e, 0x21, 0x95, 0x86, 0xbe,
 0xa6, 0x44, 0x09, 0x3e, 0xd8, 0x5c, 0xef, 0x3d, 0xc0, 0x1e, 0x27, 0xbd,
 0xaf, 0xf5, 0x22, 0xbe, 0x44, 0xa0, 0x3a, 0x3e, 0xb2, 0x4d, 0x8c, 0xbd,
 0x6d, 0x11, 0x02, 0xbe, 0x98, 0x65, 0x3e, 0x3e, 0x50, 0xc5, 0x28, 0xbd,
 0xd4, 0x99, 0xd4, 0x3d, 0x70, 0x2a, 0x83, 0x3d, 0x90, 0x3b, 0x81, 0x3c,
 0x70, 0xac, 0x12, 0x3e, 0xae, 0x2f, 0x92, 0x3c, 0x40, 0x12, 0xe5, 0x3d,
 0xc0, 0x21, 0xff, 0x3c, 0x55, 0x74, 0x1b, 0xbe, 0x89, 0x84, 0x91, 0xbe,
 0x27, 0xb0, 0xc2, 0x3d, 0x4c, 0x59, 0xf7, 0x3e, 0xb9, 0xe9, 0x1a, 0xbe,
 0xc3, 0x99, 0xd7, 0xbe, 0xb0, 0x4e, 0x2d, 0x3c, 0x6e, 0x5f, 0x04, 0x3e,
 0x18, 0xcc, 0x5d, 0x3e, 0x05, 0x4c, 0x75, 0xbe, 0x3c, 0xee, 0x7e, 0x3d,
 0xdf, 0x8f, 0x91, 0x3e, 0xce, 0xfe, 0x7b, 0xbe, 0x9d, 0xb4, 0x92, 0xbe,
 0x5a, 0xc3, 0x82, 0xba, 0x83, 0x44, 0x03, 0xbe, 0xc5, 0x61, 0xe1, 0xbb,
 0x10, 0xba, 0xb2, 0xbe, 0xf6, 0x01, 0x91, 0x3e, 0x67, 0xc9, 0x3d, 0x3e,
 0x68, 0x46, 0xd0, 0xbe, 0xa8, 0x62, 0x94, 0xbe, 0x3f, 0x35, 0x01, 0x3f,
 0x10, 0xf5, 0x7d, 0xbe, 0xf0, 0x99, 0x14, 0xbf, 0x3a, 0xfc, 0x0d, 0x3f,
 0x81, 0x3f, 0xd4, 0x3d, 0x0d, 0xf0, 0xee, 0xbd, 0x68, 0xdf, 0x1b, 0x3e,
 0xec, 0x3b, 0xdf, 0x3e, 0xef, 0x55, 0x9b, 0xbe, 0xb6, 0x6b, 0x7d, 0x3e,
 0x46, 0x04, 0x31, 0x3d, 0xe4, 0x26, 0x31, 0x3e, 0x7f, 0xae, 0x23, 0x3e,
 0xf6, 0xdc, 0xfb, 0xbe, 0xba, 0x6b, 0xa3, 0xbe, 0x2f, 0xd9, 0x6c, 0x3e,
 0x6e, 0x5c, 0xc7, 0x3d, 0x9b, 0x6d, 0x1b, 0xbe, 0x3a, 0x07, 0x7a, 0x3e,
 0xcb, 0xde, 0x23, 0xbc, 0xf0, 0xda, 0xa7, 0x3e, 0xd0, 0x4b, 0x96, 0xbe,
 0xc1, 0x6d, 0xbf, 0x3d, 0x5c, 0x8a, 0x0e, 0x3e, 0xbb, 0x73, 0xe1, 0xbe,
 0x28, 0x51, 0x30, 0xbe, 0x45, 0xa0, 0x45, 0xbf, 0x45, 0xdb, 0x37, 0xbe,
 0x62, 0x8a, 0x18, 0xbe, 0x04, 0xe4, 0x00, 0xbf, 0x58, 0xde, 0xe3, 0x3e,
 0x36, 0x41, 0xe3, 0x3e, 0x72, 0xdf, 0xf4, 0x3e, 0x24, 0x54, 0xf2, 0x3e,
 0x26, 0x5a, 0x96, 0xbe, 0xb6, 0xae, 0xf9, 0xbd, 0x6e, 0x1c, 0x0a, 0xbf,
 0x83, 0x85, 0x39, 0xbe, 0x57, 0x36, 0xc5, 0x3e, 0xf7, 0xc2, 0x70, 0x3e,
 0x76, 0x27, 0x0a, 0x3e, 0xbd, 0x3b, 0xbb, 0x3d, 0xc3, 0x7e, 0x5a, 0x3e,
 0x10, 0x69, 0xf7, 0x3b, 0x97, 0xc6, 0xe7, 0x3d, 0x6b, 0x08, 0xa7, 0xbe,
 0x86, 0x7b, 0x43, 0x3f, 0x2b, 0x4e, 0xde, 0x3e, 0x82, 0x4d, 0xca, 0x3c,
 0x6d, 0x3e, 0x3f, 0xbf, 0x96, 0x40, 0x0f, 0xbf, 0x27, 0xef, 0xce, 0xbe,
 0xf9, 0x86, 0x6f, 0x3d, 0x07, 0xe4, 0x56, 0xbe, 0x02, 0xd1, 0x69, 0xbe,
 0xd8, 0xa6, 0x10, 0x3b, 0x62, 0xcb, 0xe2, 0xbd, 0x9d, 0x23, 0x0f, 0x3e,
 0xe9, 0x75, 0x8b, 0x3d, 0x46, 0x02, 0x60, 0xbd, 0x74, 0x92, 0x80, 0xbe,
 0x48, 0x74, 0xb6, 0x3e, 0xd9, 0x55, 0x93, 0xbd, 0x53, 0xbd, 0xc2, 0xbe,
 0xd4, 0x9e, 0x95, 0x3e, 0x12, 0x81, 0xab, 0xbe, 0xed, 0x20, 0x43, 0x3e,
 0x0a, 0x61, 0xf1, 0xbe, 0xe3, 0x6e, 0x42, 0x3e, 0xa4, 0xc0, 0x44, 0xbd,
 0xfa, 0x4f, 0x1f, 0xbf, 0xb2, 0xc4, 0x1c, 0x3f, 0xe4, 0x45, 0xb9, 0x3e,
 0xf1, 0x4a, 0x2e, 0xbe, 0xf2, 0x83, 0x04, 0xbe, 0xa4, 0x4f, 0x8b, 0x3e,
 0xa8, 0x98, 0x86, 0xbc, 0x65, 0x99, 0x5b, 0xbc, 0xe5, 0x1a, 0x64, 0xbd,
 0x84, 0xd9, 0x84, 0x3d, 0xca, 0x5a, 0x1b, 0xbe, 0x74, 0x9b, 0xd8, 0xbe,
 0x1d, 0xc8, 0xd5, 0xbe, 0x68, 0xab, 0x06, 0xbf, 0x6b, 0xe3, 0xd9, 0x3e,
 0xab, 0x24, 0x01, 0xbf, 0x7f, 0x8a, 0x8d, 0x3e, 0x1e, 0xb9, 0x7b, 0xbe,
 0xb0, 0x27, 0x56, 0xbe, 0xe6, 0x9d, 0x79, 0x3e, 0x4e, 0xd2, 0xfe, 0x3d,
 0x80, 0xdb, 0xb6, 0x3e, 0xc6, 0x5b, 0xce, 0xbe, 0x8d, 0xd2, 0xef, 0x3e,
 0xa7, 0x5e, 0xdf, 0xbe, 0x27, 0x04, 0x4d, 0x3c, 0xbb, 0xee, 0x68, 0x3d,
 0xc8, 0x94, 0x1a, 0x3b, 0x8b, 0xed, 0xc2, 0xbd, 0xed, 0x31, 0x8f, 0x3d,
 0x44, 0xf4, 0x09, 0x3d, 0x0e, 0x93, 0x77, 0x3c, 0x86, 0x0e, 0x39, 0xbe,
 0xbf, 0xe8, 0xd6, 0x3e, 0x1c, 0x3b, 0x2b, 0x3d, 0x25, 0x8f, 0x11, 0x3e,
 0x17, 0xfb, 0x9f, 0xbe, 0x15, 0x75, 0x09, 0x3e, 0x64, 0x79, 0x71, 0x3e,
 0xa5, 0x2d, 0xf7, 0xbe, 0xe6, 0x34, 0xdb, 0xbe, 0x21, 0x41, 0x39, 0xba,
 0xb0, 0xe9, 0xf6, 0xbc, 0x29, 0x29, 0x3e, 0xbf, 0xeb, 0x8d, 0x23, 0x3e,
 0x70, 0x67, 0xd3, 0xbe, 0x3b, 0x05, 0xa4, 0x3e, 0x51, 0xe7, 0x16, 0x3e,
 0xa1, 0xa2, 0xd6, 0x3b, 0xf2, 0x90, 0x04, 0x3e, 0x6c, 0xf6, 0x2a, 0xbe,
 0xf0, 0x88, 0x2d, 0x3f, 0xcc, 0x5f, 0x2f, 0xbe, 0x8f, 0xdf, 0x4e, 0x3e,
 0x02, 0x3a, 0x14, 0xbf, 0x29, 0x16, 0x6a, 0x3e, 0xb7, 0x32, 0xed, 0xbe,
 0x50, 0x0f, 0x97, 0x3e, 0x03, 0x48, 0x8d, 0x3d, 0xf5, 0x2d, 0x13, 0xbf,
 0x28, 0x31, 0xdb, 0x3e, 0xfc, 0xcc, 0xba, 0xbd, 0x62, 0x1d, 0xb0, 0x3c,
 0xfe, 0x62, 0xd3, 0xbc, 0x76, 0x43, 0x9e, 0xbd, 0x7c, 0x44, 0x56, 0x3e,
 0x3a, 0xcf, 0x95, 0xbd, 0x80, 0xd9, 0x28, 0x3c, 0x00, 0x4b, 0x9c, 0xbc,
 0x4c, 0xed, 0x7a, 0x3e, 0xb4, 0x97, 0x21, 0x3e, 0x96, 0x8c, 0x2d, 0x3e,
 0xf6, 0xce, 0x1a, 0x3e, 0xf8, 0xdd, 0x82, 0x3e, 0x30, 0xf4, 0x82, 0x3c,
 0xe6, 0x99, 0x55, 0xbe, 0x70, 0x61, 0x1d, 0x3d, 0x30, 0x58, 0x62, 0x3d,
 0xde, 0x23, 0xb1, 0xbd, 0x74, 0xf3, 0x66, 0xbe, 0xb8, 0x25, 0x85, 0xbe,
 0xfe, 0xba, 0x3f, 0x3e, 0xda, 0x93, 0x1b, 0x3e, 0x28, 0x7f, 0x28, 0xbe,
 0xda, 0xe0, 0xc4, 0xbd, 0x9c, 0x7b, 0xa0, 0x3d, 0x68, 0xfa, 0x1a, 0x3e,
 0x30, 0x00, 0x82, 0xbe, 0x60, 0x6e, 0x81, 0x3e, 0x6c, 0x0e, 0x1a, 0xbe,
 0x80, 0xd3, 0xac, 0xbc, 0x1b, 0x30, 0x57, 0xbe, 0x8c, 0xe5, 0x88, 0x3e,
 0x60, 0x5c, 0xc9, 0xbc, 0x34, 0xfd, 0x60, 0xbe, 0xd0, 0x32, 0x8b, 0x3c,
 0x74, 0x0b, 0xe8, 0x3d, 0x5c, 0xec, 0x17, 0xbe, 0x90, 0x73, 0x0e, 0x3d,
 0x9d, 0x00, 0x39, 0xbe, 0x9c, 0xaa, 0xba, 0x3d, 0x68, 0x1a, 0x22, 0xbd,
 0x60, 0x37, 0x71, 0xbe, 0xd6, 0x27, 0xf5, 0xbd, 0x90, 0x5e, 0x58, 0xbd,
 0xb3, 0x07, 0x02, 0xbe, 0x28, 0x9d, 0x8b, 0xbe, 0xed, 0xae, 0xf6, 0xbd,
 0x16, 0x6a, 0x0a, 0x3e, 0x14, 0x20, 0x60, 0xbe, 0xa4, 0xc5, 0x59, 0xbe,
 0x4b, 0x1b, 0x07, 0xbe, 0xd9, 0x98, 0x8d, 0xbd, 0x5e, 0xe5, 0x6c, 0xbe,
 0x9c, 0x19, 0x44, 0xbe, 0x35, 0x19, 0x58, 0xbe, 0xb1, 0x15, 0x1c, 0xbe,
 0xfc, 0xf6, 0x05, 0xbe, 0xff, 0x2f, 0x8c, 0xbe, 0x91, 0xaf, 0x2e, 0xbe,
 0xaf, 0x15, 0x38, 0x3e, 0x08, 0xd6, 0xe0, 0xbd, 0xb5, 0xe9, 0x1e, 0x3b,
 0x3f, 0xc4, 0x10, 0x3e, 0xb0, 0x7e, 0x2f, 0x3c, 0xba, 0x53, 0xbd, 0x3d,
 0x50, 0x01, 0x08, 0xbe, 0xd2, 0x4b, 0x25, 0xbd, 0xc6, 0x52, 0x34, 0x3e,
 0xc2, 0x6e, 0xfd, 0x3d, 0x28, 0xdb, 0xca, 0xbc, 0xee, 0x52, 0xaf, 0x3e,
 0x09, 0xe7, 0xaa, 0xbe, 0x36, 0x5f, 0x85, 0xba, 0xe0, 0x33, 0x81, 0xbd,
 0x28, 0x2e, 0x66, 0x3e, 0x41, 0x05, 0x2d, 0xbe, 0xd5, 0x55, 0xd3, 0x3d,
 0xa0, 0x9d, 0xcb, 0xbd, 0xfc, 0xbb, 0x51, 0xbe, 0x2f, 0x7a, 0x48, 0xbe,
 0x6b, 0x1c, 0x90, 0xbe, 0x37, 0x79, 0x28, 0x3e, 0x56, 0x28, 0xb5, 0xbe,
 0xaa, 0x37, 0x8e, 0x3d, 0x89, 0x5d, 0x10, 0xbe, 0x22, 0x3d, 0x95, 0xbe,
 0xe1, 0x9d, 0x99, 0xbe, 0xf9, 0xee, 0x5a, 0xbe, 0xe9, 0x7b, 0x0b, 0x3d,
 0xac, 0x76, 0xac, 0x3c, 0x49, 0x74, 0xa0, 0x3e, 0x03, 0x5c, 0x42, 0xbd,
 0x94, 0x5e, 0xac, 0xbd, 0x5f, 0x40, 0xc0, 0x3e, 0xa3, 0x7e, 0xdd, 0x3b,
 0xd9, 0x91, 0x95, 0x3e, 0x67, 0xbc, 0xc6, 0x3c, 0x51, 0x00, 0xa8, 0x3e,
 0xbf, 0x25, 0xc3, 0x3e, 0x2b, 0xef, 0x0d, 0xbe, 0x59, 0x15, 0x08, 0x3e,
 0x92, 0xa3, 0xe3, 0x3e, 0x79, 0xb1, 0x9b, 0x3e, 0xa2, 0xc2, 0x08, 0xbe,
 0xf0, 0x20, 0x18, 0xbe, 0x75, 0x5c, 0x29, 0xbe, 0x09, 0x4b, 0x49, 0x3d,
 0xce, 0xbe, 0x6f, 0x3e, 0xd0, 0x7f, 0x17, 0x3e, 0x26, 0x0f, 0x54, 0xbe,
 0x44, 0x41, 0x8c, 0x3e, 0x73, 0x6a, 0x55, 0xbe, 0x84, 0xdd, 0xf3, 0xbd,
 0x63, 0xab, 0x3f, 0xbd, 0x9b, 0x02, 0xd8, 0x3c, 0x92, 0x5a, 0x9d, 0xbe,
 0xf8, 0xeb, 0x1c, 0x3e, 0xde, 0xa8, 0x59, 0x3e, 0x0a, 0x81, 0x4d, 0xbe,
 0x1a, 0xc9, 0x12, 0xbf, 0x9d, 0xff, 0xb6, 0xbe, 0x00, 0x14, 0x90, 0xbe,
 0x87, 0x79, 0x8d, 0x3e, 0x79, 0xdd, 0x2d, 0xbe, 0x54, 0x93, 0xfd, 0xbd,
 0xc2, 0xc7, 0x68, 0xbe, 0xdb, 0xc9, 0x37, 0xbe, 0x95, 0xcf, 0x58, 0xbe,
 0xcc, 0xcf, 0x18, 0xbe, 0x6b, 0x45, 0x69, 0x3e, 0x32, 0x23, 0xab, 0xbc,
 0x0f, 0xe5, 0xf6, 0x3d, 0xa4, 0x6d, 0x3f, 0xbc, 0xda, 0x9a, 0x0f, 0xbe,
 0xc1, 0x14, 0x28, 0x3c, 0x6b, 0x04, 0x2c, 0xbe, 0x21, 0xf3, 0x1e, 0x3e,
 0xc2, 0x35, 0x59, 0x3e, 0x19, 0x8d, 0x8e, 0x3e, 0x05, 0xdf, 0xee, 0x3d,
 0xac, 0x81, 0x8c, 0xbe, 0xc0, 0x40, 0x3d, 0x3e, 0x9e, 0x1e, 0x5f, 0xbe,
 0x59, 0xc1, 0xbe, 0xbc, 0x64, 0x1a, 0xb5, 0x3d, 0xf9, 0x0f, 0x8f, 0xbd,
 0x3d, 0x20, 0x6c, 0x3e, 0xb7, 0xce, 0x99, 0xbd, 0x00, 0xa1, 0x9c, 0xbd,
 0x55, 0xe8, 0x00, 0xbc, 0xba, 0x07, 0x9f, 0x3e, 0x1d, 0x77, 0x89, 0x3d,
 0xc3, 0xd3, 0xd3, 0x3d, 0xd1, 0xc4, 0x9c, 0xbb, 0x60, 0x70, 0x2a, 0x3e,
 0xb3, 0x6e, 0xee, 0xbd, 0xf1, 0x69, 0x00, 0xbd, 0x07, 0xb0, 0x81, 0x3d,
 0x6c, 0xc8, 0x60, 0x3e, 0xf0, 0x12, 0x8e, 0x3e, 0x5c, 0xc2, 0x51, 0xbd,
 0xc2, 0xb8, 0xa0, 0x3d, 0xe3, 0x63, 0xd2, 0x3d, 0xc2, 0x9a, 0x9a, 0x3d,
 0x40, 0x4e, 0x4d, 0xbb, 0x3e, 0x96, 0x4d, 0xbe, 0xb8, 0x53, 0xae, 0xbd,
 0x48, 0x6f, 0x28, 0x3e, 0xa6, 0x45, 0x92, 0xbc, 0xc5, 0x18, 0x02, 0x3e,
 0xc1, 0xae, 0xc4, 0xbe, 0x67, 0x8c, 0x86, 0xbe, 0x52, 0x93, 0x03, 0x3f,
 0xcf, 0x07, 0x18, 0xbe, 0xda, 0xbd, 0x5d, 0x3d, 0x88, 0xfb, 0x07, 0x3e,
 0xe1, 0x06, 0xa7, 0xbe, 0xb3, 0xef, 0x98, 0x3e, 0x5c, 0x39, 0xde, 0x3e,
 0x7c, 0x53, 0x48, 0xbe, 0x8e, 0x98, 0xe8, 0xbe, 0xf2, 0xbe, 0x37, 0x3e,
 0xe6, 0xc7, 0xce, 0x3e, 0x0e, 0x7d, 0xdf, 0xbe, 0xb1, 0xb7, 0x90, 0xbe,
 0xe9, 0x72, 0x0c, 0x3f, 0x6e, 0x72, 0x1d, 0x3d, 0xbd, 0xa6, 0x1e, 0xbf,
 0xc5, 0x41, 0x1d, 0xbf, 0xa2, 0x97, 0x49, 0x3e, 0x29, 0xf0, 0xb9, 0x3d,
 0x15, 0x96, 0x21, 0xbe, 0x1a, 0x58, 0xfd, 0xbe, 0xec, 0x1c, 0xaf, 0x3d,
 0x4c, 0x32, 0xb0, 0xbe, 0x0b, 0xb5, 0xd2, 0x3e, 0x18, 0x10, 0xf6, 0xbe,
 0x47, 0xb9, 0x26, 0xbf, 0x71, 0xa6, 0xb4, 0x3d, 0xb1, 0xd6, 0x54, 0xbd,
 0x9d, 0x73, 0x9a, 0xbe, 0xe4, 0xc2, 0x37, 0xbe, 0x2a, 0xb6, 0x54, 0x3e,
 0x2e, 0x92, 0x68, 0x3e, 0x4e, 0x68, 0x06, 0xbd, 0x40, 0xee, 0x72, 0xbe,
 0x67, 0x11, 0x0a, 0x3f, 0x46, 0x10, 0x89, 0xbd, 0x85, 0xfc, 0x8a, 0xbe,
 0xce, 0x0b, 0x91, 0x3d, 0x38, 0x68, 0x15, 0xbe, 0x5a, 0xc9, 0x56, 0xbe,
 0x5e, 0x07, 0xbd, 0xbd, 0x7f, 0x11, 0xcb, 0xbd, 0x70, 0x4e, 0x0b, 0x3e,
 0x63, 0xba, 0x94, 0xbd, 0x6e, 0xcc, 0xeb, 0x3e, 0xc6, 0xeb, 0xcf, 0x3c,
 0x4e, 0xef, 0xa0, 0xbd, 0x9c, 0xaf, 0x8d, 0x3e, 0x80, 0x8f, 0xd9, 0x3e,
 0x35, 0xe2, 0xcd, 0xbe, 0x17, 0x2c, 0x9b, 0x3e, 0x76, 0x17, 0x2d, 0x3e,
 0x5e, 0x9d, 0xf6, 0xbe, 0x89, 0xe0, 0x96, 0x3e, 0x9c, 0x4a, 0xf6, 0xbe,
 0xd3, 0x40, 0x93, 0xbe, 0xf9, 0xe7, 0xb2, 0x3e, 0x4b, 0xd1, 0xbe, 0xbe,
 0xe7, 0x4f, 0x34, 0x3e, 0x4f, 0x75, 0x91, 0x3e, 0x2a, 0x51, 0xc9, 0xbd,
 0x6b, 0x4a, 0x01, 0xbf, 0x75, 0xc5, 0xb4, 0x3e, 0x0a, 0xc7, 0xee, 0xbd,
 0x6a, 0xdf, 0x85, 0x3e, 0x92, 0xd3, 0x6d, 0x3d, 0x01, 0xcc, 0x78, 0xbe,
 0xe3, 0x41, 0x1a, 0x3e, 0x40, 0xf9, 0xee, 0x3e, 0x3e, 0x87, 0xf4, 0x3e,
 0x7e, 0xc6, 0x1f, 0x3d, 0x64, 0x37, 0x87, 0x3f, 0x43, 0x10, 0x24, 0x3d,
 0xf4, 0x64, 0xaf, 0x3d, 0x6b, 0x49, 0x79, 0x3e, 0xca, 0x46, 0x68, 0xbd,
 0xc6, 0x6d, 0xe8, 0xbd, 0x2d, 0x14, 0x16, 0xbf, 0x86, 0x38, 0x4f, 0x3e,
 0x8f, 0xae, 0x86, 0x3e, 0xad, 0x42, 0x1e, 0xbe, 0xe3, 0x37, 0x08, 0xbf,
 0xb4, 0x7c, 0x52, 0xbf, 0xa8, 0xc1, 0x18, 0x3e, 0x73, 0xb9, 0x30, 0x3e,
 0xaf, 0xf8, 0x7b, 0xbe, 0xab, 0xf6, 0xca, 0xbd, 0xcb, 0x86, 0x6c, 0x3f,
 0x17, 0x3b, 0xf6, 0xbe, 0x67, 0xd4, 0xd0, 0xbd, 0x46, 0x73, 0x04, 0x3f,
 0x9a, 0x28, 0xf0, 0xbe, 0x1a, 0x2f, 0xfe, 0xbd, 0xb2, 0x14, 0x97, 0xbe,
 0xdf, 0x79, 0x7d, 0xbe, 0x2a, 0xf6, 0xaf, 0xbe, 0xfa, 0x4f, 0x5b, 0x3e,
 0x77, 0x4c, 0xbf, 0xbe, 0x3e, 0xae, 0xa7, 0xbd, 0xb6, 0xb9, 0x00, 0xbb,
 0x1b, 0x8f, 0xaf, 0xbd, 0xce, 0x5b, 0x46, 0xbe, 0x8a, 0xeb, 0x10, 0xbd,
 0x2a, 0xf1, 0x30, 0x3e, 0xb2, 0xcb, 0x99, 0xbe, 0xf9, 0x5c, 0xdc, 0xbe,
 0xca, 0x26, 0xcf, 0xbe, 0x9d, 0xec, 0xc3, 0x3e, 0xab, 0x2d, 0xab, 0xbe,
 0x30, 0xc8, 0x78, 0x3c, 0xa1, 0xa1, 0xc4, 0x3e, 0x7e, 0x55, 0x02, 0x3e,
 0x2c, 0x10, 0x7e, 0x3e, 0xc0, 0xcb, 0x0d, 0x3e, 0xf6, 0x7b, 0x51, 0x3e,
 0xb2, 0xdf, 0x5e, 0xbe, 0x16, 0xfa, 0x04, 0x3e, 0xda, 0xd9, 0x3b, 0xbe,
 0x70, 0x0b, 0xf6, 0x3c, 0xf0, 0xbc, 0x2f, 0xbe, 0x8c, 0x07, 0x13, 0xbe,
 0xd0, 0x52, 0x34, 0x3d, 0xd0, 0x84, 0x2f, 0x3e, 0xde, 0x74, 0x2a, 0xbe,
 0x14, 0xd3, 0x5c, 0x3e, 0xbe, 0xe1, 0x57, 0x3e, 0x78, 0x22, 0xc1, 0x3d,
 0x60, 0x51, 0x5e, 0x3e, 0x62, 0x24, 0x87, 0x3e, 0x80, 0xea, 0x4f, 0xbe,
 0x78, 0xdc, 0x58, 0x3d, 0xbe, 0x8d, 0x38, 0xbe, 0x1a, 0xa3, 0x1d, 0x3e,
 0x70, 0x12, 0x95, 0xbc, 0x28, 0xba, 0x51, 0xbd, 0xdc, 0x3f, 0xa6, 0x3d,
 0x73, 0xbc, 0x13, 0xbe, 0xe4, 0x35, 0x91, 0x3d, 0x30, 0xce, 0x75, 0xbe,
 0x84, 0xa2, 0xaf, 0xbd, 0xb4, 0xb7, 0x14, 0x3e, 0x84, 0x27, 0x59, 0xbe,
 0xc6, 0xd6, 0x82, 0xbd, 0x68, 0xd0, 0x0f, 0xbe, 0xbc, 0x26, 0x3b, 0xbd,
 0x00, 0xd6, 0xe6, 0x3d, 0x88, 0x1d, 0x79, 0xbe, 0xa0, 0x50, 0xcc, 0x3d,
 0x34, 0x82, 0x17, 0xbe, 0xa0, 0x6d, 0x46, 0xbe, 0x7b, 0x0a, 0x38, 0xbe,
 0x9d, 0xd4, 0x89, 0xbe, 0xbb, 0x4a, 0x86, 0xbd, 0x4a, 0x45, 0x20, 0x3e,
 0xc5, 0x1d, 0xd6, 0xbd, 0x6e, 0xa0, 0x19, 0x3e, 0xe1, 0x60, 0x14, 0x3e,
 0xee, 0x13, 0x66, 0xbd, 0x0d, 0x06, 0xf2, 0xbc, 0xb6, 0xdf, 0x1b, 0x3d,
 0x7d, 0x8a, 0xe9, 0x3d, 0x34, 0x65, 0x7b, 0x3d, 0x10, 0x60, 0x57, 0xbe,
 0x75, 0x88, 0x42, 0x3e, 0xbb, 0xa6, 0xe4, 0x3d, 0x39, 0x5b, 0x31, 0xbe,
 0xd9, 0xe1, 0x75, 0xbe, 0x6d, 0xc0, 0x3a, 0xbe, 0x01, 0x9d, 0xfa, 0xbd,
 0xeb, 0x77, 0x1d, 0x3e, 0x8e, 0x39, 0x4c, 0xbd, 0x5e, 0x58, 0xad, 0x3e,
 0x32, 0xf3, 0x8b, 0x3e, 0xdf, 0xff, 0x15, 0x3e, 0x47, 0x75, 0x31, 0x3d,
 0xa5, 0xe9, 0x74, 0x3e, 0xa8, 0xbf, 0x14, 0x3e, 0xd5, 0x6b, 0xd3, 0xbd,
 0x31, 0x24, 0x95, 0x3e, 0x15, 0x95, 0xe5, 0x3c, 0x7c, 0x62, 0x11, 0x3d,
 0x86, 0x33, 0xbd, 0x3d, 0xb9, 0x7c, 0x4f, 0x3e, 0x39, 0xe8, 0x3d, 0x3e,
 0x54, 0xda, 0x03, 0x3e, 0x34, 0xa3, 0x57, 0x3d, 0xf9, 0x0c, 0xff, 0xbd,
 0x92, 0x1f, 0x5f, 0x3e, 0x81, 0x4c, 0x5b, 0xbe, 0x6c, 0x79, 0x75, 0xbe,
 0xaa, 0x9b, 0x84, 0x3d, 0xe6, 0x31, 0x28, 0x3e, 0x28, 0x78, 0x83, 0xbc,
 0x1d, 0xce, 0x8f, 0xbd, 0x3f, 0x2a, 0x20, 0xbd, 0x87, 0x63, 0x0c, 0xbd,
 0xc4, 0x13, 0xbc, 0xbe, 0xbc, 0xdf, 0x41, 0x3a, 0xfb, 0x55, 0xfb, 0x3e,
 0x04, 0x63, 0xbc, 0xbb, 0x49, 0xdc, 0x96, 0x3e, 0xbc, 0xc2, 0x81, 0x3e,
 0x04, 0x98, 0xa1, 0x3e, 0x8f, 0x69, 0x0c, 0xbf, 0xa7, 0x60, 0x81, 0x3e,
 0xb4, 0xb7, 0x80, 0x3e, 0x1a, 0x7e, 0x96, 0xbe, 0x34, 0xde, 0x94, 0x3d,
 0xac, 0x64, 0xf3, 0x3d, 0x60, 0xb7, 0x45, 0x3f, 0xf0, 0x5d, 0x2f, 0x3e,
 0x47, 0x4b, 0xa3, 0x3e, 0x72, 0x70, 0x06, 0x3e, 0x16, 0x22, 0x10, 0x3b,
 0x78, 0x6b, 0x62, 0xbe, 0xc7, 0x3f, 0x51, 0x3e, 0x04, 0x49, 0x16, 0x3d,
 0x74, 0x38, 0x93, 0xbf, 0x80, 0x03, 0x05, 0x3f, 0x36, 0xc2, 0x8a, 0xbe,
 0x45, 0xf9, 0x8c, 0xbe, 0x99, 0xab, 0x82, 0x3e, 0x31, 0x25, 0xae, 0x3d,
 0xf9, 0x7d, 0xc4, 0x3d, 0xd0, 0x50, 0xa0, 0xbd, 0x52, 0x23, 0x7d, 0x3d,
 0x46, 0x65, 0x2f, 0x3d, 0xdc, 0x82, 0x37, 0x3e, 0xe8, 0xfb, 0x80, 0xbe,
 0x39, 0x83, 0x1d, 0xbf, 0x1a, 0xf3, 0x96, 0x3d, 0x95, 0xb0, 0xc7, 0x3e,
 0x1f, 0x73, 0x04, 0x3d, 0xf9, 0x61, 0xd3, 0xbd, 0x58, 0x97, 0x52, 0x3e,
 0x6b, 0x2a, 0x7c, 0x3d, 0x88, 0xdb, 0x95, 0x3e, 0x58, 0x96, 0x92, 0x3e,
 0x07, 0x7b, 0xb0, 0x3e, 0xf5, 0x33, 0x48, 0x3e, 0xa9, 0xe9, 0x49, 0xbf,
 0x68, 0xed, 0x05, 0xbd, 0x5c, 0x12, 0xa0, 0x3e, 0xca, 0xe7, 0x43, 0xbf,
 0x86, 0x37, 0x4f, 0xbe, 0x10, 0x34, 0x06, 0xbe, 0xe3, 0x52, 0x15, 0xbd,
 0x21, 0xa2, 0x02, 0x3f, 0xeb, 0xd6, 0x1d, 0xbd, 0xc0, 0x4d, 0x95, 0x3e,
 0x98, 0x89, 0xb4, 0xbd, 0x2d, 0x96, 0x88, 0x3e, 0xf9, 0x91, 0x0a, 0xbd,
 0x6d, 0x36, 0xa1, 0xbd, 0xe1, 0x26, 0xa0, 0x3e, 0x3a, 0x0e, 0x2a, 0xbd,
 0xe6, 0xde, 0xc5, 0x3d, 0xcc, 0xff, 0x81, 0x3e, 0x2e, 0xf6, 0xcb, 0x3e,
 0xd2, 0xb1, 0x1b, 0xbf, 0x33, 0x07, 0xf9, 0x3d, 0x67, 0x4d, 0x47, 0x3e,
 0xc8, 0x9c, 0xe3, 0xbe, 0x53, 0xfa, 0x1d, 0x3e, 0xc8, 0x8e, 0x13, 0xbf,
 0x30, 0x7b, 0xe9, 0xbe, 0x51, 0x0f, 0x9c, 0xbf, 0x45, 0x4e, 0x81, 0xbe,
 0x25, 0x77, 0x5c, 0x3e, 0xd5, 0x07, 0x2c, 0xbf, 0x12, 0xbe, 0x00, 0xbe,
 0x59, 0x2a, 0xf6, 0xbe, 0x50, 0x54, 0x0f, 0xbe, 0xae, 0x59, 0x25, 0xbe,
 0x6e, 0xe9, 0xb9, 0x3d, 0x25, 0x56, 0x40, 0xbd, 0xf9, 0x81, 0xa0, 0xbd,
 0xb3, 0x0b, 0x46, 0x3c, 0x5f, 0xf6, 0x99, 0xbe, 0xa2, 0x35, 0xae, 0x3d,
 0xed, 0x79, 0xc3, 0x3d, 0xf7, 0x0a, 0x34, 0x3e, 0xe2, 0x9b, 0xbd, 0xbc,
 0x7d, 0x4e, 0x18, 0xbd, 0xe5, 0xde, 0x56, 0xbe, 0xe7, 0x2d, 0x37, 0x3d,
 0xf7, 0x95, 0x7b, 0x3e, 0xcd, 0xb6, 0x2e, 0x3d, 0x11, 0x69, 0x6b, 0xbd,
 0xb6, 0x77, 0x49, 0x3e, 0xef, 0xfc, 0xfd, 0x3d, 0xd6, 0x69, 0xd1, 0xbd,
 0xc5, 0xf2, 0x96, 0xbd, 0x2f, 0x0a, 0xce, 0xbc, 0x68, 0x26, 0xf2, 0xbd,
 0x81, 0xea, 0x9d, 0x3e, 0x8d, 0x73, 0x8a, 0x3e, 0x13, 0x1f, 0x5d, 0x3d,
 0x2d, 0x83, 0x31, 0xbe, 0x10, 0x0d, 0x27, 0x3e, 0x3f, 0x0d, 0x58, 0x3d,
 0x92, 0x15, 0x6b, 0x3e, 0xd1, 0x7c, 0x4e, 0x3d, 0xbc, 0x5b, 0x98, 0x3e,
 0x7a, 0xa5, 0x50, 0xbc, 0x0e, 0xfa, 0x68, 0xbd, 0x15, 0xa3, 0x5d, 0x3d,
 0x88, 0xf9, 0x75, 0xbe, 0x01, 0x82, 0x74, 0x3d, 0xc7, 0x05, 0x2f, 0x3c,
 0x47, 0x75, 0x71, 0x3d, 0x44, 0xb2, 0x89, 0x3d, 0x62, 0x55, 0x6a, 0x3e,
 0x2d, 0xae, 0x91, 0x3e, 0x69, 0x98, 0x73, 0x3d, 0xad, 0x07, 0xaf, 0x3d,
 0xca, 0x99, 0x7e, 0x3b, 0x49, 0x4c, 0x69, 0x3e, 0x08, 0xb1, 0xdd, 0x3d,
 0xa1, 0xfa, 0xe9, 0xbd, 0x0a, 0x0c, 0x99, 0x3e, 0x07, 0x31, 0xed, 0x3e,
 0x28, 0x4b, 0x55, 0x3d, 0xd4, 0x4d, 0x04, 0xbf, 0x92, 0xb5, 0x69, 0x3e,
 0x6a, 0x3c, 0xc1, 0x3d, 0xd7, 0xed, 0x0d, 0xbe, 0x80, 0x69, 0xd7, 0xbd,
 0x23, 0xfc, 0x29, 0xbf, 0xa1, 0x94, 0xae, 0x3d, 0xc0, 0xf6, 0xfd, 0xb9,
 0x2e, 0x3b, 0x92, 0xbd, 0xa3, 0x23, 0x40, 0x3d, 0x18, 0xd5, 0x0d, 0x3f,
 0xc2, 0x29, 0xb5, 0x3d, 0x68, 0x39, 0xcd, 0xbd, 0x6a, 0xf1, 0x77, 0xbe,
 0xcc, 0xe3, 0xcf, 0x3e, 0xf8, 0xb9, 0x61, 0x3e, 0xc9, 0x27, 0x39, 0xbe,
 0x4f, 0xd9, 0xb7, 0xbe, 0x99, 0x5b, 0x5b, 0xbd, 0x56, 0x48, 0x09, 0x3f,
 0xa5, 0xdb, 0x5d, 0xbf, 0xb7, 0x1e, 0x50, 0xbd, 0x16, 0x07, 0x11, 0xbe,
 0x8e, 0x33, 0x87, 0xbe, 0x96, 0x5e, 0x94, 0xbe, 0xe7, 0xa6, 0x6e, 0x3d,
 0x5a, 0xd1, 0xb6, 0x3e, 0x82, 0x45, 0xe1, 0xbd, 0xb3, 0x8e, 0x7c, 0x3e,
 0x82, 0x6b, 0x4b, 0xbe, 0x67, 0x98, 0x06, 0xbd, 0xb9, 0x43, 0x23, 0xbe,
 0x78, 0xd6, 0x41, 0x3e, 0x72, 0x9e, 0x5c, 0x3e, 0x25, 0x3b, 0x09, 0x3e,
 0x0d, 0xd2, 0x77, 0x3d, 0xdf, 0xa2, 0xcd, 0xbd, 0xb6, 0x5b, 0x11, 0x3e,
 0x7e, 0xe1, 0x37, 0x3e, 0xe4, 0xe1, 0x1d, 0xbe, 0x17, 0x32, 0x3b, 0xbd,
 0x25, 0x97, 0x1c, 0xbe, 0xcf, 0xac, 0x29, 0x3c, 0xf1, 0xf1, 0x1f, 0xbe,
 0x8d, 0x33, 0x75, 0x3e, 0x55, 0x79, 0xb7, 0x3d, 0xbd, 0xd2, 0x7a, 0xbe,
 0xf4, 0xf2, 0xc2, 0x3d, 0x58, 0xc6, 0x64, 0xbe, 0x2a, 0xe7, 0xbf, 0x3d,
 0xa3, 0x1b, 0x8c, 0xbe, 0xcb, 0x97, 0x02, 0x3d, 0x8f, 0xfe, 0xba, 0xbd,
 0x66, 0x46, 0xba, 0xbc, 0x67, 0xf5, 0x4c, 0x3e, 0x9f, 0x9a, 0x2d, 0x3e,
 0xe4, 0x50, 0x28, 0xbe, 0x8d, 0x53, 0x0c, 0x3e, 0xcc, 0xa1, 0x84, 0xbe,
 0xca, 0x48, 0x33, 0x3c, 0xed, 0xe3, 0x71, 0xbe, 0x4c, 0x39, 0x82, 0x3e,
 0x19, 0xb3, 0x7c, 0xbe, 0x43, 0x11, 0x02, 0xbe, 0x58, 0xb5, 0x14, 0x3d,
 0x3d, 0x81, 0x37, 0x3d, 0xbf, 0x3f, 0x1e, 0x3d, 0xd4, 0x60, 0x3d, 0xbe,
 0xcc, 0xcb, 0x89, 0x3e, 0x72, 0xc1, 0xcf, 0x3b, 0x5b, 0x36, 0x71, 0x3d,
 0x75, 0xf0, 0xc0, 0xbd, 0x72, 0x62, 0x0e, 0xbe, 0x5b, 0x65, 0x19, 0xbd,
 0x51, 0x5a, 0x8d, 0xbd, 0x57, 0x5f, 0x87, 0x3e, 0xf2, 0xdf, 0x79, 0x3d,
 0x97, 0xc6, 0x02, 0x3e, 0x1a, 0x80, 0x35, 0xbe, 0xc9, 0xf8, 0x02, 0xbf,
 0x2e, 0xe2, 0x24, 0xbf, 0x01, 0xc1, 0xfc, 0xbe, 0xd1, 0x67, 0x87, 0x3e,
 0x18, 0xb4, 0x42, 0x3d, 0x5b, 0x17, 0x83, 0x3e, 0x49, 0xd7, 0xaf, 0xbe,
 0x19, 0x4d, 0x96, 0xbe, 0x58, 0x42, 0x26, 0xbd, 0xf3, 0x87, 0xab, 0xbd,
 0xb7, 0xcc, 0x17, 0xbe, 0x18, 0xb0, 0x8f, 0x3e, 0x24, 0xd4, 0xc3, 0x3e,
 0x93, 0xa7, 0xed, 0x3c, 0xa4, 0xa3, 0x95, 0x3e, 0x3a, 0xd1, 0x28, 0xbe,
 0xd6, 0xe8, 0xf7, 0x3c, 0xe5, 0xba, 0x82, 0x3e, 0xd2, 0x0c, 0xb4, 0xbe,
 0xe1, 0x38, 0x9e, 0xbe, 0x31, 0x1c, 0xa8, 0xbd, 0x56, 0x7e, 0x16, 0xbf,
 0x9b, 0xea, 0x81, 0xbe, 0x3e, 0x24, 0x69, 0x3d, 0x5b, 0x62, 0x5c, 0x3d,
 0x76, 0x38, 0x8c, 0xbe, 0x2a, 0x64, 0x6a, 0xbe, 0x19, 0x73, 0xe4, 0x3a,
 0x3e, 0x15, 0xd4, 0xbe, 0x15, 0x2d, 0x5c, 0xbe, 0x52, 0xff, 0xff, 0xff,
 0x04, 0x00, 0x00, 0x00, 0xa0, 0x00, 0x00, 0x00, 0xb8, 0x87, 0xee, 0xbe,
 0xdc, 0x0e, 0xd7, 0xbe, 0xd6, 0x8d, 0xc7, 0x3e, 0x99, 0x13, 0xa5, 0xbe,
 0x67, 0x3b, 0x58, 0xbe, 0xb6, 0x61, 0xc4, 0x3e, 0x51, 0x06, 0x1f, 0xbc,
 0x96, 0xc3, 0x6c, 0xbc, 0x00, 0x00, 0x00, 0x00, 0xe9, 0xf5, 0x81, 0xbc,
 0x55, 0xca, 0xe2, 0x3e, 0x0d, 0x6b, 0xda, 0xbe, 0x8f, 0xec, 0xf2, 0xbd,
 0x81, 0x82, 0xdf, 0xbe, 0x00, 0x00, 0x00, 0x00, 0x00, 0x00, 0x00, 0x00,
 0x97, 0xfa, 0xdb, 0xbd, 0x00, 0x00, 0x00, 0x00, 0x79, 0x6e, 0xed, 0xbe,
 0x44, 0x9d, 0xd5, 0xbe, 0x00, 0x00, 0x00, 0x00, 0xf8, 0xeb, 0xd5, 0xbe,
 0x28, 0x3c, 0xdd, 0xba, 0xf8, 0xe9, 0xdd, 0x3c, 0x6b, 0x65, 0xfc, 0xbe,
 0x00, 0x00, 0x00, 0x00, 0x91, 0x59, 0xc9, 0x3e, 0x4e, 0xbe, 0xbf, 0x3e,
 0xe6, 0x19, 0xd9, 0xbe, 0x9f, 0x86, 0x08, 0xbe, 0x5e, 0x36, 0xab, 0xbe,
 0xac, 0x6d, 0x76, 0xbc, 0x00, 0x00, 0x00, 0x00, 0x12, 0x63, 0x9b, 0x3e,
 0x5c, 0x4a, 0x6d, 0xbe, 0x30, 0xbb, 0x17, 0x3e, 0xdb, 0x51, 0xd8, 0xbe,
 0xb6, 0xec, 0x07, 0xbe, 0x7e, 0x57, 0xd9, 0xbe, 0x60, 0xec, 0xf8, 0x3e,
 0x00, 0x00, 0x06, 0x00, 0x08, 0x00, 0x04, 0x00, 0x06, 0x00, 0x00, 0x00,
 0x04, 0x00, 0x00, 0x00, 0x04, 0x00, 0x00, 0x00, 0x1e, 0xd1, 0xd0, 0x3e,
 0xe4, 0xfb, 0xff, 0xff, 0xe8, 0xfb, 0xff, 0xff, 0x0f, 0x00, 0x00, 0x00,
 0x4d, 0x4c, 0x49, 0x52, 0x20, 0x43, 0x6f, 0x6e, 0x76, 0x65, 0x72, 0x74,
 0x65, 0x64, 0x2e, 0x00, 0x01, 0x00, 0x00, 0x00, 0x14, 0x00, 0x00, 0x00,
 0x00, 0x00, 0x0e, 0x00, 0x18, 0x00, 0x14, 0x00, 0x10, 0x00, 0x0c, 0x00,
 0x08, 0x00, 0x04, 0x00, 0x0e, 0x00, 0x00, 0x00, 0x14, 0x00, 0x00, 0x00,
 0x1c, 0x00, 0x00, 0x00, 0xd0, 0x00, 0x00, 0x00, 0xd4, 0x00, 0x00, 0x00,
 0xd8, 0x00, 0x00, 0x00, 0x04, 0x00, 0x00, 0x00, 0x6d, 0x61, 0x69, 0x6e,
 0x00, 0x00, 0x00, 0x00, 0x03, 0x00, 0x00, 0x00, 0x78, 0x00, 0x00, 0x00,
 0x34, 0x00, 0x00, 0x00, 0x10, 0x00, 0x00, 0x00, 0x00, 0x00, 0x0a, 0x00,
 0x10, 0x00, 0x0c, 0x00, 0x08, 0x00, 0x04, 0x00, 0x0a, 0x00, 0x00, 0x00,
 0x0c, 0x00, 0x00, 0x00, 0x10, 0x00, 0x00, 0x00, 0x01, 0x00, 0x00, 0x00,
 0x01, 0x00, 0x00, 0x00, 0x07, 0x00, 0x00, 0x00, 0x01, 0x00, 0x00, 0x00,
 0x06, 0x00, 0x00, 0x00, 0xce, 0xff, 0xff, 0xff, 0x10, 0x00, 0x00, 0x00,
 0x00, 0x00, 0x00, 0x08, 0x0c, 0x00, 0x00, 0x00, 0x10, 0x00, 0x00, 0x00,
 0x8c, 0xfc, 0xff, 0xff, 0x01, 0x00, 0x00, 0x00, 0x06, 0x00, 0x00, 0x00,
 0x03, 0x00, 0x00, 0x00, 0x05, 0x00, 0x00, 0x00, 0x04, 0x00, 0x00, 0x00,
 0x01, 0x00, 0x00, 0x00, 0x00, 0x00, 0x0e, 0x00, 0x16, 0x00, 0x00, 0x00,
 0x10, 0x00, 0x0c, 0x00, 0x0b, 0x00, 0x04, 0x00, 0x0e, 0x00, 0x00, 0x00,
 0x18, 0x00, 0x00, 0x00, 0x00, 0x00, 0x00, 0x08, 0x18, 0x00, 0x00, 0x00,
 0x1c, 0x00, 0x00, 0x00, 0x00, 0x00, 0x06, 0x00, 0x08, 0x00, 0x07, 0x00,
 0x06, 0x00, 0x00, 0x00, 0x00, 0x00, 0x00, 0x01, 0x01, 0x00, 0x00, 0x00,
 0x05, 0x00, 0x00, 0x00, 0x03, 0x00, 0x00, 0x00, 0x00, 0x00, 0x00, 0x00,
 0x03, 0x00, 0x00, 0x00, 0x02, 0x00, 0x00, 0x00, 0x01, 0x00, 0x00, 0x00,
 0x07, 0x00, 0x00, 0x00, 0x01, 0x00, 0x00, 0x00, 0x00, 0x00, 0x00, 0x00,
 0x08, 0x00, 0x00, 0x00, 0xd0, 0x02, 0x00, 0x00, 0x60, 0x02, 0x00, 0x00,
 0xf4, 0x01, 0x00, 0x00, 0xac, 0x01, 0x00, 0x00, 0x60, 0x01, 0x00, 0x00,
 0xd8, 0x00, 0x00, 0x00, 0x60, 0x00, 0x00, 0x00, 0x04, 0x00, 0x00, 0x00,
 0x66, 0xfd, 0xff, 0xff, 0x00, 0x00, 0x00, 0x01, 0x14, 0x00, 0x00, 0x00,
 0x1c, 0x00, 0x00, 0x00, 0x1c, 0x00, 0x00, 0x00, 0x08, 0x00, 0x00, 0x00,
 0x34, 0x00, 0x00, 0x00, 0x02, 0x00, 0x00, 0x00, 0xff, 0xff, 0xff, 0xff,
 0x01, 0x00, 0x00, 0x00, 0x50, 0xfd, 0xff, 0xff, 0x19, 0x00, 0x00, 0x00,
 0x53, 0x74, 0x61, 0x74, 0x65, 0x66, 0x75, 0x6c, 0x50, 0x61, 0x72, 0x74,
 0x69, 0x74, 0x69, 0x6f, 0x6e, 0x65, 0x64, 0x43, 0x61, 0x6c, 0x6c, 0x3a,
 0x30, 0x00, 0x00, 0x00, 0x02, 0x00, 0x00, 0x00, 0x01, 0x00, 0x00, 0x00,
 0x01, 0x00, 0x00, 0x00, 0xbe, 0xfd, 0xff, 0xff, 0x00, 0x00, 0x00, 0x01,
 0x14, 0x00, 0x00, 0x00, 0x1c, 0x00, 0x00, 0x00, 0x1c, 0x00, 0x00, 0x00,
 0x07, 0x00, 0x00, 0x00, 0x50, 0x00, 0x00, 0x00, 0x02, 0x00, 0x00, 0x00,
 0xff, 0xff, 0xff, 0xff, 0x01, 0x00, 0x00, 0x00, 0xa8, 0xfd, 0xff, 0xff,
 0x34, 0x00, 0x00, 0x00, 0x73, 0x65, 0x71, 0x75, 0x65, 0x6e, 0x74, 0x69,
 0x61, 0x6c, 0x2f, 0x64, 0x65, 0x6e, 0x73, 0x65, 0x5f, 0x31, 0x2f, 0x4d,
 0x61, 0x74, 0x4d, 0x75, 0x6c, 0x3b, 0x73, 0x65, 0x71, 0x75, 0x65, 0x6e,
 0x74, 0x69, 0x61, 0x6c, 0x2f, 0x64, 0x65, 0x6e, 0x73, 0x65, 0x5f, 0x31,
 0x2f, 0x42, 0x69, 0x61, 0x73, 0x41, 0x64, 0x64, 0x00, 0x00, 0x00, 0x00,
 0x02, 0x00, 0x00, 0x00, 0x01, 0x00, 0x00, 0x00, 0x01, 0x00, 0x00, 0x00,
 0x32, 0xfe, 0xff, 0xff, 0x00, 0x00, 0x00, 0x01, 0x14, 0x00, 0x00, 0x00,
 0x1c, 0x00, 0x00, 0x00, 0x1c, 0x00, 0x00, 0x00, 0x06, 0x00, 0x00, 0x00,
 0x60, 0x00, 0x00, 0x00, 0x02, 0x00, 0x00, 0x00, 0xff, 0xff, 0xff, 0xff,
 0x28, 0x00, 0x00, 0x00, 0x1c, 0xfe, 0xff, 0xff, 0x46, 0x00, 0x00, 0x00,
 0x73, 0x65, 0x71, 0x75, 0x65, 0x6e, 0x74, 0x69, 0x61, 0x6c, 0x2f, 0x64,
 0x65, 0x6e, 0x73, 0x65, 0x2f, 0x4d, 0x61, 0x74, 0x4d, 0x75, 0x6c, 0x3b,
 0x73, 0x65, 0x71, 0x75, 0x65, 0x6e, 0x74, 0x69, 0x61, 0x6c, 0x2f, 0x64,
 0x65, 0x6e, 0x73, 0x65, 0x2f, 0x52, 0x65, 0x6c, 0x75, 0x3b, 0x73, 0x65,
 0x71, 0x75, 0x65, 0x6e, 0x74, 0x69, 0x61, 0x6c, 0x2f, 0x64, 0x65, 0x6e,
 0x73, 0x65, 0x2f, 0x42, 0x69, 0x61, 0x73, 0x41, 0x64, 0x64, 0x00, 0x00,
 0x02, 0x00, 0x00, 0x00, 0x01, 0x00, 0x00, 0x00, 0x28, 0x00, 0x00, 0x00,
 0x22, 0xff, 0xff, 0xff, 0x00, 0x00, 0x00, 0x01, 0x10, 0x00, 0x00, 0x00,
 0x10, 0x00, 0x00, 0x00, 0x05, 0x00, 0x00, 0x00, 0x28, 0x00, 0x00, 0x00,
 0x90, 0xfe, 0xff, 0xff, 0x19, 0x00, 0x00, 0x00, 0x73, 0x65, 0x71, 0x75,
 0x65, 0x6e, 0x74, 0x69, 0x61, 0x6c, 0x2f, 0x64, 0x65, 0x6e, 0x73, 0x65,
 0x5f, 0x31, 0x2f, 0x4d, 0x61, 0x74, 0x4d, 0x75, 0x6c, 0x00, 0x00, 0x00,
 0x02, 0x00, 0x00, 0x00, 0x01, 0x00, 0x00, 0x00, 0x28, 0x00, 0x00, 0x00,
 0x6a, 0xff, 0xff, 0xff, 0x00, 0x00, 0x00, 0x01, 0x10, 0x00, 0x00, 0x00,
 0x10, 0x00, 0x00, 0x00, 0x04, 0x00, 0x00, 0x00, 0x24, 0x00, 0x00, 0x00,
 0xd8, 0xfe, 0xff, 0xff, 0x17, 0x00, 0x00, 0x00, 0x73, 0x65, 0x71, 0x75,
 0x65, 0x6e, 0x74, 0x69, 0x61, 0x6c, 0x2f, 0x64, 0x65, 0x6e, 0x73, 0x65,
 0x2f, 0x4d, 0x61, 0x74, 0x4d, 0x75, 0x6c, 0x00, 0x02, 0x00, 0x00, 0x00,
 0x28, 0x00, 0x00, 0x00, 0x28, 0x00, 0x00, 0x00, 0xae, 0xff, 0xff, 0xff,
 0x00, 0x00, 0x00, 0x01, 0x10, 0x00, 0x00, 0x00, 0x10, 0x00, 0x00, 0x00,
 0x03, 0x00, 0x00, 0x00, 0x34, 0x00, 0x00, 0x00, 0x1c, 0xff, 0xff, 0xff,
 0x27, 0x00, 0x00, 0x00, 0x73, 0x65, 0x71, 0x75, 0x65, 0x6e, 0x74, 0x69,
 0x61, 0x6c, 0x2f, 0x64, 0x65, 0x6e, 0x73, 0x65, 0x2f, 0x42, 0x69, 0x61,
 0x73, 0x41, 0x64, 0x64, 0x2f, 0x52, 0x65, 0x61, 0x64, 0x56, 0x61, 0x72,
 0x69, 0x61, 0x62, 0x6c, 0x65, 0x4f, 0x70, 0x00, 0x01, 0x00, 0x00, 0x00,
 0x28, 0x00, 0x00, 0x00, 0x00, 0x00, 0x16, 0x00, 0x18, 0x00, 0x14, 0x00,
 0x00, 0x00, 0x10, 0x00, 0x0c, 0x00, 0x08, 0x00, 0x00, 0x00, 0x00, 0x00,
 0x00, 0x00, 0x07, 0x00, 0x16, 0x00, 0x00, 0x00, 0x00, 0x00, 0x00, 0x01,
 0x10, 0x00, 0x00, 0x00, 0x10, 0x00, 0x00, 0x00, 0x02, 0x00, 0x00, 0x00,
 0x38, 0x00, 0x00, 0x00, 0x84, 0xff, 0xff, 0xff, 0x29, 0x00, 0x00, 0x00,
 0x73, 0x65, 0x71, 0x75, 0x65, 0x6e, 0x74, 0x69, 0x61, 0x6c, 0x2f, 0x64,
 0x65, 0x6e, 0x73, 0x65, 0x5f, 0x31, 0x2f, 0x42, 0x69, 0x61, 0x73, 0x41,
 0x64, 0x64, 0x2f, 0x52, 0x65, 0x61, 0x64, 0x56, 0x61, 0x72, 0x69, 0x61,
 0x62, 0x6c, 0x65, 0x4f, 0x70, 0x00, 0x00, 0x00, 0x01, 0x00, 0x00, 0x00,
 0x01, 0x00, 0x00, 0x00, 0x00, 0x00, 0x16, 0x00, 0x1c, 0x00, 0x18, 0x00,
 0x00, 0x00, 0x14, 0x00, 0x10, 0x00, 0x0c, 0x00, 0x00, 0x00, 0x00, 0x00,
 0x08, 0x00, 0x07, 0x00, 0x16, 0x00, 0x00, 0x00, 0x00, 0x00, 0x00, 0x01,
 0x14, 0x00, 0x00, 0x00, 0x20, 0x00, 0x00, 0x00, 0x20, 0x00, 0x00, 0x00,
 0x01, 0x00, 0x00, 0x00, 0x3c, 0x00, 0x00, 0x00, 0x02, 0x00, 0x00, 0x00,
 0xff, 0xff, 0xff, 0xff, 0x28, 0x00, 0x00, 0x00, 0x04, 0x00, 0x04, 0x00,
 0x04, 0x00, 0x00, 0x00, 0x1d, 0x00, 0x00, 0x00, 0x73, 0x65, 0x72, 0x76,
 0x69, 0x6e, 0x67, 0x5f, 0x64, 0x65, 0x66, 0x61, 0x75, 0x6c, 0x74, 0x5f,
 0x64, 0x65, 0x6e, 0x73, 0x65, 0x5f, 0x69, 0x6e, 0x70, 0x75, 0x74, 0x3a,
 0x30, 0x00, 0x00, 0x00, 0x02, 0x00, 0x00, 0x00, 0x01, 0x00, 0x00, 0x00,
 0x28, 0x00, 0x00, 0x00, 0x02, 0x00, 0x00, 0x00, 0x20, 0x00, 0x00, 0x00,
 0x04, 0x00, 0x00, 0x00, 0xf4, 0xff, 0xff, 0xff, 0x0e, 0x00, 0x00, 0x00,
 0x00, 0x00, 0x00, 0x0e, 0x0c, 0x00, 0x0c, 0x00, 0x0b, 0x00, 0x00, 0x00,
 0x00, 0x00, 0x04, 0x00, 0x0c, 0x00, 0x00, 0x00, 0x09, 0x00, 0x00, 0x00,
 0x00, 0x00, 0x00, 0x09
};

#endif //TINYML_MODEL_H