#ifndef TINYML_MODEL_H
#define TINYML_MODEL_H


unsigned int tinyml_model_len = 8380;
unsigned char tinyml_model[] = {
0x1c, 0x00, 0x00, 0x00, 0x54, 0x46, 0x4c, 0x33, 0x14, 0x00, 0x20, 0x00,
 0x1c, 0x00, 0x18, 0x00, 0x14, 0x00, 0x10, 0x00, 0x0c, 0x00, 0x00, 0x00,
 0x08, 0x00, 0x04, 0x00, 0x14, 0x00, 0x00, 0x00, 0x1c, 0x00, 0x00, 0x00,
 0x84, 0x00, 0x00, 0x00, 0xdc, 0x00, 0x00, 0x00, 0x14, 0x1c, 0x00, 0x00,
 0x24, 0x1c, 0x00, 0x00, 0x58, 0x20, 0x00, 0x00, 0x03, 0x00, 0x00, 0x00,
 0x01, 0x00, 0x00, 0x00, 0x04, 0x00, 0x00, 0x00, 0xa2, 0xe3, 0xff, 0xff,
 0x0c, 0x00, 0x00, 0x00, 0x1c, 0x00, 0x00, 0x00, 0x38, 0x00, 0x00, 0x00,
 0x0f, 0x00, 0x00, 0x00, 0x73, 0x65, 0x72, 0x76, 0x69, 0x6e, 0x67, 0x5f,
 0x64, 0x65, 0x66, 0x61, 0x75, 0x6c, 0x74, 0x00, 0x01, 0x00, 0x00, 0x00,
 0x04, 0x00, 0x00, 0x00, 0x98, 0xff, 0xff, 0xff, 0x07, 0x00, 0x00, 0x00,
 0x04, 0x00, 0x00, 0x00, 0x07, 0x00, 0x00, 0x00, 0x64, 0x65, 0x6e, 0x73,
 0x65, 0x5f, 0x31, 0x00, 0x01, 0x00, 0x00, 0x00, 0x04, 0x00, 0x00, 0x00,
 0x6e, 0xe4, 0xff, 0xff, 0x04, 0x00, 0x00, 0x00, 0x0b, 0x00, 0x00, 0x00,
 0x64, 0x65, 0x6e, 0x73, 0x65, 0x5f, 0x69, 0x6e, 0x70, 0x75, 0x74, 0x00,
 0x02, 0x00, 0x00, 0x00, 0x34, 0x00, 0x00, 0x00, 0x04, 0x00, 0x00, 0x00,
 0xdc, 0xff, 0xff, 0xff, 0x0a, 0x00, 0x00, 0x00, 0x04, 0x00, 0x00, 0x00,
 0x13, 0x00, 0x00, 0x00, 0x43, 0x4f, 0x4e, 0x56, 0x45, 0x52, 0x53, 0x49,
 0x4f, 0x4e, 0x5f, 0x4d, 0x45, 0x54, 0x41, 0x44, 0x41, 0x54, 0x41, 0x00,
 0x08, 0x00, 0x0c, 0x00, 0x08, 0x00, 0x04, 0x00, 0x08, 0x00, 0x00, 0x00,
 0x09, 0x00, 0x00, 0x00, 0x04, 0x00, 0x00, 0x00, 0x13, 0x00, 0x00, 0x00,
 0x6d, 0x69, 0x6e, 0x5f, 0x72, 0x75, 0x6e, 0x74, 0x69, 0x6d, 0x65, 0x5f,
 0x76, 0x65, 0x72, 0x73, 0x69, 0x6f, 0x6e, 0x00, 0x0b, 0x00, 0x00, 0x00,
 0x34, 0x1b, 0x00, 0x00, 0x2c, 0x1b, 0x00, 0x00, 0x18, 0x1b, 0x00, 0x00,
 0x60, 0x1a, 0x00, 0x00, 0x50, 0x01, 0x00, 0x00, 0xa0, 0x00, 0x00, 0x00,
 0x98, 0x00, 0x00, 0x00, 0x90, 0x00, 0x00, 0x00, 0x88, 0x00, 0x00, 0x00,
 0x68, 0x00, 0x00, 0x00, 0x04, 0x00, 0x00, 0x00, 0x12, 0xe5, 0xff, 0xff,
 0x04, 0x00, 0x00, 0x00, 0x54, 0x00, 0x00, 0x00, 0x0c, 0x00, 0x00, 0x00,
 0x08, 0x00, 0x0e, 0x00, 0x08, 0x00, 0x04, 0x00, 0x08, 0x00, 0x00, 0x00,
 0x10, 0x00, 0x00, 0x00, 0x24, 0x00, 0x00, 0x00, 0x00, 0x00, 0x06, 0x00,
 0x08, 0x00, 0x04, 0x00, 0x06, 0x00, 0x00, 0x00, 0x04, 0x00, 0x00, 0x00,
 0x00, 0x00, 0x00, 0x00, 0x00, 0x00, 0x0a, 0x00, 0x10, 0x00, 0x0c, 0x00,
 0x08, 0x00, 0x04, 0x00, 0x0a, 0x00, 0x00, 0x00, 0x02, 0x00, 0x00, 0x00,
 0x02, 0x00, 0x00, 0x00, 0x04, 0x00, 0x00, 0x00, 0x06, 0x00, 0x00, 0x00,
 0x32, 0x2e, 0x31, 0x35, 0x2e, 0x30, 0x00, 0x00, 0x72, 0xe5, 0xff, 0xff,
 0x04, 0x00, 0x00, 0x00, 0x10, 0x00, 0x00, 0x00, 0x31, 0x2e, 0x31, 0x34,
 0x2e, 0x30, 0x00, 0x00, 0x00, 0x00, 0x00, 0x00, 0x00, 0x00, 0x00, 0x00,
 0x5c, 0xe1, 0xff, 0xff, 0x60, 0xe1, 0xff, 0xff, 0x64, 0xe1, 0xff, 0xff,
 0x9a, 0xe5, 0xff, 0xff, 0x04, 0x00, 0x00, 0x00, 0xa0, 0x00, 0x00, 0x00,
 0x9b, 0xd6, 0xc1, 0xbd, 0xb0, 0xd2, 0x37, 0xbe, 0x2d, 0xcd, 0x13, 0xbe,
 0x37, 0x57, 0x8c, 0x3e, 0x1c, 0x65, 0xfb, 0xbd, 0x15, 0xc2, 0x6f, 0x3e,
 0x7e, 0x0b, 0x43, 0xbe, 0x75, 0x01, 0x5e, 0xbe, 0xd9, 0x2e, 0xf6, 0xbd,
 0xd5, 0xf3, 0x8f, 0x3e, 0xec, 0x68, 0x09, 0xbe, 0xfc, 0x80, 0x20, 0xbe,
 0xfe, 0xb2, 0x4d, 0xbe, 0xf3, 0x1b, 0x32, 0xbe, 0x94, 0x0a, 0x81, 0xbd,
 0xde, 0xaa, 0xaa, 0x3e, 0xce, 0xe2, 0x1e, 0x3e, 0x46, 0x95, 0xa7, 0x3e,
 0x3e, 0x4d, 0x3e, 0x3e, 0x33, 0x9b, 0x6f, 0xbe, 0x30, 0x28, 0xb9, 0x3e,
 0xe6, 0xed, 0x31, 0xbe, 0x12, 0x17, 0xb3, 0x3e, 0xf3, 0x37, 0x23, 0xbe,
 0x9c, 0x17, 0x2d, 0xbe, 0x03, 0x42, 0xa7, 0xbe, 0x7a, 0x4f, 0xe4, 0x3c,
 0x46, 0x56, 0x38, 0x3e, 0x40, 0x4f, 0x15, 0xbe, 0x8b, 0x03, 0x4a, 0xbc,
 0xfa, 0xd1, 0x53, 0x3e, 0xc6, 0x24, 0xbb, 0xbe, 0xab, 0xda, 0x59, 0xbe,
 0xae, 0x84, 0x7a, 0x3e, 0x29, 0xd1, 0x9a, 0x3e, 0xd2, 0xd5, 0x86, 0x3e,
 0x69, 0xbb, 0xc9, 0x3d, 0x62, 0xe4, 0x92, 0xbe, 0xc2, 0x40, 0x9f, 0xbe,
 0x26, 0xef, 0x9d, 0x3e, 0x46, 0xe6, 0xff, 0xff, 0x04, 0x00, 0x00, 0x00,
 0x00, 0x19, 0x00, 0x00, 0x03, 0x77, 0xb5, 0xbd, 0x52, 0x4f, 0x51, 0x3e,
 0x78, 0x38, 0x8e, 0xbc, 0xc8, 0x3c, 0x93, 0xbd, 0x0f, 0xbe, 0xcf, 0x3d,
 0x7f, 0x21, 0x24, 0xbe, 0x62, 0x9f, 0x87, 0x3e, 0xff, 0x9f, 0xf6, 0x3d,
 0xd7, 0x6b, 0x47, 0xbe, 0x5d, 0xdf, 0xd0, 0xbd, 0x62, 0x68, 0x6d, 0xbe,
 0x70, 0xe2, 0x77, 0x3d, 0xf5, 0xb9, 0x1f, 0xbe, 0xf2, 0x75, 0x1e, 0x3e,
 0x8e, 0xee, 0x14, 0xbe, 0x61, 0x3f, 0x7c, 0xbd, 0x17, 0x45, 0x50, 0x3c,
 0x5a, 0xe4, 0x86, 0xbe, 0xb1, 0xdb, 0x38, 0xbe, 0x32, 0x4f, 0xe2, 0xbd,
 0x50, 0xf8, 0x91, 0xbd, 0x48, 0x54, 0x82, 0x3e, 0x53, 0x13, 0x08, 0xbe,
 0x9e, 0xb8, 0x71, 0x3e, 0x69, 0x54, 0xc5, 0x3d, 0x0f, 0x19, 0x87, 0x3e,
 0x2f, 0xee, 0x9a, 0xbd, 0x80, 0x3e, 0xf3, 0x3d, 0x68, 0xaa, 0x74, 0xbd,
 0x68, 0x18, 0x22, 0x3d, 0xa0, 0xe9, 0x38, 0x3e, 0xc1, 0xcd, 0x6c, 0x3e,
 0xd4, 0xad, 0xc0, 0x3d, 0x1c, 0x7b, 0x2b, 0x3b, 0x02, 0xd3, 0x8e, 0xbe,
 0x85, 0xea, 0x35, 0x3e, 0x2e, 0x72, 0x60, 0xbe, 0x90, 0x80, 0x88, 0x3e,
 0xba, 0xea, 0x13, 0xbe, 0xad, 0x05, 0x2e, 0x3d, 0x68, 0x05, 0xef, 0x3d,
 0x60, 0x04, 0x5a, 0xbc, 0x79, 0xbd, 0x5f, 0xbe, 0xce, 0x18, 0x04, 0xbe,
 0xcc, 0x90, 0xfd, 0x3d, 0x14, 0x0d, 0xda, 0xbd, 0xc0, 0x60, 0x6c, 0x3e,
 0xd8, 0x22, 0x84, 0x3e, 0x92, 0x18, 0x27, 0xbe, 0x71, 0x4d, 0x7f, 0xbe,
 0xe0, 0x49, 0xdb, 0xbc, 0x34, 0xc8, 0x89, 0x3d, 0xe2, 0x3b, 0xa7, 0xbd,
 0xda, 0x0b, 0x1a, 0x3e, 0x00, 0x08, 0x4f, 0xbe, 0x8e, 0xa7, 0xba, 0xbd,
 0x30, 0xce, 0x83, 0x3c, 0x9a, 0x00, 0x4d, 0xbe, 0xc0, 0xdd, 0x5b, 0xbe,
 0x78, 0xb4, 0x52, 0xbd, 0x00, 0xd1, 0x55, 0x3b, 0x88, 0xbc, 0xaf, 0x3d,
 0x7e, 0x01, 0x85, 0x3e, 0x70, 0x0e, 0x87, 0xbc, 0xa7, 0x0d, 0x07, 0xbe,
 0x40, 0x3f, 0xe0, 0xbb, 0x4a, 0xa3, 0x52, 0x3e, 0xaa, 0x46, 0x89, 0xbd,
 0x28, 0x60, 0x87, 0x3d, 0x28, 0x59, 0xfe, 0xbd, 0xe0, 0xdb, 0x47, 0x3d,
 0x40, 0x90, 0x94, 0xbd, 0xf0, 0xde, 0x02, 0x3e, 0x56, 0x7b, 0xce, 0xbd,
 0x00, 0x03, 0x39, 0x3c, 0xd5, 0x76, 0x74, 0xbe, 0xb0, 0xb0, 0xfb, 0x3c,
 0xba, 0x63, 0x3c, 0xbe, 0xa0, 0xbb, 0x43, 0xbc, 0x40, 0x2a, 0xf3, 0x3d,
 0xa2, 0x6e, 0x83, 0x3e, 0x2c, 0x3e, 0x08, 0x3e, 0xf0, 0xce, 0xc4, 0x3c,
 0xfe, 0x22, 0x1a, 0x3e, 0xa0, 0x35, 0x72, 0x3e, 0xa0, 0xd7, 0xe4, 0x3d,
 0xbe, 0x91, 0xb3, 0xbd, 0x90, 0xe2, 0xc9, 0xbc, 0xac, 0x0b, 0x69, 0x3e,
 0x00, 0x33, 0x6a, 0x3d, 0x38, 0xb1, 0xd8, 0xbc, 0x0c, 0xf2, 0x0c, 0xbe,
 0x4a, 0xd9, 0x0d, 0xbe, 0x4f, 0xca, 0x09, 0xbe, 0x94, 0xfe, 0x04, 0xbd,
 0xbc, 0x3f, 0x57, 0x3e, 0xba, 0x80, 0xbb, 0xbd, 0x70, 0xb1, 0x48, 0xbe,
 0x10, 0x97, 0x93, 0x3d, 0x1f, 0xb0, 0x8a, 0xbe, 0xc4, 0xf8, 0x3b, 0x3e,
 0xb4, 0x46, 0x5b, 0x3e, 0xdd, 0x1a, 0x10, 0xbe, 0xc4, 0xf6, 0x68, 0x3e,
 0xbc, 0x28, 0x22, 0xbe, 0x38, 0x83, 0x8b, 0xbe, 0x6c, 0x55, 0x61, 0x3e,
 0x5c, 0xed, 0xe8, 0x3d, 0x10, 0xce, 0xb1, 0xbc, 0x6d, 0xf8, 0x00, 0xbe,
 0x4a, 0xcb, 0x17, 0xbe, 0xac, 0x1c, 0x41, 0xbe, 0x44, 0x9d, 0x6a, 0x3e,
 0x20, 0xaf, 0xc6, 0xbd, 0x1c, 0xf8, 0xa0, 0x3d, 0xcc, 0xb5, 0x9d, 0xbd,
 0x7b, 0x34, 0x45, 0xbe, 0xc4, 0x83, 0x53, 0xbe, 0x4a, 0x4d, 0x33, 0xbe,
 0x43, 0xc7, 0x1c, 0xbe, 0x06, 0x0c, 0x33, 0x3e, 0xf0, 0x8b, 0x4a, 0x3e,
 0xdc, 0x7f, 0x8b, 0x3e, 0x20, 0x94, 0x83, 0x3e, 0xd0, 0xc2, 0xfc, 0xbd,
 0xd0, 0x99, 0x30, 0x3e, 0x3c, 0xc0, 0x86, 0xbe, 0xae, 0x07, 0x85, 0xbe,
 0x20, 0x66, 0xf6, 0x3d, 0xae, 0xdf, 0x60, 0xbe, 0xc0, 0xe5, 0x71, 0x3c,
 0xba, 0x52, 0x10, 0x3e, 0x87, 0xd0, 0x28, 0xbe, 0xf0, 0x42, 0x9c, 0xbc,
 0xe8, 0x7a, 0x87, 0xbe, 0x50, 0xe8, 0x81, 0x3e, 0x3c, 0x0b, 0x9a, 0xbd,
 0xc6, 0xed, 0x09, 0xbe, 0x98, 0x3c, 0x58, 0x3d, 0xac, 0x9a, 0x42, 0x3e,
 0x98, 0xea, 0x8f, 0x3d, 0x43, 0x85, 0x61, 0xbe, 0x18, 0x9b, 0x0c, 0x3e,
 0x0c, 0xad, 0x87, 0xbe, 0xe0, 0x9e, 0x71, 0x3c, 0x38, 0x7d, 0x7c, 0xbd,
 0xf9, 0x80, 0x85, 0xbe, 0xe5, 0xfa, 0x1d, 0xbe, 0x54, 0x23, 0x88, 0x3e,
 0xb8, 0x17, 0xa0, 0xbd, 0xa6, 0x70, 0x36, 0x3e, 0xf8, 0x92, 0xab, 0x3d,
 0x80, 0xd6, 0x0a, 0xbc, 0x6c, 0xfa, 0x74, 0xbe, 0x20, 0x42, 0x6e, 0x3e,
 0xb4, 0x8b, 0xd2, 0x3d, 0x5c, 0x46, 0xbb, 0xbd, 0x38, 0x99, 0x0b, 0x3e,
 0x18, 0xcb, 0xe0, 0x3d, 0x72, 0x44, 0xc8, 0xbd, 0x24, 0x9c, 0x01, 0x3e,
 0xe6, 0xc4, 0xc6, 0xbd, 0x88, 0x98, 0x8c, 0xbd, 0x56, 0x38, 0x80, 0x3e,
 0x1c, 0xf2, 0x8c, 0x3d, 0x52, 0x39, 0x8a, 0x3e, 0x90, 0xeb, 0xf2, 0x3d,
 0x8c, 0x63, 0x5a, 0xbd, 0xdc, 0x12, 0x8b, 0xbe, 0x80, 0x33, 0x07, 0x3e,
 0x7e, 0x4b, 0x33, 0x3e, 0xac, 0x70, 0x50, 0xbe, 0x91, 0x86, 0x65, 0xbe,
 0x88, 0xed, 0x36, 0x3d, 0xac, 0x87, 0x6e, 0xbd, 0x88, 0x8b, 0xac, 0x3d,
 0xd4, 0x30, 0x07, 0xbe, 0x80, 0x5a, 0x43, 0x3b, 0x17, 0x08, 0x84, 0xbe,
 0xcc, 0x39, 0xee, 0x3d, 0x2f, 0xe7, 0x44, 0xbe, 0x8d, 0x7a, 0x3b, 0xbe,
 0x61, 0x82, 0x60, 0xbe, 0xdc, 0x37, 0xd7, 0x3d, 0x70, 0xf2, 0x17, 0x3e,
 0xd2, 0x65, 0xd4, 0xbd, 0x60, 0x82, 0x5b, 0x3c, 0x03, 0xd7, 0x0d, 0xbe,
 0x62, 0xae, 0x97, 0xbd, 0x00, 0xdd, 0x1f, 0x3c, 0xc4, 0x54, 0x27, 0xbe,
 0xf0, 0xca, 0x51, 0xbd, 0xf0, 0x92, 0x52, 0x3d, 0x56, 0x25, 0x64, 0x3e,
 0xe6, 0x24, 0x4a, 0xbe, 0xfc, 0x63, 0xe4, 0x3d, 0x81, 0xf3, 0x7b, 0xbe,
 0x52, 0x49, 0x57, 0xbe, 0x2e, 0xc7, 0x33, 0x3e, 0xa8, 0xca, 0x19, 0xbe,
 0x22, 0xf7, 0x02, 0xbe, 0x31, 0x08, 0x0e, 0x3e, 0x15, 0xd4, 0x86, 0x3d,
 0x59, 0xd8, 0x46, 0x3e, 0x93, 0x1b, 0xd2, 0xbd, 0x21, 0xdd, 0xca, 0x3d,
 0x8e, 0x1a, 0x19, 0x3e, 0xbe, 0x30, 0xb6, 0x3d, 0xb7, 0xff, 0xbf, 0xbd,
 0xe3, 0x18, 0x62, 0xbe, 0xae, 0x46, 0x99, 0x3e, 0x5d, 0x4d, 0x87, 0xbd,
 0x0e, 0xab, 0x33, 0x3c, 0xd3, 0xb1, 0x89, 0x3d, 0xfc, 0x25, 0xbf, 0xbd,
 0x5f, 0x36, 0x33, 0x3d, 0x09, 0x45, 0x21, 0xbd, 0x22, 0x0b, 0xae, 0x3c,
 0x13, 0x7c, 0xa4, 0x3d, 0x51, 0x26, 0x22, 0xbe, 0xdf, 0xd5, 0x01, 0xbe,
 0xcd, 0xda, 0x01, 0xbe, 0xc7, 0xfd, 0x29, 0x3d, 0xc8, 0xbe, 0x85, 0xbe,
 0xb7, 0x2a, 0x06, 0x3e, 0xc1, 0x65, 0x57, 0xbe, 0x40, 0xc1, 0xea, 0x3d,
 0x9f, 0x6a, 0x39, 0xbe, 0x01, 0xd5, 0x12, 0x3e, 0x50, 0xf2, 0x50, 0x3d,
 0x77, 0x89, 0x21, 0xbd, 0x96, 0x45, 0xb0, 0x3b, 0x17, 0x50, 0xbc, 0xbd,
 0xa7, 0x27, 0x35, 0xbe, 0x51, 0x50, 0x63, 0x3e, 0x4c, 0xa9, 0xb8, 0x3c,
 0x3e, 0x44, 0xbb, 0x3d, 0x3a, 0x84, 0xf7, 0x3d, 0x06, 0x87, 0xb6, 0x3b,
 0x88, 0xa0, 0x9f, 0xbd, 0x63, 0x15, 0x14, 0xbe, 0x9f, 0xc1, 0x4f, 0xbe,
 0xf6, 0xf3, 0x2b, 0x3e, 0x00, 0x77, 0xaf, 0xba, 0x33, 0x35, 0x09, 0x3d,
 0x24, 0x13, 0x1d, 0xbd, 0xa1, 0xd7, 0x29, 0x3d, 0x1c, 0x20, 0x36, 0x3e,
 0x4d, 0xca, 0x21, 0x3e, 0x74, 0x98, 0x08, 0xbd, 0xed, 0xdf, 0x54, 0xbe,
 0x47, 0xfd, 0x8a, 0xbe, 0xb4, 0xab, 0xb9, 0xbe, 0x11, 0x9f, 0x1f, 0x3e,
 0x6d, 0x44, 0x36, 0xbe, 0x2d, 0x8c, 0x2a, 0xbe, 0x79, 0x19, 0x9f, 0x3d,
 0x2b, 0x62, 0x38, 0xbe, 0xf2, 0x44, 0xe8, 0xbd, 0x09, 0x1b, 0x24, 0xbe,
 0xb8, 0x5a, 0x62, 0x3e, 0x66, 0x96, 0x91, 0x3e, 0x3f, 0x34, 0x7f, 0xbe,
 0x36, 0x47, 0x0e, 0xbe, 0x73, 0xef, 0x1a, 0x3e, 0x09, 0x43, 0x85, 0x3e,
 0x5c, 0xd8, 0x40, 0xbe, 0x50, 0xe8, 0x3f, 0x3e, 0xb0, 0x7d, 0x51, 0xbe,
 0xef, 0x66, 0xc5, 0x3d, 0xf6, 0xdb, 0xf5, 0x3d, 0x4d, 0x0f, 0xe5, 0x3d,
 0x32, 0x6a, 0x17, 0x3d, 0x2f, 0x2c, 0x7e, 0x3e, 0x38, 0x6f, 0xaa, 0x3d,
 0x34, 0x85, 0xb6, 0x3d, 0xc8, 0x92, 0x27, 0x3e, 0xc4, 0xbd, 0x60, 0x3e,
 0x6d, 0x12, 0xde, 0xbd, 0x12, 0xc1, 0xe0, 0xbb, 0x7c, 0x1f, 0xa4, 0xbd,
 0xc7, 0x3f, 0x6d, 0xbd, 0x81, 0xcc, 0x65, 0xbe, 0x83, 0xa2, 0xa0, 0xbc,
 0xf4, 0x60, 0x87, 0xbd, 0x7c, 0x65, 0x2f, 0x3d, 0xa7, 0x94, 0x12, 0x3d,
 0x95, 0xe0, 0x1b, 0x3e, 0xea, 0x67, 0x90, 0x3c, 0xbe, 0xd0, 0x1d, 0x3e,
 0x7c, 0xcf, 0x2f, 0x3e, 0x45, 0x2a, 0xe7, 0x3d, 0x7b, 0x8e, 0x01, 0x3d,
 0x28, 0xe9, 0x88, 0x3d, 0xbb, 0x5a, 0xd1, 0xbd, 0xd0, 0x58, 0x97, 0x3e,
 0xb2, 0x50, 0x26, 0x3d, 0x47, 0xbd, 0x93, 0xbe, 0xf3, 0xd3, 0x9b, 0xbd,
 0x47, 0xfd, 0x65, 0xbc, 0x40, 0x30, 0x04, 0xbe, 0x8f, 0x1b, 0xb3, 0x3d,
 0x87, 0xb1, 0x08, 0xbc, 0x03, 0x36, 0x91, 0x3e, 0xc2, 0x92, 0xc6, 0xbd,
 0x4e, 0xe4, 0x67, 0xbd, 0xa6, 0xf1, 0x01, 0xbe, 0x4d, 0xdc, 0x6d, 0xbe,
 0x9a, 0x03, 0xfe, 0xbd, 0x88, 0x2e, 0xb8, 0xbc, 0xf2, 0xe6, 0x5f, 0x3e,
 0xc9, 0xd8, 0x11, 0xbe, 0x29, 0x7f, 0xf7, 0xbd, 0x29, 0xe1, 0x36, 0x3e,
 0x73, 0x5d, 0x97, 0xbd, 0xfa, 0x14, 0x8b, 0xbd, 0x1b, 0x80, 0x25, 0xbe,
 0x75, 0xce, 0xff, 0xbc, 0xac, 0xed, 0x8c, 0xbe, 0xd5, 0x69, 0x28, 0xbe,
 0x43, 0x51, 0x4a, 0xbb, 0xa5, 0xb0, 0x1d, 0x3e, 0x64, 0x86, 0x14, 0xbd,
 0xe0, 0xc6, 0x8e, 0xbd, 0x33, 0x4b, 0xc8, 0xbe, 0xed, 0xf7, 0x39, 0xbd,
 0x4e, 0x4e, 0x7a, 0x3e, 0xfe, 0x10, 0x0c, 0x3e, 0xa7, 0x52, 0xcd, 0xbd,
 0x4a, 0x83, 0x89, 0x3e, 0xa9, 0x58, 0x51, 0xbe, 0x70, 0x69, 0x0d, 0xbe,
 0xac, 0x17, 0xc3, 0xbe, 0x36, 0x5f, 0x5d, 0x3e, 0xc0, 0x96, 0x8e, 0x3e,
 0x11, 0xe8, 0x31, 0xbe, 0x47, 0xf1, 0x0f, 0xbe, 0xb1, 0x91, 0x54, 0x3d,
 0xcf, 0x78, 0xe8, 0x3d, 0x25, 0xf4, 0x10, 0xbe, 0x1d, 0x07, 0x06, 0xbe,
 0x48, 0xd1, 0xb7, 0x3e, 0xa9, 0x98, 0x61, 0xbe, 0x29, 0x3f, 0xc5, 0x3d,
 0xfc, 0xd0, 0x53, 0xbe, 0x11, 0x92, 0xa1, 0x3e, 0x23, 0x58, 0x3a, 0x3e,
 0x32, 0x2c, 0x7b, 0xbe, 0x68, 0x68, 0xef, 0xbe, 0xec, 0x32, 0xb1, 0x3e,
 0x58, 0x2c, 0x54, 0x3e, 0x33, 0xcd, 0xe5, 0xbd, 0x2c, 0x46, 0xe2, 0xbd,
 0xbe, 0x1c, 0x06, 0xbe, 0xe4, 0x85, 0x51, 0x3e, 0x41, 0x21, 0x2a, 0x3d,
 0x7d, 0x00, 0xbb, 0xbd, 0x84, 0x73, 0x1c, 0x3a, 0x12, 0x15, 0xa0, 0xbc,
 0xf7, 0x06, 0xda, 0x3b, 0x4f, 0x14, 0x2b, 0xbe, 0xa1, 0xfc, 0x74, 0x3d,
 0x4e, 0x5c, 0x28, 0x3d, 0xb3, 0x2b, 0xaf, 0xbd, 0x7d, 0xa0, 0xd5, 0xbd,
 0x57, 0x04, 0xa5, 0xbd, 0xf4, 0x6a, 0x62, 0x3e, 0x37, 0x28, 0x12, 0xbe,
 0x45, 0x3e, 0x30, 0x3e, 0x2b, 0x54, 0xf7, 0xbc, 0x41, 0xec, 0x5a, 0xbe,
 0x87, 0xa9, 0x44, 0x3e, 0xea, 0x83, 0x8d, 0x3e, 0x56, 0x33, 0xee, 0xbc,
 0x83, 0x7d, 0x6a, 0xbd, 0x37, 0x28, 0xe9, 0x3d, 0x33, 0x3a, 0x9d, 0xbd,
 0xf1, 0x6d, 0xa6, 0x3c, 0x4a, 0x5d, 0x9f, 0x3d, 0x91, 0x4a, 0x8a, 0x3e,
 0x24, 0x4c, 0xda, 0xbd, 0xd6, 0x23, 0x23, 0x3c, 0xeb, 0x85, 0x13, 0x3e,
 0x09, 0xd7, 0x86, 0xbe, 0x87, 0xd3, 0x62, 0x3e, 0x99, 0xcd, 0x3d, 0x3e,
 0xa1, 0xb6, 0x58, 0xbe, 0x71, 0x0f, 0x81, 0x3e, 0x84, 0x38, 0x76, 0x3d,
 0x57, 0x6b, 0x0b, 0xbe, 0x3f, 0x94, 0x93, 0xbe, 0xc0, 0x1c, 0x6b, 0xbe,
 0xec, 0x59, 0x86, 0xbd, 0x99, 0x86, 0xa6, 0xbc, 0xf2, 0x0c, 0x8a, 0x3e,
 0x8f, 0x8b, 0x63, 0x3e, 0xc5, 0x69, 0x7b, 0x3e, 0x55, 0x4d, 0x39, 0xbe,
 0xfc, 0xa6, 0xfe, 0xbd, 0x24, 0x83, 0x1f, 0x3e, 0xb9, 0xe9, 0x8c, 0xbe,
 0x25, 0x88, 0x4e, 0xbe, 0xf2, 0x9d, 0x9c, 0xbe, 0x7d, 0xa7, 0xaa, 0xbd,
 0x5f, 0xa1, 0x4c, 0x3e, 0x23, 0x56, 0x2b, 0x3e, 0xd8, 0x1a, 0x8b, 0x3d,
 0x06, 0x38, 0xc0, 0xbc, 0x32, 0x3c, 0x38, 0x3e, 0xbe, 0x99, 0x96, 0xbb,
 0x1c, 0x5c, 0xee, 0x3d, 0xc6, 0xa5, 0xb7, 0x3d, 0x1b, 0xc9, 0xe8, 0x3d,
 0x01, 0x59, 0xe3, 0x3c, 0x71, 0x52, 0x02, 0x3e, 0xb8, 0xe1, 0x35, 0xbe,
 0x9b, 0xfc, 0x02, 0x3e, 0xef, 0x66, 0xe3, 0xbb, 0x6b, 0xf0, 0x1d, 0xbe,
 0x5c, 0x58, 0xb8, 0xbe, 0x4f, 0x6f, 0x1a, 0x3e, 0x50, 0x59, 0x59, 0x3d,
 0xd4, 0x28, 0x8b, 0xbe, 0xd2, 0x93, 0xc0, 0xbd, 0x3c, 0x6e, 0x8e, 0x3d,
 0x24, 0xab, 0x00, 0xbe, 0x2f, 0xa9, 0x47, 0xbe, 0xcb, 0x51, 0x35, 0x3e,
 0x1e, 0xb0, 0xa6, 0x3c, 0xe6, 0x8a, 0x76, 0x3e, 0xef, 0x26, 0xbd, 0xbd,
 0xc3, 0x29, 0x8d, 0x3e, 0x0a, 0x8d, 0x4e, 0x3b, 0x1a, 0xe1, 0xb9, 0x3d,
 0xfb, 0xd7, 0x5e, 0xbe, 0x9c, 0x13, 0x10, 0x3e, 0x6f, 0x0e, 0x0e, 0xbe,
 0xed, 0xea, 0xad, 0x3d, 0x07, 0x2a, 0x91, 0xbd, 0xcb, 0x57, 0xd1, 0x3d,
 0x74, 0x25, 0x5a, 0x3e, 0x08, 0x0a, 0xbd, 0x3d, 0x38, 0xa0, 0x6a, 0xbd,
 0x63, 0x0c, 0x5b, 0xbe, 0x5a, 0x92, 0xee, 0xbd, 0x9b, 0x11, 0x84, 0xbe,
 0xc0, 0x26, 0xe2, 0xbb, 0x80, 0xbb, 0x6f, 0x3c, 0x20, 0xd1, 0x65, 0x3e,
 0x9e, 0x1a, 0x04, 0xbe, 0x4c, 0xee, 0x30, 0x3e, 0x83, 0xf3, 0x11, 0xbe,
 0xc2, 0x4b, 0xac, 0xbd, 0x80, 0xe8, 0x04, 0x3c, 0x7c, 0x25, 0x69, 0xbe,
 0x2a, 0xc7, 0x4a, 0x3e, 0x56, 0x0c, 0xc8, 0xbd, 0x18, 0x68, 0xca, 0xbd,
 0xc4, 0x0f, 0x28, 0x3e, 0x90, 0xb1, 0x88, 0xbc, 0xac, 0x30, 0xb1, 0x3d,
 0x44, 0x16, 0xe1, 0xbd, 0x00, 0xfe, 0x8f, 0x3c, 0xd6, 0x44, 0xec, 0xbd,
 0x88, 0x6d, 0x51, 0xbe, 0x0e, 0xaa, 0x1b, 0x3e, 0xf0, 0x6a, 0x62, 0x3d,
 0x3c, 0x20, 0x40, 0x3e, 0x74, 0x11, 0x5b, 0x3e, 0x90, 0x36, 0xb5, 0x3d,
 0x60, 0x2c, 0x2f, 0xbe, 0x55, 0x46, 0x87, 0xbe, 0xea, 0xd4, 0x3e, 0x3e,
 0x54, 0x95, 0x27, 0x3e, 0x12, 0xe2, 0x2c, 0xbe, 0xb2, 0x5b, 0x79, 0xbe,
 0xcc, 0xc8, 0x00, 0xbd, 0x88, 0x7f, 0xfe, 0x3d, 0xb6, 0x93, 0x5f, 0x3e,
 0xa8, 0xc6, 0x27, 0x3e, 0xb0, 0x07, 0x2f, 0x3d, 0x24, 0x87, 0x83, 0x3d,
 0x24, 0xae, 0x87, 0x3d, 0x88, 0x40, 0x34, 0xbd, 0x08, 0x7b, 0x20, 0x3e,
 0xf8, 0x45, 0x61, 0x3d, 0xcc, 0xa4, 0x04, 0xbe, 0xd7, 0x78, 0x3d, 0xbe,
 0x62, 0xea, 0x87, 0x3e, 0x3c, 0xc7, 0x27, 0xbd, 0x22, 0xd2, 0x7c, 0xbe,
 0x30, 0x49, 0xf6, 0x3c, 0xbb, 0x79, 0x2a, 0xbe, 0xf8, 0x28, 0x2d, 0xbe,
 0xdc, 0x30, 0xc0, 0x3d, 0xd9, 0x24, 0x0d, 0xbe, 0xf8, 0x1d, 0xfe, 0xbd,
 0xd2, 0x60, 0x40, 0x3e, 0x64, 0x1a, 0x2d, 0xbd, 0xc4, 0x49, 0x09, 0x3e,
 0x08, 0x12, 0x29, 0xbe, 0xc6, 0x86, 0x58, 0xbe, 0xee, 0x41, 0xf8, 0xbd,
 0x5f, 0x46, 0x64, 0xbe, 0x00, 0x64, 0x55, 0xbd, 0x60, 0xf1, 0x6e, 0x3c,
 0x12, 0x83, 0x3e, 0x3e, 0x80, 0x05, 0xa9, 0x3b, 0x58, 0x89, 0x26, 0x3d,
 0xd0, 0xe0, 0x9f, 0x3c, 0x22, 0xa3, 0x5f, 0xbe, 0xd2, 0x70, 0x3c, 0xbe,
 0xdc, 0x11, 0x2f, 0xbe, 0xb0, 0xa5, 0xfa, 0x3c, 0xf8, 0x2e, 0x5a, 0x3d,
 0x8c, 0x52, 0x70, 0xbe, 0x6c, 0x1e, 0x8c, 0x3d, 0xaa, 0xc2, 0x80, 0xbe,
 0xa4, 0xa2, 0x7f, 0xbd, 0x3c, 0x4a, 0x75, 0x3e, 0xee, 0x68, 0x62, 0x3e,
 0xc4, 0x1f, 0xc5, 0x3d, 0x93, 0x0a, 0x4c, 0xbe, 0x28, 0x5d, 0x7f, 0xbe,
 0x1e, 0x54, 0x51, 0x3e, 0x76, 0x29, 0x3a, 0x3e, 0x5b, 0x00, 0x11, 0xbe,
 0xc0, 0xc0, 0xe7, 0xbc, 0xc0, 0x18, 0x76, 0x3e, 0xe2, 0x7c, 0x3a, 0x3e,
 0x48, 0xe7, 0x97, 0x3d, 0x9a, 0x2d, 0x38, 0xbe, 0x34, 0xdb, 0x8d, 0xbd,
 0x76, 0xef, 0x5c, 0x3e, 0x14, 0x56, 0x3f, 0xbd, 0x39, 0x13, 0x45, 0xbe,
 0x18, 0x7c, 0x17, 0x3e, 0xce, 0xf8, 0x54, 0x3e, 0xd1, 0xc0, 0x86, 0xbe,
 0x38, 0x83, 0x80, 0x3e, 0xb6, 0x9d, 0x08, 0xbe, 0xeb, 0xa9, 0x0a, 0xbe,
 0x10, 0xa0, 0x3a, 0x3d, 0x24, 0x66, 0x62, 0x3e, 0x78, 0xfa, 0x2b, 0x3e,
 0x80, 0x11, 0xa2, 0x3d, 0x5c, 0x29, 0x38, 0x3e, 0xa4, 0x48, 0x17, 0x3e,
 0x56, 0xd0, 0x65, 0xbe, 0x92, 0x90, 0x86, 0x3e, 0x45, 0x1b, 0x32, 0xbe,
 0x34, 0xe3, 0x5c, 0x3e, 0x50, 0x6e, 0x1e, 0x3e, 0x20, 0x16, 0x79, 0x3c,
 0xf0, 0x93, 0x6c, 0x3d, 0xcc, 0xd1, 0x7a, 0xbd, 0x48, 0x61, 0x03, 0x3e,
 0xdf, 0xea, 0x5a, 0xbe, 0xcb, 0xfb, 0x05, 0xbe, 0x22, 0x78, 0xc0, 0xbd,
 0xaa, 0x0f, 0x84, 0x3e, 0xc2, 0x9b, 0xa4, 0xbd, 0xe0, 0xa1, 0x1b, 0x3d,
 0xde, 0x50, 0x55, 0x3e, 0xb4, 0xb2, 0x5d, 0x3e, 0x0b, 0xb0, 0x04, 0xbe,
 0xf4, 0x83, 0xf0, 0x3d, 0x5b, 0xd1, 0x64, 0xbe, 0xae, 0x3b, 0x44, 0xbe,
 0x13, 0x58, 0x1a, 0xbe, 0xe8, 0x7b, 0xed, 0x3d, 0x38, 0x12, 0x72, 0x3e,
 0x24, 0x3d, 0xf4, 0x3d, 0x00, 0xd8, 0x73, 0xbb, 0xd4, 0xb4, 0x72, 0xbe,
 0x70, 0xcf, 0x42, 0xbd, 0x24, 0xcd, 0x3f, 0x3e, 0xba, 0x2f, 0x38, 0xbe,
 0xb8, 0xbb, 0xbf, 0x3d, 0x27, 0x26, 0x6b, 0xbe, 0x36, 0x81, 0x63, 0x3e,
 0xeb, 0xa5, 0x03, 0xbe, 0x8b, 0xf8, 0x61, 0xbe, 0xec, 0x9f, 0x91, 0x3d,
 0xc4, 0x4a, 0xa3, 0x3d, 0xae, 0x1a, 0x74, 0xbe, 0x96, 0x36, 0x81, 0xbe,
 0xc0, 0x8e, 0x5c, 0x3d, 0xac, 0x77, 0xc6, 0xbd, 0x36, 0x35, 0xd4, 0xbd,
 0xa1, 0x4c, 0x13, 0xbe, 0x18, 0x23, 0x18, 0x3e, 0x7c, 0x67, 0x11, 0x3e,
 0x70, 0x00, 0xe8, 0x3c, 0xde, 0xe6, 0x4d, 0x3e, 0x84, 0x21, 0x3a, 0x3e,
 0x70, 0xc0, 0x4c, 0x3e, 0x18, 0x62, 0x3b, 0x3d, 0x23, 0x89, 0x87, 0xbe,
 0x1e, 0xdb, 0x65, 0x3e, 0x6d, 0xf1, 0xa8, 0x39, 0x72, 0x8d, 0x24, 0xbe,
 0xde, 0xa0, 0xfb, 0xbc, 0x4c, 0xd6, 0xd9, 0xbc, 0xa9, 0xcd, 0xa7, 0xbd,
 0x55, 0x19, 0x77, 0x3e, 0x7d, 0x0d, 0xf7, 0xbb, 0x33, 0xc9, 0x7f, 0xbd,
 0xb3, 0x5f, 0x5b, 0xbe, 0x03, 0xf4, 0x20, 0x3d, 0x60, 0xe6, 0xc7, 0xbd,
 0xae, 0xea, 0x14, 0x3e, 0x93, 0x05, 0x2a, 0xbe, 0x77, 0x82, 0x95, 0xbd,
 0xf6, 0xf5, 0x1d, 0xbd, 0x26, 0x78, 0x82, 0xbe, 0xfc, 0xa8, 0xc8, 0x3d,
 0x9e, 0x3c, 0x0d, 0x3d, 0xbc, 0xc8, 0xad, 0x3d, 0xf7, 0x2f, 0x1c, 0x3e,
 0x3f, 0xf4, 0x59, 0xbe, 0xec, 0x49, 0x0d, 0x3e, 0x19, 0x74, 0x29, 0x3e,
 0xd0, 0xd6, 0x39, 0xbe, 0x0a, 0xf0, 0x4f, 0x3e, 0x6d, 0x88, 0x83, 0xbd,
 0xdb, 0x41, 0x36, 0xbe, 0x3b, 0x15, 0x65, 0xbd, 0x2d, 0x0b, 0xcc, 0x3d,
 0x73, 0x13, 0x7a, 0x3c, 0x4b, 0x67, 0x87, 0x3d, 0x06, 0x38, 0xa7, 0x3d,
 0x94, 0x12, 0xef, 0xbd, 0xde, 0xc7, 0x29, 0x3d, 0x0b, 0x12, 0xf6, 0xbd,
 0xf0, 0xb3, 0x2c, 0x3e, 0xa5, 0xf2, 0x3f, 0x3d, 0x91, 0x42, 0x20, 0xbe,
 0xed, 0x4d, 0xb8, 0xbd, 0xd4, 0x7a, 0x2f, 0xbe, 0x46, 0xfe, 0x03, 0x3e,
 0x5c, 0x46, 0x3b, 0xbd, 0xbc, 0x92, 0x8a, 0x3e, 0x82, 0x5a, 0x74, 0xbe,
 0x88, 0x8a, 0xb5, 0x3d, 0x04, 0x34, 0x5c, 0xbd, 0x3d, 0xe9, 0x46, 0xbe,
 0x4b, 0xc8, 0x0d, 0xbe, 0x04, 0x3f, 0x5f, 0xbd, 0x3c, 0x6a, 0x7c, 0x3e,
 0x70, 0x83, 0x1a, 0x3d, 0x20, 0x76, 0xec, 0x3d, 0x0e, 0x99, 0xfc, 0xbd,
 0xb5, 0x9b, 0x81, 0xbe, 0x5c, 0xcb, 0x00, 0xbe, 0x8a, 0x75, 0x3d, 0x3e,
 0xda, 0x06, 0x53, 0x3e, 0x58, 0x58, 0x9d, 0x3d, 0x00, 0xb1, 0xb6, 0xba,
 0x00, 0xd4, 0x41, 0xba, 0x60, 0x69, 0x27, 0x3d, 0xc2, 0x01, 0x48, 0xbe,
 0xa0, 0x65, 0x8d, 0x3c, 0xf0, 0x89, 0x67, 0x3e, 0xdc, 0x53, 0x7d, 0xbe,
 0x8f, 0xdf, 0x47, 0xbe, 0x14, 0x7e, 0xbc, 0x3d, 0x00, 0x51, 0x62, 0xbc,
 0x6e, 0x5d, 0x55, 0xbe, 0xa0, 0xfc, 0x4e, 0x3c, 0x51, 0xf4, 0x13, 0xbe,
 0xe6, 0x67, 0x5e, 0xbe, 0xe8, 0xb3, 0x88, 0x3d, 0xe4, 0x62, 0x14, 0xbd,
 0xf0, 0x08, 0x9b, 0x3c, 0x10, 0xdb, 0x12, 0xbd, 0xcb, 0xdb, 0x88, 0xbe,
 0x18, 0xf9, 0x81, 0x3e, 0xbc, 0x32, 0xac, 0xbd, 0x30, 0x68, 0xa1, 0xbc,
 0x56, 0xa9, 0x2d, 0x3d, 0x5a, 0x2a, 0x2c, 0x3d, 0x2c, 0x1f, 0x73, 0xbe,
 0x38, 0x8e, 0x89, 0x3d, 0x42, 0x54, 0xc2, 0xbd, 0x20, 0x9a, 0x50, 0x3b,
 0x99, 0x8f, 0x5e, 0xbe, 0x8d, 0x63, 0xb1, 0x3c, 0x95, 0x2f, 0x5f, 0x3b,
 0xea, 0xea, 0x3a, 0x3e, 0xdd, 0x57, 0xb6, 0x3c, 0x83, 0xa4, 0x38, 0xbe,
 0x7a, 0xfb, 0x26, 0x3c, 0x98, 0x70, 0x6e, 0xbd, 0x59, 0xb3, 0xd5, 0xbd,
 0x1a, 0x13, 0x6b, 0x3e, 0x67, 0x66, 0xe6, 0xbd, 0xcc, 0x83, 0x41, 0x3e,
 0x3b, 0x08, 0x42, 0x3e, 0x38, 0x8b, 0xa6, 0xbd, 0x36, 0xbd, 0xdd, 0x3d,
 0x56, 0xad, 0xcf, 0x3d, 0x9e, 0xe2, 0xc6, 0x3d, 0xc9, 0xe2, 0x76, 0xbe,
 0x53, 0xb0, 0xa3, 0xbd, 0x11, 0xac, 0xc7, 0x3d, 0x4a, 0x7a, 0x85, 0xbd,
 0xa6, 0x87, 0xde, 0xbb, 0xf2, 0x40, 0x8a, 0x3e, 0xec, 0x5a, 0x2a, 0x3e,
 0xf8, 0x11, 0x05, 0xbc, 0x74, 0xd5, 0x4d, 0xbd, 0x3f, 0x22, 0x7f, 0x3e,
 0x37, 0x4e, 0x80, 0xbe, 0xbc, 0x83, 0x25, 0xbd, 0xb0, 0xec, 0xea, 0x3d,
 0x06, 0x82, 0x12, 0x3e, 0x5d, 0xf1, 0x6f, 0xbe, 0x45, 0xb9, 0x85, 0x3d,
 0x11, 0xef, 0x0a, 0x3e, 0x94, 0x3a, 0x6e, 0x3e, 0x89, 0xad, 0x2f, 0xbe,
 0x18, 0x4b, 0x73, 0x3e, 0xc4, 0xff, 0xfa, 0x3d, 0x26, 0xb7, 0x0e, 0xbe,
 0xac, 0xf6, 0x2d, 0x3e, 0xc8, 0x56, 0x6e, 0x3e, 0x46, 0x19, 0x55, 0xbe,
 0x66, 0x0d, 0x91, 0xbd, 0x64, 0x75, 0xac, 0x3d, 0x38, 0x86, 0xdf, 0xbd,
 0xd0, 0x75, 0xfd, 0x3d, 0x80, 0xb7, 0x3f, 0x3d, 0x3b, 0x5c, 0x53, 0xbe,
 0x40, 0xa3, 0xf0, 0xbd, 0xf8, 0x4b, 0x57, 0xbe, 0x00, 0x35, 0xac, 0x3b,
 0x40, 0x38, 0x2e, 0x3c, 0x81, 0xe4, 0x1b, 0xbe, 0xca, 0x5e, 0x83, 0xbe,
 0x6e, 0x3f, 0x82, 0x3e, 0x58, 0xf4, 0x4a, 0xbd, 0x14, 0x32, 0x1a, 0xbe,
 0x76, 0x8a, 0x81, 0xbe, 0x12, 0x4e, 0x49, 0x3e, 0x30, 0x98, 0x21, 0xbd,
 0x9c, 0xd5, 0x4e, 0x3e, 0x1a, 0x37, 0x66, 0xbe, 0xa4, 0x47, 0x24, 0xbd,
 0xb4, 0x1a, 0x77, 0x3e, 0x9c, 0x1a, 0x6f, 0x3e, 0x90, 0xf6, 0xe9, 0xbc,
 0x65, 0x06, 0x2f, 0xbe, 0x76, 0x12, 0xdd, 0xbd, 0xe0, 0xd2, 0xda, 0xbc,
 0x98, 0x35, 0x7d, 0x3d, 0x7e, 0x1e, 0x40, 0xbe, 0x88, 0xef, 0xd6, 0x3d,
 0xea, 0x47, 0x4d, 0x3e, 0x7e, 0x0e, 0x11, 0x3e, 0xb4, 0x99, 0xfb, 0x3d,
 0xf0, 0x01, 0x57, 0xbd, 0x4c, 0x3c, 0x6b, 0x3e, 0x62, 0x0e, 0x68, 0xbe,
 0x78, 0x86, 0xa8, 0x3d, 0xec, 0x92, 0x93, 0x3d, 0x58, 0xd6, 0x3b, 0xbd,
 0xdc, 0xc4, 0x23, 0xbe, 0xc8, 0xd2, 0x6c, 0x3e, 0xca, 0xac, 0x30, 0x3e,
 0x3e, 0x65, 0x83, 0x3e, 0x00, 0x6f, 0x86, 0x3e, 0x51, 0xd0, 0x48, 0xbe,
 0xde, 0xbe, 0x36, 0x3e, 0x64, 0x3e, 0x73, 0x3e, 0xba, 0x24, 0x0b, 0xbe,
 0xc0, 0x50, 0x13, 0x3d, 0x30, 0x86, 0xf4, 0xbd, 0x80, 0xca, 0x29, 0xbc,
 0x10, 0x55, 0x76, 0xbe, 0x44, 0x9b, 0x5e, 0x3e, 0x03, 0x9a, 0x02, 0xbe,
 0x4c, 0x41, 0xb3, 0xbd, 0x98, 0x9e, 0x0c, 0xbd, 0x89, 0x29, 0x0b, 0xbe,
 0x40, 0xd4, 0x64, 0xbc, 0x00, 0x0a, 0xb4, 0x3d, 0x40, 0xa3, 0x5f, 0xbe,
 0xfc, 0x44, 0x0e, 0xbe, 0xa6, 0xf4, 0x4d, 0x3e, 0x08, 0x7a, 0x29, 0xbe,
 0x7e, 0x17, 0xb8, 0xbd, 0x00, 0x9b, 0xc1, 0xbc, 0x88, 0xb6, 0x38, 0x3d,
 0xc8, 0xfa, 0xcf, 0x3d, 0x5c, 0xb7, 0xc9, 0x3d, 0xfa, 0xa0, 0xcc, 0xbd,
 0xda, 0x4f, 0x58, 0x3e, 0x7e, 0xfe, 0x55, 0xbe, 0x32, 0x85, 0x1e, 0x3e,
 0x2a, 0x65, 0x10, 0xbe, 0x3d, 0x4c, 0x6f, 0x3e, 0x43, 0xa3, 0x87, 0x3e,
 0x82, 0x7d, 0xdf, 0xbd, 0xf6, 0xb4, 0xad, 0x3d, 0x2e, 0x1b, 0x0b, 0x3e,
 0x2b, 0xe1, 0x59, 0xbe, 0x53, 0x76, 0x8d, 0xba, 0x09, 0xaa, 0xcf, 0xbd,
 0x10, 0xd3, 0xc5, 0x3d, 0xfc, 0x99, 0x44, 0x3e, 0xd3, 0x12, 0x88, 0xbe,
 0xdc, 0x3d, 0x70, 0xbd, 0x79, 0x40, 0x54, 0x3c, 0x00, 0x7f, 0x81, 0x3c,
 0x78, 0x3b, 0xfe, 0xbc, 0x94, 0x8d, 0x25, 0xbb, 0x1b, 0x17, 0x68, 0x3e,
 0x08, 0x16, 0x87, 0x3d, 0x6c, 0x16, 0xd5, 0xbb, 0x11, 0x6e, 0xda, 0x3c,
 0x62, 0xd2, 0x2e, 0x3e, 0x2d, 0x52, 0x6c, 0x3e, 0x14, 0x7f, 0xcd, 0x3d,
 0x1d, 0x3d, 0xaf, 0x3d, 0xc1, 0xf9, 0x91, 0xbd, 0xec, 0xbb, 0x45, 0x3e,
 0x80, 0x4d, 0xd0, 0x3c, 0xae, 0x91, 0x81, 0x3e, 0x71, 0x08, 0xb0, 0xbe,
 0x85, 0x9b, 0x19, 0x3e, 0xb6, 0x3b, 0x8c, 0xbd, 0x2e, 0x93, 0x82, 0x3e,
 0xc4, 0xd4, 0x13, 0x3e, 0xa0, 0x39, 0x2a, 0x3e, 0xf9, 0x7f, 0x72, 0xbd,
 0xe8, 0x54, 0x3f, 0xbe, 0x35, 0x82, 0x00, 0xbe, 0xda, 0xed, 0x09, 0xbe,
 0x36, 0x45, 0x4b, 0xbe, 0x8c, 0x23, 0x84, 0x3d, 0xa6, 0xfb, 0xd1, 0xbd,
 0xb8, 0xfb, 0x08, 0x3e, 0xd0, 0xcb, 0x06, 0x3d, 0x1c, 0x40, 0x31, 0x3e,
 0x44, 0x03, 0x80, 0xbd, 0xfc, 0xfa, 0xb1, 0x3d, 0xf0, 0x76, 0xbe, 0xbc,
 0x61, 0x12, 0x76, 0xbe, 0xe4, 0x7e, 0x0a, 0x3e, 0x7b, 0xf4, 0x40, 0xbe,
 0x9c, 0x5a, 0x8a, 0xbe, 0xbc, 0x34, 0x41, 0xbe, 0x4c, 0x82, 0x37, 0xbd,
 0x88, 0x25, 0x8b, 0xbe, 0xf0, 0x6e, 0x66, 0xbe, 0xa8, 0xd1, 0x71, 0x3e,
 0x77, 0x5f, 0x6c, 0xbe, 0x88, 0xf2, 0x36, 0x3d, 0xb4, 0x1f, 0x41, 0x3e,
 0x00, 0xa3, 0xb4, 0x3b, 0xb8, 0x4e, 0x15, 0x3e, 0x3c, 0xc5, 0xdb, 0x3d,
 0x24, 0x37, 0x5d, 0x3e, 0xd8, 0x84, 0x1d, 0x3d, 0xfe, 0x43, 0x2d, 0xbe,
 0xc8, 0x1e, 0x32, 0x3d, 0x4a, 0x29, 0x34, 0xbe, 0x18, 0x8d, 0x3a, 0x3e,
 0x84, 0x5c, 0x98, 0x3d, 0x29, 0xf5, 0x85, 0xbe, 0x92, 0x49, 0x49, 0xbe,
 0x40, 0x62, 0x8e, 0xbc, 0x3c, 0xab, 0x4f, 0x3e, 0x60, 0x97, 0x15, 0x3e,
 0x90, 0x9b, 0x81, 0x3e, 0xc8, 0x11, 0x75, 0x3d, 0x4c, 0xc0, 0x91, 0xbd,
 0x60, 0x39, 0x3d, 0x3e, 0x98, 0x2c, 0xae, 0x3d, 0x26, 0xbe, 0x10, 0xbe,
 0x88, 0x35, 0x54, 0xbe, 0xc3, 0xae, 0x11, 0xbe, 0xaf, 0x9f, 0x0f, 0x3e,
 0x22, 0xdd, 0x22, 0xbe, 0x5d, 0x3e, 0x2d, 0xbe, 0x75, 0x9b, 0x70, 0x3e,
 0x35, 0xad, 0x28, 0xbe, 0x05, 0xfb, 0x70, 0x3e, 0x4f, 0xe4, 0xe3, 0xbd,
 0x0c, 0xe3, 0xfb, 0x3d, 0xd2, 0x64, 0x83, 0x3e, 0xc1, 0x54, 0xa9, 0x3d,
 0x78, 0xaa, 0x17, 0xbe, 0x99, 0xd5, 0x81, 0x3c, 0xe4, 0x02, 0x3e, 0x3e,
 0x59, 0xce, 0x5d, 0x3e, 0xcc, 0xa4, 0x83, 0x3e, 0xff, 0x75, 0x69, 0xbe,
 0xb0, 0x9c, 0x5c, 0x3e, 0xb3, 0xcf, 0xc7, 0x3d, 0x8a, 0x26, 0x3d, 0x3e,
 0x91, 0xe7, 0x4d, 0xbd, 0xa9, 0xfd, 0x05, 0xbd, 0x45, 0xea, 0x42, 0x3e,
 0xf4, 0x86, 0x93, 0x3d, 0x1f, 0xb5, 0x94, 0x3e, 0x94, 0x06, 0x9f, 0xbd,
 0xb9, 0x61, 0xc7, 0x3c, 0x4a, 0x9c, 0x6c, 0x3c, 0x05, 0x50, 0x86, 0x3d,
 0x62, 0x87, 0xe9, 0xbd, 0xc1, 0xd4, 0xd3, 0xbc, 0x1d, 0x1e, 0x29, 0x3e,
 0x8a, 0x79, 0x2c, 0x3e, 0x6c, 0xdf, 0x8c, 0xbe, 0x1f, 0xd9, 0x4d, 0xbb,
 0xe6, 0x1d, 0x6b, 0xbe, 0x79, 0x6e, 0x0e, 0x3e, 0x0c, 0x0c, 0x7c, 0xbe,
 0x86, 0x2e, 0x21, 0x3e, 0xc6, 0xf9, 0xa2, 0xbd, 0xa8, 0x6d, 0x46, 0xbe,
 0xa8, 0x8e, 0xa7, 0xbd, 0x87, 0x72, 0x5a, 0xbe, 0x2c, 0x84, 0xda, 0x3d,
 0xde, 0x4b, 0x27, 0x3e, 0xae, 0xa2, 0x0c, 0xbe, 0xe2, 0x7c, 0x88, 0x3e,
 0x20, 0x20, 0x73, 0x3c, 0x5c, 0xe3, 0x88, 0xbd, 0xd0, 0x0f, 0xef, 0x3d,
 0x1b, 0x51, 0x12, 0xbe, 0xa0, 0x59, 0xc9, 0x3c, 0x72, 0xe4, 0x33, 0x3e,
 0x86, 0xec, 0x3c, 0x3e, 0xec, 0x23, 0xd0, 0x3d, 0x64, 0x7f, 0x78, 0x3e,
 0x20, 0xb8, 0x72, 0x3e, 0xdc, 0x8f, 0xc0, 0x3d, 0x91, 0x9a, 0x79, 0xbe,
 0x6c, 0x57, 0x83, 0x3e, 0xd0, 0xcf, 0x80, 0xbd, 0xce, 0x36, 0x41, 0xbe,
 0x24, 0xe2, 0x93, 0x3d, 0x2a, 0x49, 0x10, 0x3e, 0x46, 0xc2, 0x89, 0x3e,
 0x34, 0xed, 0x2c, 0xbd, 0x24, 0xf5, 0xb8, 0x3d, 0x14, 0x3c, 0x00, 0x3e,
 0x7a, 0xa0, 0x37, 0xbe, 0x30, 0x06, 0x25, 0x3d, 0x0d, 0x5f, 0x49, 0xbe,
 0x00, 0x9c, 0x49, 0xbe, 0x6c, 0x4c, 0xf5, 0x3d, 0x40, 0x53, 0x6c, 0x3c,
 0xf8, 0xcb, 0x92, 0x3d, 0x16, 0x5e, 0x8b, 0x3e, 0xc8, 0x80, 0x1e, 0x3d,
 0xac, 0x73, 0xda, 0x3d, 0x36, 0x5a, 0xe8, 0xbd, 0x57, 0xbe, 0x01, 0xbe,
 0x97, 0xe8, 0x9f, 0x3c, 0x1f, 0x32, 0x22, 0x3e, 0xa0, 0x23, 0x2f, 0xbe,
 0x2c, 0x27, 0xa0, 0xbb, 0xa3, 0xa6, 0x3f, 0x3e, 0x21, 0x04, 0x5f, 0x3d,
 0x03, 0x17, 0x42, 0x3e, 0x41, 0xbf, 0xb2, 0x3d, 0x99, 0x85, 0xab, 0x3d,
 0xcf, 0xae, 0x1a, 0x3e, 0x79, 0xdd, 0xab, 0x3c, 0x46, 0xcb, 0x32, 0xbe,
 0x5f, 0x64, 0xed, 0x3d, 0xbc, 0x1d, 0x28, 0xbe, 0xd0, 0x12, 0x21, 0xbc,
 0x06, 0x0a, 0x0e, 0x3e, 0xea, 0x2f, 0xbf, 0x3c, 0x6a, 0x10, 0xc5, 0x3c,
 0x62, 0xf4, 0xb8, 0xbd, 0x79, 0x43, 0x81, 0x3e, 0xe3, 0x14, 0x50, 0x3d,
 0x2a, 0x4d, 0xa0, 0x3c, 0xdc, 0xe1, 0x13, 0x3e, 0xd0, 0x14, 0x76, 0xbc,
 0x35, 0xa3, 0x9c, 0xbd, 0xbe, 0x5e, 0x5d, 0xbe, 0x87, 0x90, 0x6b, 0xbd,
 0xfa, 0x56, 0x24, 0xbd, 0xbb, 0xc1, 0x2e, 0x3e, 0xd3, 0xd6, 0xc5, 0xbd,
 0x60, 0xbf, 0x4b, 0x3e, 0x1d, 0x4c, 0x11, 0x3e, 0xb6, 0xb4, 0xca, 0x3d,
 0x91, 0x90, 0xf9, 0x3d, 0xef, 0x78, 0x8b, 0xbe, 0xdf, 0x00, 0x90, 0xbd,
 0x0c, 0xab, 0x46, 0x3e, 0x2a, 0x57, 0xe8, 0x3c, 0xa0, 0x48, 0x83, 0xbe,
 0x33, 0x45, 0x0a, 0xbe, 0xdf, 0x03, 0xac, 0x3d, 0xd4, 0x00, 0x2d, 0x3c,
 0x7f, 0xf0, 0x3f, 0xbe, 0x0e, 0x10, 0x9a, 0x3e, 0x91, 0x6a, 0x4c, 0xbd,
 0x7c, 0x3b, 0x98, 0xbe, 0x3d, 0x9a, 0x2a, 0xbe, 0x6a, 0x10, 0x84, 0x3e,
 0x7b, 0x1e, 0x41, 0x3c, 0x4b, 0xf7, 0xab, 0x3d, 0x82, 0x92, 0x84, 0x3d,
 0x5f, 0x83, 0x14, 0x3e, 0xa3, 0xe0, 0x1c, 0xbe, 0x07, 0x76, 0x7d, 0x3d,
 0x48, 0x32, 0x21, 0xbe, 0x03, 0x20, 0xc5, 0x3d, 0xb2, 0x4c, 0x45, 0x3d,
 0x4a, 0x69, 0xf2, 0x3c, 0x65, 0xe5, 0x3b, 0xbe, 0xf9, 0x8e, 0x35, 0x3e,
 0x32, 0xca, 0x52, 0xbe, 0x7d, 0xdf, 0xb9, 0x3d, 0xc1, 0xaa, 0xd4, 0x3d,
 0xd6, 0xf0, 0x29, 0x3c, 0x65, 0xaa, 0xe5, 0xbd, 0xe4, 0xe8, 0xa4, 0xba,
 0x85, 0x62, 0x2c, 0xbe, 0x9b, 0xf9, 0xdf, 0xbc, 0x71, 0xa4, 0x80, 0xbe,
 0xf1, 0x15, 0x84, 0x3e, 0x50, 0x5b, 0x82, 0xbd, 0x23, 0xc3, 0x9b, 0x3e,
 0x00, 0xb3, 0x6d, 0x3d, 0x00, 0xe9, 0x9b, 0x3e, 0x42, 0x6c, 0xc0, 0x3d,
 0x2f, 0x20, 0x3b, 0x3d, 0xeb, 0xe5, 0x74, 0xbe, 0xa6, 0xd9, 0x32, 0xbd,
 0x19, 0x45, 0x31, 0xbe, 0x8c, 0x6c, 0x20, 0x3d, 0x01, 0xba, 0x0f, 0xbe,
 0x34, 0x0a, 0x33, 0x3e, 0xa1, 0x41, 0x72, 0x3e, 0x21, 0x9a, 0xa0, 0xbb,
 0xa1, 0x2e, 0x4a, 0xbe, 0x16, 0xaf, 0x01, 0x3e, 0xd3, 0xe9, 0x14, 0x3e,
 0xdc, 0x9e, 0x33, 0x3e, 0xff, 0x46, 0xfb, 0xbd, 0x02, 0x0f, 0x55, 0x3e,
 0x87, 0x2d, 0xb4, 0x3e, 0x22, 0x56, 0x6d, 0xbe, 0xaa, 0xe4, 0x21, 0x3e,
 0xf9, 0xe4, 0x0a, 0xbe, 0x30, 0xde, 0xb4, 0xbc, 0x8e, 0xf6, 0x54, 0x3e,
 0xcd, 0xc6, 0xd7, 0x3d, 0xbe, 0x8b, 0x34, 0x3d, 0x47, 0x6a, 0x49, 0xbe,
 0xfc, 0xf8, 0x0f, 0xbe, 0xe6, 0x19, 0x77, 0x3e, 0x32, 0x45, 0xbf, 0x3d,
 0x94, 0xfe, 0x5e, 0xbe, 0x06, 0xfb, 0x44, 0xbe, 0xdd, 0x1c, 0x03, 0xbe,
 0xb7, 0x80, 0x5f, 0x3c, 0x77, 0xa3, 0xcf, 0x3d, 0x30, 0xac, 0xd0, 0xbe,
 0x60, 0x99, 0x41, 0x3c, 0x68, 0x45, 0xf4, 0xbd, 0x5a, 0x9d, 0x3e, 0x3e,
 0xe9, 0x9c, 0x98, 0x3d, 0xc8, 0x3b, 0xd2, 0x3d, 0x48, 0x95, 0x3e, 0xbd,
 0xd7, 0xfe, 0xaa, 0x3e, 0xdf, 0x54, 0x95, 0xbe, 0xc6, 0x09, 0x7e, 0xbe,
 0x9a, 0x30, 0x4d, 0x3e, 0xa3, 0x57, 0x7d, 0xbe, 0xba, 0xdb, 0xfb, 0xbb,
 0x67, 0x01, 0xe2, 0xbd, 0x48, 0x85, 0xf2, 0xbd, 0x33, 0xc4, 0xe2, 0xbd,
 0xe7, 0xac, 0xa2, 0xbe, 0x7b, 0xbe, 0x86, 0xbe, 0x77, 0x86, 0xd5, 0x3d,
 0xb6, 0x5d, 0xae, 0x3d, 0xfc, 0x18, 0x19, 0xbe, 0xfc, 0xb1, 0x92, 0x3e,
 0x96, 0xf7, 0x82, 0xbd, 0x09, 0x3a, 0x96, 0x3d, 0xac, 0x32, 0xe6, 0xbc,
 0x77, 0x4f, 0x34, 0x3d, 0x2f, 0x14, 0x84, 0xbd, 0xe7, 0xa2, 0x12, 0x3e,
 0xd5, 0x8f, 0x94, 0x3d, 0x09, 0x32, 0x7b, 0xbe, 0xaa, 0xe7, 0xa8, 0x3e,
 0x5a, 0xa3, 0x92, 0xbe, 0x1e, 0x1a, 0x71, 0xbe, 0xfe, 0x22, 0x51, 0x3b,
 0x48, 0x40, 0xa5, 0xbd, 0x2c, 0x72, 0xb2, 0x3c, 0xed, 0x7b, 0x83, 0xbe,
 0x5c, 0xc4, 0x8f, 0x3e, 0x27, 0x6c, 0xfb, 0x3d, 0xe2, 0x72, 0xba, 0xbd,
 0x43, 0xfb, 0x02, 0xbe, 0xb2, 0x2d, 0xb4, 0xbd, 0xd6, 0x32, 0x12, 0x3e,
 0x81, 0xf0, 0x2c, 0x3e, 0xdd, 0xb5, 0x90, 0xbe, 0x72, 0xe9, 0xa8, 0x3d,
 0x94, 0xb6, 0x59, 0x3e, 0x1f, 0x2e, 0x60, 0x3e, 0xe5, 0xe3, 0x9f, 0xbe,
 0x1c, 0x0d, 0xef, 0xbd, 0x4f, 0x20, 0x3a, 0x3e, 0xc1, 0x52, 0x3e, 0xbd,
 0xdf, 0x40, 0x0e, 0x3e, 0x62, 0x9f, 0xe8, 0xbc, 0x90, 0x83, 0x48, 0x3d,
 0x93, 0xca, 0x12, 0xbe, 0x9c, 0x9e, 0xa4, 0x3e, 0xb7, 0x43, 0x55, 0xbe,
 0xdf, 0x12, 0xe0, 0x3b, 0xf7, 0x83, 0x7c, 0xbd, 0x70, 0xe0, 0x82, 0x3d,
 0xe8, 0x7a, 0x7a, 0xbe, 0x1d, 0x51, 0x7b, 0x3e, 0x60, 0xac, 0xef, 0xbd,
 0xd7, 0xc4, 0x88, 0x3d, 0x12, 0x7a, 0xa1, 0x3d, 0xc2, 0x0e, 0xf5, 0x3d,
 0x2d, 0x88, 0x96, 0xbe, 0xcc, 0xff, 0x25, 0x3e, 0x22, 0xe5, 0xbc, 0xbc,
 0xc6, 0x35, 0x3e, 0xbe, 0x28, 0x2f, 0x25, 0xbe, 0x9e, 0x66, 0x4d, 0x3d,
 0x73, 0x2e, 0x30, 0xbd, 0x5a, 0xe1, 0xe2, 0x3d, 0xbe, 0x3f, 0xc5, 0xbd,
 0xf1, 0x19, 0x9f, 0x3e, 0x46, 0x31, 0x95, 0xbe, 0xb7, 0x9f, 0x84, 0x3e,
 0xf3, 0x7e, 0x8a, 0x3c, 0x86, 0xc3, 0xef, 0xbd, 0xc0, 0x7a, 0x89, 0x3e,
 0x68, 0x03, 0x3c, 0x3d, 0x25, 0xae, 0xa5, 0x3d, 0xec, 0x9e, 0xa7, 0x3d,
 0x35, 0x94, 0x58, 0x3c, 0xa9, 0x2f, 0xeb, 0xbd, 0x78, 0x98, 0x8c, 0xbe,
 0xaa, 0xef, 0x3a, 0x3c, 0x04, 0xf1, 0x60, 0x3e, 0x92, 0x4a, 0xdb, 0xbd,
 0x8f, 0xf2, 0x42, 0xbe, 0x9e, 0xd8, 0x5e, 0xbe, 0xdc, 0xab, 0xa0, 0x3c,
 0xc9, 0x59, 0x6e, 0xbe, 0xd6, 0x2e, 0x53, 0x3d, 0x34, 0x81, 0x3f, 0x3b,
 0x31, 0x6f, 0x61, 0x3e, 0xaa, 0x69, 0x81, 0xbc, 0x1a, 0xb1, 0xad, 0xbc,
 0x8d, 0xb3, 0x94, 0x3e, 0x57, 0x7e, 0x1c, 0x3e, 0x5e, 0xb6, 0x6a, 0xbe,
 0xbb, 0x1d, 0xb4, 0x3d, 0x0c, 0x3c, 0x69, 0xbe, 0x11, 0xee, 0xaa, 0x3d,
 0xf6, 0x0f, 0xd9, 0x3d, 0xb4, 0x09, 0x0e, 0x3e, 0x96, 0xbe, 0x29, 0x3c,
 0xb8, 0x4d, 0xd5, 0xbd, 0x05, 0xd1, 0x7c, 0xbe, 0x05, 0xa2, 0x92, 0x3d,
 0xb0, 0x12, 0x8a, 0x3e, 0x12, 0x87, 0xa4, 0xbe, 0x61, 0x1f, 0x57, 0x3e,
 0x70, 0xbc, 0x1b, 0xbe, 0x9b, 0x6e, 0x11, 0x3e, 0x80, 0x00, 0x58, 0x3e,
 0x9a, 0x28, 0xef, 0xbc, 0xb5, 0x3a, 0xc6, 0xbd, 0x22, 0x19, 0x9b, 0x3e,
 0x47, 0x3b, 0x41, 0x3d, 0xab, 0xb1, 0x49, 0x3d, 0xda, 0x06, 0x41, 0x3e,
 0x8c, 0x20, 0x8f, 0x3d, 0x28, 0x73, 0xa7, 0x3d, 0x83, 0xa9, 0xb3, 0xbd,
 0x95, 0x86, 0x02, 0xbe, 0x6b, 0x74, 0x24, 0x3e, 0x03, 0xdf, 0x87, 0x3d,
 0x20, 0x0a, 0x3c, 0xbd, 0x1e, 0x94, 0x22, 0x3e, 0xe6, 0x67, 0x64, 0x3e,
 0xd6, 0xf9, 0x8e, 0xbd, 0xf6, 0xa6, 0x85, 0xbe, 0x3d, 0x01, 0x27, 0xbe,
 0x2a, 0x16, 0x85, 0x3e, 0x70, 0x95, 0x08, 0x3d, 0x22, 0x86, 0x82, 0x3e,
 0x02, 0xff, 0x35, 0x3e, 0x0c, 0xc9, 0xc9, 0x3d, 0x74, 0x4e, 0x7c, 0xbd,
 0xf2, 0x5b, 0xb5, 0xbd, 0x78, 0x75, 0x08, 0x3d, 0xe8, 0xca, 0x91, 0x3d,
 0x88, 0x92, 0x22, 0x3e, 0x54, 0x48, 0x4a, 0xbe, 0xda, 0x7b, 0xdf, 0xbd,
 0xb0, 0x2d, 0x8c, 0xbe, 0xb0, 0x4a, 0x85, 0x3c, 0x02, 0x99, 0x64, 0x3e,
 0xa2, 0x7b, 0x82, 0xbe, 0x73, 0x84, 0x0c, 0xbe, 0x20, 0xfb, 0xd8, 0x3c,
 0x80, 0x4e, 0x68, 0x3b, 0x4d, 0x40, 0x35, 0xbe, 0xd0, 0x37, 0x4f, 0x3d,
 0xc0, 0x17, 0x39, 0x3c, 0x96, 0x5e, 0x28, 0x3e, 0xee, 0x04, 0x3b, 0xbe,
 0x44, 0xde, 0x1d, 0xbd, 0x4e, 0xd9, 0x85, 0x3e, 0xeb, 0x02, 0x16, 0xbe,
 0x03, 0xb0, 0x79, 0xbe, 0xd8, 0x7f, 0x52, 0x3e, 0xcd, 0x26, 0x26, 0xbe,
 0xe6, 0xcc, 0x95, 0xbd, 0x50, 0x12, 0x3e, 0x3d, 0x54, 0x7f, 0x32, 0x3e,
 0xa0, 0x19, 0x42, 0x3c, 0xbc, 0x5c, 0x06, 0x3e, 0x96, 0x28, 0x7a, 0xbe,
 0xe2, 0x17, 0x00, 0x3e, 0x4f, 0x82, 0xfa, 0xbb, 0x72, 0xf3, 0x12, 0x3e,
 0xd1, 0x56, 0x60, 0x3d, 0xee, 0x1e, 0x32, 0xbe, 0x5e, 0x3e, 0x3f, 0xbe,
 0xf3, 0x99, 0x83, 0x3c, 0x00, 0x0c, 0xe8, 0xbd, 0x92, 0xf2, 0xd9, 0xbd,
 0xc3, 0x7f, 0x0a, 0x3e, 0x4f, 0x80, 0x06, 0x3e, 0x7c, 0x90, 0x7c, 0xbe,
 0xf6, 0xf0, 0x3d, 0x3e, 0xb3, 0xd5, 0x7b, 0x3e, 0xe3, 0x74, 0x23, 0xbe,
 0x44, 0x0c, 0x97, 0xbe, 0x29, 0x23, 0x58, 0x3d, 0x56, 0x91, 0x55, 0xbe,
 0x4c, 0x34, 0x9f, 0xbd, 0x5d, 0x11, 0x2d, 0x3e, 0xde, 0x3c, 0x9d, 0x3d,
 0x04, 0x61, 0x18, 0xbe, 0x9d, 0x8f, 0x4c, 0xbe, 0x02, 0xe6, 0x41, 0x3e,
 0x05, 0xcc, 0x63, 0xbd, 0x04, 0x53, 0xc7, 0xbb, 0xa9, 0x64, 0x86, 0xbd,
 0x6b, 0xab, 0xd4, 0x3b, 0xc2, 0xbc, 0xd9, 0x3d, 0xef, 0xd1, 0x82, 0x3d,
 0x40, 0xdc, 0x28, 0xbd, 0x11, 0x88, 0x0d, 0xbe, 0x62, 0x6b, 0x6e, 0x3e,
 0x39, 0xb0, 0x75, 0x3e, 0xad, 0x18, 0xf0, 0xbc, 0x6d, 0xf7, 0xa7, 0xbd,
 0x18, 0x01, 0xb5, 0xbd, 0x49, 0x96, 0xf1, 0xbc, 0x13, 0x7d, 0x42, 0x3e,
 0xf4, 0x79, 0x58, 0x3e, 0x58, 0xd6, 0xf2, 0x3d, 0x80, 0x79, 0x07, 0xbc,
 0x9f, 0x47, 0x64, 0xbe, 0xb2, 0xd0, 0xb3, 0xbd, 0x93, 0xa8, 0x74, 0xbe,
 0xb6, 0x28, 0x05, 0xbe, 0xe0, 0xd7, 0xb2, 0xbc, 0x60, 0xb9, 0x2d, 0x3e,
 0x20, 0x15, 0xf8, 0x3d, 0x54, 0xbb, 0xb0, 0x3d, 0x1c, 0xf4, 0x34, 0xbd,
 0x40, 0xd2, 0x9e, 0x3c, 0x70, 0x7a, 0x79, 0x3e, 0xc4, 0x3c, 0xd5, 0x3d,
 0xe4, 0x19, 0x61, 0xbe, 0x94, 0x51, 0x13, 0x3e, 0x78, 0xcf, 0xed, 0x3d,
 0xf8, 0x6c, 0x4d, 0xbe, 0xf8, 0x6f, 0xad, 0xbd, 0xcc, 0x60, 0x4b, 0xbe,
 0x20, 0x9f, 0xdd, 0xbd, 0x00, 0x74, 0xf8, 0x39, 0xec, 0x94, 0xd5, 0xbd,
 0x80, 0xd5, 0xab, 0xbc, 0x18, 0x6d, 0x2e, 0x3d, 0x58, 0x61, 0x54, 0xbd,
 0xbc, 0xab, 0x1a, 0x3e, 0xc0, 0x0f, 0x86, 0x3e, 0x78, 0x94, 0x15, 0x3e,
 0xa0, 0x5f, 0x7d, 0x3e, 0xb0, 0xa5, 0x23, 0x3e, 0xde, 0x3e, 0x52, 0xbe,
 0x26, 0xf0, 0x23, 0x3e, 0x2c, 0x72, 0x97, 0x3d, 0x90, 0x24, 0x4d, 0xbe,
 0x98, 0xa3, 0x0b, 0x3d, 0x48, 0x16, 0x8a, 0x3e, 0xc4, 0x9d, 0xfa, 0x3d,
 0xd8, 0x88, 0x19, 0x3e, 0xde, 0xc4, 0xaa, 0xbc, 0xc3, 0x03, 0x09, 0x3e,
 0x04, 0x30, 0x45, 0xbe, 0x57, 0xc3, 0x90, 0x3e, 0x86, 0x4f, 0x31, 0x3e,
 0xe0, 0xd9, 0x28, 0x3e, 0x53, 0xaa, 0xd7, 0x3d, 0x04, 0xdc, 0x1d, 0x3e,
 0xd7, 0xc9, 0x27, 0x3e, 0x17, 0xa3, 0x8e, 0xbe, 0xc2, 0x59, 0xff, 0x3d,
 0x4b, 0xd7, 0xd0, 0x3c, 0xd1, 0x75, 0x7a, 0x3e, 0x76, 0x5c, 0x33, 0xbe,
 0x9e, 0xf7, 0x3c, 0x3e, 0xb7, 0xef, 0xa6, 0xba, 0x26, 0xfe, 0xdd, 0x3d,
 0x4b, 0x66, 0xe6, 0x3d, 0x0b, 0x4c, 0xad, 0xbd, 0xa5, 0xc7, 0x49, 0x3e,
 0xba, 0xae, 0x05, 0xbe, 0x76, 0x7f, 0xdf, 0xbd, 0x6d, 0xba, 0x89, 0x3e,
 0x72, 0xbb, 0xf3, 0x3d, 0xbd, 0x13, 0x45, 0x3e, 0x19, 0x98, 0x9d, 0xbe,
 0xa3, 0xb3, 0x8d, 0x3e, 0x84, 0x11, 0x64, 0xbe, 0xcc, 0x01, 0x8f, 0x3e,
 0x8f, 0xcc, 0xc4, 0xbc, 0xa6, 0x52, 0x7c, 0x3e, 0x6b, 0x96, 0x74, 0x3d,
 0x52, 0x5d, 0x38, 0x3e, 0x2a, 0x8c, 0x1b, 0xbe, 0x67, 0x43, 0x7c, 0x3e,
 0x9d, 0x65, 0x06, 0xbe, 0x99, 0x83, 0x2a, 0x3e, 0xc2, 0xbb, 0x33, 0xbe,
 0x34, 0xeb, 0xcc, 0x3d, 0x90, 0x0a, 0x89, 0x3b, 0x30, 0x49, 0xe3, 0xbc,
 0xb7, 0x6c, 0xa9, 0xbd, 0xba, 0xd6, 0xc3, 0xbd, 0x56, 0x7d, 0x59, 0x3e,
 0x88, 0xd5, 0x81, 0x3e, 0x0a, 0x0c, 0x2f, 0xbe, 0x51, 0xef, 0x7e, 0x3e,
 0x24, 0x23, 0x55, 0x3e, 0xcc, 0x52, 0x36, 0xbe, 0xec, 0x06, 0x32, 0x3e,
 0xd8, 0x83, 0xa8, 0xbd, 0x8e, 0xa9, 0xa7, 0xbc, 0xcf, 0x31, 0x44, 0x3e,
 0x11, 0x86, 0xda, 0x3d, 0xec, 0x37, 0x46, 0x3e, 0x22, 0x62, 0x99, 0xbe,
 0x22, 0x3b, 0xcf, 0x3d, 0x5f, 0xb1, 0x9b, 0x3e, 0x7d, 0x1b, 0xe8, 0x3d,
 0xe3, 0xac, 0xa0, 0x3e, 0xfa, 0x03, 0xac, 0xbe, 0xaa, 0xc2, 0x13, 0xbe,
 0xd3, 0x04, 0x00, 0x3e, 0xed, 0xed, 0x0d, 0xbd, 0x8a, 0x78, 0x54, 0xbb,
 0x0b, 0x69, 0xaa, 0xbd, 0x5b, 0xee, 0x48, 0x3b, 0x36, 0x09, 0x5e, 0x3e,
 0x97, 0xa4, 0xcf, 0x3c, 0xaa, 0xdc, 0x75, 0xbe, 0x7a, 0x01, 0x4b, 0x3d,
 0xd5, 0x60, 0x40, 0xbd, 0x87, 0x3f, 0xea, 0xbd, 0x1e, 0x85, 0x06, 0xbe,
 0x3e, 0x29, 0x8a, 0x3d, 0x3f, 0x01, 0xa5, 0x3d, 0x12, 0x25, 0x99, 0x3e,
 0x43, 0x33, 0x2e, 0xbe, 0x48, 0x70, 0x80, 0xbd, 0x29, 0x0b, 0xe6, 0xbd,
 0x70, 0x64, 0x81, 0xbe, 0x94, 0x0e, 0x2d, 0xbe, 0xf5, 0xfa, 0x71, 0x3e,
 0xc7, 0xd5, 0xd5, 0x3d, 0x22, 0x20, 0x3f, 0xbd, 0x84, 0xeb, 0x7c, 0xbd,
 0x0a, 0xeb, 0x80, 0xbd, 0x1d, 0xe9, 0x47, 0xbe, 0x62, 0xc4, 0x2b, 0x3e,
 0x12, 0xb1, 0x75, 0xbe, 0x80, 0x2a, 0x95, 0x3d, 0x98, 0x62, 0x0d, 0x3e,
 0x42, 0xc6, 0xab, 0xbd, 0xa8, 0xdb, 0x2b, 0x3d, 0x06, 0xbb, 0xa7, 0xbd,
 0x55, 0xce, 0x36, 0x3e, 0x21, 0xf0, 0xc4, 0xbd, 0x04, 0xaf, 0x1d, 0xbd,
 0x60, 0x68, 0x9a, 0x3d, 0x97, 0xb4, 0x03, 0x3c, 0x80, 0xe9, 0x81, 0xbe,
 0xe7, 0x44, 0xd9, 0x3d, 0xfc, 0x9b, 0x8f, 0x3e, 0xd0, 0xe9, 0x99, 0xbe,
 0x94, 0xfd, 0xef, 0xbd, 0xde, 0x2d, 0x38, 0x3d, 0x15, 0xd7, 0x3f, 0xbd,
 0xc5, 0x6a, 0x31, 0xbe, 0x39, 0x1b, 0xc5, 0xbd, 0x3a, 0x0a, 0xac, 0xbe,
 0x01, 0xb4, 0x72, 0xbe, 0x30, 0x7d, 0x9f, 0xbe, 0xae, 0x96, 0xa2, 0x3e,
 0x4b, 0xaf, 0xb2, 0x3d, 0x35, 0xe4, 0x0c, 0x3e, 0x2b, 0xeb, 0x9e, 0xbd,
 0x39, 0x21, 0xdd, 0xbd, 0xc9, 0xbb, 0x37, 0x3e, 0x04, 0xf4, 0x84, 0xbe,
 0x93, 0x47, 0x9d, 0xbd, 0x21, 0x8a, 0x08, 0xbc, 0xe2, 0x5c, 0x25, 0x3e,
 0xbf, 0x94, 0x93, 0xbd, 0x5f, 0x0d, 0x26, 0xbe, 0x82, 0xbe, 0x96, 0x3c,
 0x64, 0x06, 0x82, 0xbd, 0xa8, 0xfe, 0x70, 0x3e, 0x78, 0x03, 0x38, 0x3d,
 0x2f, 0xa2, 0x93, 0xbe, 0xa6, 0xe8, 0x8b, 0xbe, 0xc3, 0xbe, 0x20, 0xbe,
 0x81, 0xb7, 0x57, 0xbe, 0x29, 0xe5, 0x5b, 0x3d, 0x5e, 0x70, 0xe9, 0x3d,
 0x3f, 0x31, 0x7a, 0xbe, 0x39, 0x16, 0x10, 0xbe, 0xeb, 0xe4, 0x77, 0x3e,
 0x02, 0xda, 0x36, 0xbe, 0x8c, 0x0e, 0x80, 0x3e, 0x73, 0x67, 0x41, 0x3e,
 0x6b, 0xe3, 0xb3, 0xbe, 0x91, 0x84, 0x86, 0xbe, 0x3d, 0x6a, 0xbc, 0x3e,
 0x42, 0x24, 0x08, 0xbe, 0x29, 0x41, 0xe2, 0x3d, 0x89, 0x02, 0x28, 0xbe,
 0x17, 0x50, 0x16, 0xbe, 0x04, 0x17, 0x0e, 0x3c, 0xd4, 0x40, 0xa9, 0x3e,
 0x75, 0xd4, 0xc1, 0xbd, 0x31, 0x94, 0x7e, 0xbe, 0xd0, 0x8a, 0x26, 0xbe,
 0x77, 0x2d, 0x87, 0x3d, 0x37, 0x0d, 0x49, 0x3e, 0x79, 0x39, 0x6a, 0x3d,
 0x93, 0x8e, 0x92, 0xbe, 0x05, 0xe2, 0x12, 0xbe, 0xb3, 0x5b, 0xa3, 0xbe,
 0x6a, 0x12, 0x15, 0x3e, 0x67, 0xca, 0x75, 0x3d, 0x2e, 0x14, 0x02, 0x3e,
 0x0c, 0x39, 0x39, 0xbe, 0x70, 0x23, 0xa1, 0x3c, 0x40, 0xab, 0x8c, 0xbc,
 0x9c, 0x22, 0x30, 0x3e, 0x68, 0x9c, 0xd8, 0xbc, 0xbc, 0x8e, 0x90, 0x3d,
 0x34, 0x4e, 0xe9, 0x3d, 0x3a, 0x62, 0x44, 0x3e, 0x78, 0x55, 0x37, 0x3d,
 0xd0, 0xf4, 0x8f, 0xbc, 0x72, 0x03, 0xbe, 0xbd, 0x22, 0x8c, 0x6d, 0xbe,
 0x22, 0xcd, 0x55, 0x3e, 0x80, 0x61, 0x2d, 0x3e, 0xe8, 0x27, 0x52, 0x3d,
 0xdc, 0x1a, 0x38, 0x3e, 0x72, 0x28, 0x8c, 0x3e, 0x92, 0xf6, 0x1c, 0xbe,
 0x9c, 0x16, 0x30, 0x3e, 0xe3, 0xa1, 0x86, 0xbe, 0x84, 0x79, 0x42, 0x3e,
 0x2c, 0xd5, 0x67, 0xbd, 0xec, 0xba, 0xaf, 0xbd, 0x80, 0x53, 0x9a, 0x3c,
 0x2a, 0xa4, 0x52, 0x3e, 0xf0, 0xd2, 0x54, 0x3e, 0x20, 0x89, 0x55, 0xbc,
 0xf0, 0x68, 0xe5, 0x3d, 0xb6, 0x68, 0x61, 0x3e, 0xc8, 0x67, 0x8b, 0xbe,
 0xc0, 0xb0, 0x83, 0x3b, 0x1c, 0xe4, 0x2a, 0xbd, 0x70, 0x77, 0x02, 0xbd,
 0x14, 0x1d, 0x6b, 0x3e, 0x8a, 0x23, 0x66, 0x3e, 0x14, 0x64, 0x21, 0xbd,
 0x80, 0x6c, 0xb3, 0xbb, 0x3a, 0xd0, 0xe8, 0xbd, 0x40, 0x61, 0xbc, 0xbb,
 0xe6, 0x1a, 0xa8, 0xbd, 0xbb, 0x38, 0x83, 0x3e, 0x89, 0x1c, 0xcc, 0xbd,
 0xb3, 0x0f, 0x30, 0xbe, 0xfa, 0x89, 0x19, 0x3e, 0x01, 0xc8, 0xcd, 0xbd,
 0x5a, 0x6f, 0x06, 0x3e, 0x75, 0x19, 0x4a, 0x3e, 0xa7, 0x40, 0x55, 0x3d,
 0x6a, 0x11, 0xd5, 0xbd, 0x6e, 0xec, 0x65, 0x3e, 0x6e, 0x5c, 0x53, 0x3e,
 0xff, 0x50, 0x96, 0x3d, 0x81, 0x7c, 0x81, 0x3e, 0xa8, 0x2d, 0x9a, 0xbb,
 0xfe, 0x43, 0xa9, 0xbd, 0x72, 0x20, 0xad, 0xbe, 0x26, 0x89, 0x4c, 0xbd,
 0x40, 0x05, 0xe9, 0x3d, 0x72, 0x10, 0xae, 0x3d, 0x02, 0x76, 0xe8, 0xbd,
 0x46, 0xca, 0x2a, 0xbe, 0x5a, 0xa6, 0xba, 0xbe, 0x92, 0xe8, 0xba, 0xbd,
 0x4f, 0x10, 0x0d, 0xbe, 0x54, 0xbb, 0x85, 0xbd, 0xa8, 0xca, 0x56, 0xbe,
 0xfc, 0x06, 0x53, 0x3e, 0xb4, 0x27, 0xed, 0xbb, 0x48, 0x57, 0xfb, 0x3d,
 0xb6, 0x58, 0x42, 0xbe, 0xa6, 0x21, 0xa0, 0xbc, 0x00, 0x02, 0xa2, 0xbe,
 0xc2, 0xae, 0x4e, 0x3e, 0x5a, 0xfa, 0x38, 0xbe, 0x7a, 0x31, 0xb0, 0x3d,
 0xcb, 0x14, 0xa5, 0xbe, 0xf9, 0xdb, 0x3a, 0xbe, 0xc0, 0xd2, 0x57, 0xbe,
 0xc5, 0x2e, 0xc6, 0xbd, 0xb1, 0xde, 0x77, 0xbd, 0x50, 0x5b, 0x17, 0xbe,
 0xe8, 0x92, 0x0a, 0x3e, 0xb0, 0xf0, 0xf6, 0xbd, 0xef, 0x84, 0xce, 0xbd,
 0x4b, 0x8f, 0xbe, 0xbd, 0x48, 0xeb, 0x14, 0x3d, 0xd8, 0x0f, 0x1d, 0xbe,
 0xc8, 0x99, 0x8b, 0x3d, 0x07, 0xc6, 0x62, 0xbe, 0xbc, 0xf5, 0x1c, 0xbe,
 0x42, 0x75, 0x60, 0x3e, 0x00, 0x58, 0x00, 0xbe, 0xab, 0xf7, 0xc7, 0xbd,
 0xd2, 0xe6, 0xcb, 0xbc, 0x0e, 0x26, 0x37, 0x3e, 0x96, 0xdc, 0x8b, 0xbd,
 0x70, 0x63, 0x6c, 0x3e, 0xba, 0xb9, 0x6a, 0xbe, 0x56, 0xd6, 0xfa, 0xbd,
 0xf5, 0x6b, 0x74, 0xbe, 0x95, 0x57, 0xe4, 0x3d, 0x80, 0xc5, 0x19, 0xbe,
 0xdf, 0x60, 0xb2, 0x3d, 0xed, 0xe5, 0xd1, 0xbd, 0xd8, 0xaa, 0x1d, 0xbe,
 0xcc, 0x28, 0x0d, 0xbe, 0xfb, 0xec, 0x75, 0x3e, 0xfd, 0x12, 0xa6, 0x3d,
 0x4d, 0x60, 0xf6, 0x3d, 0x03, 0x12, 0x97, 0x3d, 0x18, 0x40, 0x3f, 0x3d,
 0x89, 0xcf, 0xd1, 0x3d, 0x52, 0x07, 0x68, 0xbe, 0x30, 0xba, 0x04, 0x3d,
 0x11, 0xb9, 0x15, 0xbd, 0x46, 0x1e, 0xaa, 0x3e, 0xda, 0x2f, 0x77, 0xbd,
 0x18, 0x73, 0xf3, 0xbd, 0x0f, 0x96, 0xe9, 0x3c, 0x52, 0xff, 0xff, 0xff,
 0x04, 0x00, 0x00, 0x00, 0xa0, 0x00, 0x00, 0x00, 0x6a, 0xba, 0x9d, 0x3c,
 0x00, 0x00, 0x00, 0x00, 0x00, 0x00, 0x00, 0x00, 0x00, 0x00, 0x00, 0x00,
 0x00, 0x00, 0x00, 0x00, 0x5c, 0x6b, 0xa7, 0xbc, 0x82, 0xda, 0x9d, 0x3c,
 0xb3, 0xc6, 0xa0, 0x3c, 0x24, 0xce, 0x2e, 0x3d, 0xeb, 0x67, 0xa7, 0xbc,
 0x88, 0xf0, 0x9d, 0x3c, 0x00, 0x00, 0x00, 0x00, 0x00, 0x00, 0x00, 0x00,
 0x00, 0x00, 0x00, 0x00, 0x00, 0x00, 0x00, 0x00, 0xd9, 0xba, 0xb8, 0xbc,
 0x00, 0x00, 0x00, 0x00, 0x5d, 0x7e, 0xc5, 0xbc, 0x00, 0x00, 0x00, 0x00,
 0x00, 0x00, 0x00, 0x00, 0xdf, 0xaf, 0xa6, 0xbc, 0x00, 0x00, 0x00, 0x00,
 0xc7, 0xfb, 0xa7, 0xbc, 0x00, 0x00, 0x00, 0x00, 0x87, 0xf4, 0x9b, 0x3c,
 0x13, 0x6d, 0xa2, 0x3c, 0x2b, 0x6f, 0xc8, 0xbc, 0x35, 0x65, 0xaa, 0xbc,
 0x38, 0xee, 0xa2, 0x3c, 0x4e, 0xd2, 0x2f, 0x3c, 0x00, 0x00, 0x00, 0x00,
 0xf3, 0xab, 0xa2, 0x3c, 0x00, 0x00, 0x00, 0x00, 0x2d, 0xb8, 0xa7, 0xbc,
 0x4c, 0x63, 0x3d, 0xbc, 0x8a, 0x06, 0xa9, 0xbc, 0xe1, 0x8a, 0xaa, 0xbc,
 0x00, 0x00, 0x00, 0x00, 0xea, 0x17, 0xa3, 0x3c, 0xe8, 0x5a, 0x95, 0xbc,
 0x00, 0x00, 0x06, 0x00, 0x08, 0x00, 0x04, 0x00, 0x06, 0x00, 0x00, 0x00,
 0x04, 0x00, 0x00, 0x00, 0x04, 0x00, 0x00, 0x00, 0xd2, 0x3f, 0xa5, 0xbc,
 0xe4, 0xfb, 0xff, 0xff, 0xe8, 0xfb, 0xff, 0xff, 0x0f, 0x00, 0x00, 0x00,
 0x4d, 0x4c, 0x49, 0x52, 0x20, 0x43, 0x6f, 0x6e, 0x76, 0x65, 0x72, 0x74,
 0x65, 0x64, 0x2e, 0x00, 0x01, 0x00, 0x00, 0x00, 0x14, 0x00, 0x00, 0x00,
 0x00, 0x00, 0x0e, 0x00, 0x18, 0x00, 0x14, 0x00, 0x10, 0x00, 0x0c, 0x00,
 0x08, 0x00, 0x04, 0x00, 0x0e, 0x00, 0x00, 0x00, 0x14, 0x00, 0x00, 0x00,
 0x1c, 0x00, 0x00, 0x00, 0xd0, 0x00, 0x00, 0x00, 0xd4, 0x00, 0x00, 0x00,
 0xd8, 0x00, 0x00, 0x00, 0x04, 0x00, 0x00, 0x00, 0x6d, 0x61, 0x69, 0x6e,
 0x00, 0x00, 0x00, 0x00, 0x03, 0x00, 0x00, 0x00, 0x78, 0x00, 0x00, 0x00,
 0x34, 0x00, 0x00, 0x00, 0x10, 0x00, 0x00, 0x00, 0x00, 0x00, 0x0a, 0x00,
 0x10, 0x00, 0x0c, 0x00, 0x08, 0x00, 0x04, 0x00, 0x0a, 0x00, 0x00, 0x00,
 0x0c, 0x00, 0x00, 0x00, 0x10, 0x00, 0x00, 0x00, 0x01, 0x00, 0x00, 0x00,
 0x01, 0x00, 0x00, 0x00, 0x07, 0x00, 0x00, 0x00, 0x01, 0x00, 0x00, 0x00,
 0x06, 0x00, 0x00, 0x00, 0xce, 0xff, 0xff, 0xff, 0x10, 0x00, 0x00, 0x00,
 0x00, 0x00, 0x00, 0x08, 0x0c, 0x00, 0x00, 0x00, 0x10, 0x00, 0x00, 0x00,
 0x8c, 0xfc, 0xff, 0xff, 0x01, 0x00, 0x00, 0x00, 0x06, 0x00, 0x00, 0x00,
 0x03, 0x00, 0x00, 0x00, 0x05, 0x00, 0x00, 0x00, 0x04, 0x00, 0x00, 0x00,
 0x01, 0x00, 0x00, 0x00, 0x00, 0x00, 0x0e, 0x00, 0x16, 0x00, 0x00, 0x00,
 0x10, 0x00, 0x0c, 0x00, 0x0b, 0x00, 0x04, 0x00, 0x0e, 0x00, 0x00, 0x00,
 0x18, 0x00, 0x00, 0x00, 0x00, 0x00, 0x00, 0x08, 0x18, 0x00, 0x00, 0x00,
 0x1c, 0x00, 0x00, 0x00, 0x00, 0x00, 0x06, 0x00, 0x08, 0x00, 0x07, 0x00,
 0x06, 0x00, 0x00, 0x00, 0x00, 0x00, 0x00, 0x01, 0x01, 0x00, 0x00, 0x00,
 0x05, 0x00, 0x00, 0x00, 0x03, 0x00, 0x00, 0x00, 0x00, 0x00, 0x00, 0x00,
 0x03, 0x00, 0x00, 0x00, 0x02, 0x00, 0x00, 0x00, 0x01, 0x00, 0x00, 0x00,
 0x07, 0x00, 0x00, 0x00, 0x01, 0x00, 0x00, 0x00, 0x00, 0x00, 0x00, 0x00,
 0x08, 0x00, 0x00, 0x00, 0xd0, 0x02, 0x00, 0x00, 0x60, 0x02, 0x00, 0x00,
 0xf4, 0x01, 0x00, 0x00, 0xac, 0x01, 0x00, 0x00, 0x60, 0x01, 0x00, 0x00,
 0xd8, 0x00, 0x00, 0x00, 0x60, 0x00, 0x00, 0x00, 0x04, 0x00, 0x00, 0x00,
 0x66, 0xfd, 0xff, 0xff, 0x00, 0x00, 0x00, 0x01, 0x14, 0x00, 0x00, 0x00,
 0x1c, 0x00, 0x00, 0x00, 0x1c, 0x00, 0x00, 0x00, 0x08, 0x00, 0x00, 0x00,
 0x34, 0x00, 0x00, 0x00, 0x02, 0x00, 0x00, 0x00, 0xff, 0xff, 0xff, 0xff,
 0x01, 0x00, 0x00, 0x00, 0x50, 0xfd, 0xff, 0xff, 0x19, 0x00, 0x00, 0x00,
 0x53, 0x74, 0x61, 0x74, 0x65, 0x66, 0x75, 0x6c, 0x50, 0x61, 0x72, 0x74,
 0x69, 0x74, 0x69, 0x6f, 0x6e, 0x65, 0x64, 0x43, 0x61, 0x6c, 0x6c, 0x3a,
 0x30, 0x00, 0x00, 0x00, 0x02, 0x00, 0x00, 0x00, 0x01, 0x00, 0x00, 0x00,
 0x01, 0x00, 0x00, 0x00, 0xbe, 0xfd, 0xff, 0xff, 0x00, 0x00, 0x00, 0x01,
 0x14, 0x00, 0x00, 0x00, 0x1c, 0x00, 0x00, 0x00, 0x1c, 0x00, 0x00, 0x00,
 0x07, 0x00, 0x00, 0x00, 0x50, 0x00, 0x00, 0x00, 0x02, 0x00, 0x00, 0x00,
 0xff, 0xff, 0xff, 0xff, 0x01, 0x00, 0x00, 0x00, 0xa8, 0xfd, 0xff, 0xff,
 0x34, 0x00, 0x00, 0x00, 0x73, 0x65, 0x71, 0x75, 0x65, 0x6e, 0x74, 0x69,
 0x61, 0x6c, 0x2f, 0x64, 0x65, 0x6e, 0x73, 0x65, 0x5f, 0x31, 0x2f, 0x4d,
 0x61, 0x74, 0x4d, 0x75, 0x6c, 0x3b, 0x73, 0x65, 0x71, 0x75, 0x65, 0x6e,
 0x74, 0x69, 0x61, 0x6c, 0x2f, 0x64, 0x65, 0x6e, 0x73, 0x65, 0x5f, 0x31,
 0x2f, 0x42, 0x69, 0x61, 0x73, 0x41, 0x64, 0x64, 0x00, 0x00, 0x00, 0x00,
 0x02, 0x00, 0x00, 0x00, 0x01, 0x00, 0x00, 0x00, 0x01, 0x00, 0x00, 0x00,
 0x32, 0xfe, 0xff, 0xff, 0x00, 0x00, 0x00, 0x01, 0x14, 0x00, 0x00, 0x00,
 0x1c, 0x00, 0x00, 0x00, 0x1c, 0x00, 0x00, 0x00, 0x06, 0x00, 0x00, 0x00,
 0x60, 0x00, 0x00, 0x00, 0x02, 0x00, 0x00, 0x00, 0xff, 0xff, 0xff, 0xff,
 0x28, 0x00, 0x00, 0x00, 0x1c, 0xfe, 0xff, 0xff, 0x46, 0x00, 0x00, 0x00,
 0x73, 0x65, 0x71, 0x75, 0x65, 0x6e, 0x74, 0x69, 0x61, 0x6c, 0x2f, 0x64,
 0x65, 0x6e, 0x73, 0x65, 0x2f, 0x4d, 0x61, 0x74, 0x4d, 0x75, 0x6c, 0x3b,
 0x73, 0x65, 0x71, 0x75, 0x65, 0x6e, 0x74, 0x69, 0x61, 0x6c, 0x2f, 0x64,
 0x65, 0x6e, 0x73, 0x65, 0x2f, 0x52, 0x65, 0x6c, 0x75, 0x3b, 0x73, 0x65,
 0x71, 0x75, 0x65, 0x6e, 0x74, 0x69, 0x61, 0x6c, 0x2f, 0x64, 0x65, 0x6e,
 0x73, 0x65, 0x2f, 0x42, 0x69, 0x61, 0x73, 0x41, 0x64, 0x64, 0x00, 0x00,
 0x02, 0x00, 0x00, 0x00, 0x01, 0x00, 0x00, 0x00, 0x28, 0x00, 0x00, 0x00,
 0x22, 0xff, 0xff, 0xff, 0x00, 0x00, 0x00, 0x01, 0x10, 0x00, 0x00, 0x00,
 0x10, 0x00, 0x00, 0x00, 0x05, 0x00, 0x00, 0x00, 0x28, 0x00, 0x00, 0x00,
 0x90, 0xfe, 0xff, 0xff, 0x19, 0x00, 0x00, 0x00, 0x73, 0x65, 0x71, 0x75,
 0x65, 0x6e, 0x74, 0x69, 0x61, 0x6c, 0x2f, 0x64, 0x65, 0x6e, 0x73, 0x65,
 0x5f, 0x31, 0x2f, 0x4d, 0x61, 0x74, 0x4d, 0x75, 0x6c, 0x00, 0x00, 0x00,
 0x02, 0x00, 0x00, 0x00, 0x01, 0x00, 0x00, 0x00, 0x28, 0x00, 0x00, 0x00,
 0x6a, 0xff, 0xff, 0xff, 0x00, 0x00, 0x00, 0x01, 0x10, 0x00, 0x00, 0x00,
 0x10, 0x00, 0x00, 0x00, 0x04, 0x00, 0x00, 0x00, 0x24, 0x00, 0x00, 0x00,
 0xd8, 0xfe, 0xff, 0xff, 0x17, 0x00, 0x00, 0x00, 0x73, 0x65, 0x71, 0x75,
 0x65, 0x6e, 0x74, 0x69, 0x61, 0x6c, 0x2f, 0x64, 0x65, 0x6e, 0x73, 0x65,
 0x2f, 0x4d, 0x61, 0x74, 0x4d, 0x75, 0x6c, 0x00, 0x02, 0x00, 0x00, 0x00,
 0x28, 0x00, 0x00, 0x00, 0x28, 0x00, 0x00, 0x00, 0xae, 0xff, 0xff, 0xff,
 0x00, 0x00, 0x00, 0x01, 0x10, 0x00, 0x00, 0x00, 0x10, 0x00, 0x00, 0x00,
 0x03, 0x00, 0x00, 0x00, 0x34, 0x00, 0x00, 0x00, 0x1c, 0xff, 0xff, 0xff,
 0x27, 0x00, 0x00, 0x00, 0x73, 0x65, 0x71, 0x75, 0x65, 0x6e, 0x74, 0x69,
 0x61, 0x6c, 0x2f, 0x64, 0x65, 0x6e, 0x73, 0x65, 0x2f, 0x42, 0x69, 0x61,
 0x73, 0x41, 0x64, 0x64, 0x2f, 0x52, 0x65, 0x61, 0x64, 0x56, 0x61, 0x72,
 0x69, 0x61, 0x62, 0x6c, 0x65, 0x4f, 0x70, 0x00, 0x01, 0x00, 0x00, 0x00,
 0x28, 0x00, 0x00, 0x00, 0x00, 0x00, 0x16, 0x00, 0x18, 0x00, 0x14, 0x00,
 0x00, 0x00, 0x10, 0x00, 0x0c, 0x00, 0x08, 0x00, 0x00, 0x00, 0x00, 0x00,
 0x00, 0x00, 0x07, 0x00, 0x16, 0x00, 0x00, 0x00, 0x00, 0x00, 0x00, 0x01,
 0x10, 0x00, 0x00, 0x00, 0x10, 0x00, 0x00, 0x00, 0x02, 0x00, 0x00, 0x00,
 0x38, 0x00, 0x00, 0x00, 0x84, 0xff, 0xff, 0xff, 0x29, 0x00, 0x00, 0x00,
 0x73, 0x65, 0x71, 0x75, 0x65, 0x6e, 0x74, 0x69, 0x61, 0x6c, 0x2f, 0x64,
 0x65, 0x6e, 0x73, 0x65, 0x5f, 0x31, 0x2f, 0x42, 0x69, 0x61, 0x73, 0x41,
 0x64, 0x64, 0x2f, 0x52, 0x65, 0x61, 0x64, 0x56, 0x61, 0x72, 0x69, 0x61,
 0x62, 0x6c, 0x65, 0x4f, 0x70, 0x00, 0x00, 0x00, 0x01, 0x00, 0x00, 0x00,
 0x01, 0x00, 0x00, 0x00, 0x00, 0x00, 0x16, 0x00, 0x1c, 0x00, 0x18, 0x00,
 0x00, 0x00, 0x14, 0x00, 0x10, 0x00, 0x0c, 0x00, 0x00, 0x00, 0x00, 0x00,
 0x08, 0x00, 0x07, 0x00, 0x16, 0x00, 0x00, 0x00, 0x00, 0x00, 0x00, 0x01,
 0x14, 0x00, 0x00, 0x00, 0x20, 0x00, 0x00, 0x00, 0x20, 0x00, 0x00, 0x00,
 0x01, 0x00, 0x00, 0x00, 0x3c, 0x00, 0x00, 0x00, 0x02, 0x00, 0x00, 0x00,
 0xff, 0xff, 0xff, 0xff, 0x28, 0x00, 0x00, 0x00, 0x04, 0x00, 0x04, 0x00,
 0x04, 0x00, 0x00, 0x00, 0x1d, 0x00, 0x00, 0x00, 0x73, 0x65, 0x72, 0x76,
 0x69, 0x6e, 0x67, 0x5f, 0x64, 0x65, 0x66, 0x61, 0x75, 0x6c, 0x74, 0x5f,
 0x64, 0x65, 0x6e, 0x73, 0x65, 0x5f, 0x69, 0x6e, 0x70, 0x75, 0x74, 0x3a,
 0x30, 0x00, 0x00, 0x00, 0x02, 0x00, 0x00, 0x00, 0x01, 0x00, 0x00, 0x00,
 0x28, 0x00, 0x00, 0x00, 0x02, 0x00, 0x00, 0x00, 0x20, 0x00, 0x00, 0x00,
 0x04, 0x00, 0x00, 0x00, 0xf4, 0xff, 0xff, 0xff, 0x0e, 0x00, 0x00, 0x00,
 0x00, 0x00, 0x00, 0x0e, 0x0c, 0x00, 0x0c, 0x00, 0x0b, 0x00, 0x00, 0x00,
 0x00, 0x00, 0x04, 0x00, 0x0c, 0x00, 0x00, 0x00, 0x09, 0x00, 0x00, 0x00,
 0x00, 0x00, 0x00, 0x09
};

#endif //TINYML_MODEL_H