#ifndef TINYML_MODEL_H
#define TINYML_MODEL_H


unsigned int tinyml_model_len = 8380;
unsigned char tinyml_model[] = {
0x1c, 0x00, 0x00, 0x00, 0x54, 0x46, 0x4c, 0x33, 0x14, 0x00, 0x20, 0x00,
 0x1c, 0x00, 0x18, 0x00, 0x14, 0x00, 0x10, 0x00, 0x0c, 0x00, 0x00, 0x00,
 0x08, 0x00, 0x04, 0x00, 0x14, 0x00, 0x00, 0x00, 0x1c, 0x00, 0x00, 0x00,
 0x84, 0x00, 0x00, 0x00, 0xdc, 0x00, 0x00, 0x00, 0x14, 0x1c, 0x00, 0x00,
 0x24, 0x1c, 0x00, 0x00, 0x58, 0x20, 0x00, 0x00, 0x03, 0x00, 0x00, 0x00,
 0x01, 0x00, 0x00, 0x00, 0x04, 0x00, 0x00, 0x00, 0xa2, 0xe3, 0xff, 0xff,
 0x0c, 0x00, 0x00, 0x00, 0x1c, 0x00, 0x00, 0x00, 0x38, 0x00, 0x00, 0x00,
 0x0f, 0x00, 0x00, 0x00, 0x73, 0x65, 0x72, 0x76, 0x69, 0x6e, 0x67, 0x5f,
 0x64, 0x65, 0x66, 0x61, 0x75, 0x6c, 0x74, 0x00, 0x01, 0x00, 0x00, 0x00,
 0x04, 0x00, 0x00, 0x00, 0x98, 0xff, 0xff, 0xff, 0x07, 0x00, 0x00, 0x00,
 0x04, 0x00, 0x00, 0x00, 0x07, 0x00, 0x00, 0x00, 0x64, 0x65, 0x6e, 0x73,
 0x65, 0x5f, 0x31, 0x00, 0x01, 0x00, 0x00, 0x00, 0x04, 0x00, 0x00, 0x00,
 0x6e, 0xe4, 0xff, 0xff, 0x04, 0x00, 0x00, 0x00, 0x0b, 0x00, 0x00, 0x00,
 0x64, 0x65, 0x6e, 0x73, 0x65, 0x5f, 0x69, 0x6e, 0x70, 0x75, 0x74, 0x00,
 0x02, 0x00, 0x00, 0x00, 0x34, 0x00, 0x00, 0x00, 0x04, 0x00, 0x00, 0x00,
 0xdc, 0xff, 0xff, 0xff, 0x0a, 0x00, 0x00, 0x00, 0x04, 0x00, 0x00, 0x00,
 0x13, 0x00, 0x00, 0x00, 0x43, 0x4f, 0x4e, 0x56, 0x45, 0x52, 0x53, 0x49,
 0x4f, 0x4e, 0x5f, 0x4d, 0x45, 0x54, 0x41, 0x44, 0x41, 0x54, 0x41, 0x00,
 0x08, 0x00, 0x0c, 0x00, 0x08, 0x00, 0x04, 0x00, 0x08, 0x00, 0x00, 0x00,
 0x09, 0x00, 0x00, 0x00, 0x04, 0x00, 0x00, 0x00, 0x13, 0x00, 0x00, 0x00,
 0x6d, 0x69, 0x6e, 0x5f, 0x72, 0x75, 0x6e, 0x74, 0x69, 0x6d, 0x65, 0x5f,
 0x76, 0x65, 0x72, 0x73, 0x69, 0x6f, 0x6e, 0x00, 0x0b, 0x00, 0x00, 0x00,
 0x34, 0x1b, 0x00, 0x00, 0x2c, 0x1b, 0x00, 0x00, 0x18, 0x1b, 0x00, 0x00,
 0x60, 0x1a, 0x00, 0x00, 0x50, 0x01, 0x00, 0x00, 0xa0, 0x00, 0x00, 0x00,
 0x98, 0x00, 0x00, 0x00, 0x90, 0x00, 0x00, 0x00, 0x88, 0x00, 0x00, 0x00,
 0x68, 0x00, 0x00, 0x00, 0x04, 0x00, 0x00, 0x00, 0x12, 0xe5, 0xff, 0xff,
 0x04, 0x00, 0x00, 0x00, 0x54, 0x00, 0x00, 0x00, 0x0c, 0x00, 0x00, 0x00,
 0x08, 0x00, 0x0e, 0x00, 0x08, 0x00, 0x04, 0x00, 0x08, 0x00, 0x00, 0x00,
 0x10, 0x00, 0x00, 0x00, 0x24, 0x00, 0x00, 0x00, 0x00, 0x00, 0x06, 0x00,
 0x08, 0x00, 0x04, 0x00, 0x06, 0x00, 0x00, 0x00, 0x04, 0x00, 0x00, 0x00,
 0x00, 0x00, 0x00, 0x00, 0x00, 0x00, 0x0a, 0x00, 0x10, 0x00, 0x0c, 0x00,
 0x08, 0x00, 0x04, 0x00, 0x0a, 0x00, 0x00, 0x00, 0x02, 0x00, 0x00, 0x00,
 0x02, 0x00, 0x00, 0x00, 0x04, 0x00, 0x00, 0x00, 0x06, 0x00, 0x00, 0x00,
 0x32, 0x2e, 0x31, 0x35, 0x2e, 0x30, 0x00, 0x00, 0x72, 0xe5, 0xff, 0xff,
 0x04, 0x00, 0x00, 0x00, 0x10, 0x00, 0x00, 0x00, 0x31, 0x2e, 0x31, 0x34,
 0x2e, 0x30, 0x00, 0x00, 0x00, 0x00, 0x00, 0x00, 0x00, 0x00, 0x00, 0x00,
 0x5c, 0xe1, 0xff, 0xff, 0x60, 0xe1, 0xff, 0xff, 0x64, 0xe1, 0xff, 0xff,
 0x9a, 0xe5, 0xff, 0xff, 0x04, 0x00, 0x00, 0x00, 0xa0, 0x00, 0x00, 0x00,
 0xef, 0x7d, 0x4d, 0xbf, 0x6f, 0x57, 0xcf, 0x3d, 0x45, 0xb7, 0x02, 0x3f,
 0x1d, 0xe4, 0x12, 0x3e, 0x9f, 0x79, 0xa7, 0xbd, 0xef, 0x23, 0x16, 0xbe,
 0x9e, 0xa3, 0x68, 0xbe, 0xe2, 0x5d, 0x65, 0x3e, 0x1b, 0x60, 0x8b, 0x3e,
 0xfd, 0xbc, 0x5f, 0xbe, 0x02, 0x27, 0x35, 0x3f, 0x51, 0x22, 0x49, 0xbe,
 0x3b, 0x2a, 0x12, 0xbd, 0x0b, 0x77, 0xab, 0xbe, 0x84, 0x50, 0xef, 0x3e,
 0x45, 0xe3, 0x57, 0xbd, 0xf3, 0x59, 0xaf, 0xbe, 0x59, 0x82, 0xec, 0x3d,
 0x7a, 0x3a, 0x19, 0x3d, 0x7d, 0x15, 0x9e, 0x3e, 0x0f, 0x36, 0x20, 0xbf,
 0x5b, 0xcf, 0x34, 0x3e, 0x36, 0x36, 0x4f, 0xbd, 0x28, 0x41, 0xba, 0xbd,
 0x20, 0x4a, 0x76, 0x3e, 0x14, 0xb4, 0xd9, 0xbd, 0x2e, 0x72, 0x20, 0x3e,
 0x24, 0xb8, 0x42, 0xbe, 0x72, 0x99, 0xe0, 0xbd, 0xb0, 0x87, 0xfa, 0x3d,
 0x8d, 0xde, 0x27, 0xbe, 0xf0, 0x91, 0x87, 0xbe, 0xf0, 0x5a, 0x96, 0x3b,
 0x69, 0x55, 0x94, 0xbe, 0xda, 0xa2, 0xa4, 0x3e, 0x40, 0xd3, 0xb9, 0xbb,
 0x30, 0x82, 0x9e, 0xbe, 0x39, 0x99, 0xd1, 0x3d, 0xef, 0xa2, 0x77, 0xbe,
 0x08, 0x1b, 0x6b, 0x3d, 0x46, 0xe6, 0xff, 0xff, 0x04, 0x00, 0x00, 0x00,
 0x00, 0x19, 0x00, 0x00, 0xed, 0x0c, 0x24, 0x3e, 0xa7, 0x4c, 0x6b, 0xbe,
 0xde, 0x32, 0x0c, 0xbe, 0x7c, 0x89, 0xeb, 0x3e, 0x3a, 0x74, 0x55, 0xbe,
 0x30, 0x02, 0x35, 0x3e, 0x39, 0x28, 0x50, 0x3c, 0xe0, 0x43, 0xb8, 0x3d,
 0x61, 0xc9, 0xec, 0x3e, 0xf1, 0x50, 0x0a, 0x3f, 0x68, 0x4b, 0x58, 0xbe,
 0x3e, 0xbd, 0x3b, 0xbe, 0x56, 0xcb, 0x6e, 0x3e, 0xb7, 0xc2, 0xaf, 0xbc,
 0xad, 0x1c, 0xa3, 0x3e, 0x5d, 0x36, 0x03, 0x3e, 0x5d, 0xc3, 0x09, 0xbe,
 0xb8, 0x82, 0x10, 0xbe, 0xd5, 0x5d, 0xb2, 0x3e, 0x19, 0x06, 0x87, 0x3f,
 0xa7, 0xfc, 0x08, 0x3e, 0xff, 0xcd, 0xc5, 0xbc, 0x4c, 0xf8, 0x96, 0x3e,
 0x1d, 0x7e, 0x6c, 0xbd, 0xf1, 0xf3, 0x78, 0x3d, 0x9b, 0xc8, 0xa3, 0x3e,
 0x11, 0x98, 0x5b, 0xbd, 0x5c, 0x6c, 0x97, 0xbe, 0x4c, 0xca, 0x2e, 0x3e,
 0x30, 0x5a, 0x2e, 0xbf, 0xaf, 0xa2, 0xbe, 0x3e, 0xd0, 0x2a, 0xc1, 0x3d,
 0x57, 0x9f, 0x9e, 0x3d, 0xf2, 0x0c, 0xf1, 0xbd, 0x26, 0x89, 0x84, 0x3d,
 0x66, 0xc2, 0x33, 0xbe, 0xa1, 0x8e, 0xbf, 0xbd, 0x90, 0x7a, 0x83, 0x3f,
 0x91, 0x00, 0x50, 0x3a, 0x2c, 0xaf, 0x35, 0x3e, 0xbd, 0x97, 0xb6, 0xbd,
 0x0e, 0x75, 0xe6, 0xbd, 0x4d, 0x6b, 0x12, 0xbc, 0xce, 0x8b, 0xcd, 0x3d,
 0xb2, 0x28, 0xeb, 0xbd, 0x7c, 0xcb, 0x07, 0xbc, 0x4c, 0x42, 0x74, 0xbd,
 0x88, 0x3f, 0x50, 0x3c, 0x23, 0x75, 0xad, 0xbd, 0xdb, 0x10, 0x5e, 0x3e,
 0x91, 0x32, 0x0a, 0x3e, 0xe3, 0xa1, 0x83, 0x3e, 0xbe, 0xe9, 0xb0, 0xbd,
 0xd3, 0x25, 0x2a, 0x3e, 0xd5, 0x3d, 0x1e, 0xbe, 0x37, 0x42, 0x08, 0x3e,
 0x7b, 0xaf, 0xe4, 0x3d, 0xd6, 0xd2, 0xfe, 0x3d, 0x9b, 0xef, 0x7a, 0xbb,
 0x56, 0x59, 0xa3, 0xbe, 0x3f, 0x60, 0x32, 0xbe, 0xd5, 0x84, 0x20, 0xbe,
 0xfd, 0x2f, 0xfb, 0xbd, 0x40, 0x8e, 0x27, 0xbe, 0x49, 0x57, 0x56, 0xbe,
 0x7e, 0x91, 0xf5, 0x3d, 0xad, 0x09, 0x08, 0x3e, 0x00, 0xa0, 0x5a, 0xbe,
 0xc4, 0x77, 0x26, 0x3e, 0x7d, 0x50, 0x8c, 0x3e, 0x2a, 0xf5, 0x3d, 0x3e,
 0xa7, 0xec, 0xa4, 0x3e, 0x77, 0x42, 0x1d, 0xbe, 0x46, 0x12, 0x47, 0x3e,
 0x1b, 0x1e, 0xa6, 0xbc, 0x72, 0x34, 0xa2, 0x3e, 0x24, 0x4e, 0xa5, 0xbd,
 0xdb, 0xcc, 0x4c, 0xbd, 0x29, 0x50, 0xe8, 0xbd, 0x4f, 0xbe, 0x85, 0x3e,
 0x56, 0x58, 0x1b, 0x3e, 0x2e, 0x72, 0xa5, 0x3d, 0x0c, 0xf0, 0xf9, 0xbd,
 0x2b, 0x98, 0x14, 0x3e, 0x2f, 0xdf, 0xa3, 0x3d, 0x67, 0xe3, 0xec, 0xbe,
 0x31, 0x24, 0x4d, 0x3d, 0x91, 0x75, 0xac, 0xbc, 0x51, 0x82, 0x2b, 0x3e,
 0xbe, 0x7c, 0x65, 0x3d, 0x91, 0x30, 0x84, 0xbe, 0x91, 0x2b, 0x2e, 0xbe,
 0x08, 0x1b, 0x8d, 0xbe, 0x72, 0x25, 0x97, 0xbc, 0x78, 0xf8, 0xde, 0xbe,
 0x21, 0x1b, 0xbc, 0xbd, 0x05, 0x25, 0x35, 0xbd, 0x50, 0x36, 0x53, 0x3c,
 0x8d, 0x10, 0xb2, 0x3d, 0x29, 0x3d, 0xbe, 0x3d, 0x18, 0xe7, 0xa3, 0xbb,
 0xf7, 0x52, 0x53, 0x3d, 0x73, 0xa1, 0x18, 0xbd, 0x69, 0xa5, 0x49, 0x3e,
 0x46, 0x59, 0x2a, 0x3e, 0xac, 0xd2, 0x2d, 0x3e, 0xbc, 0x82, 0xa0, 0x3d,
 0xfa, 0x5b, 0x72, 0x3d, 0x2b, 0x3d, 0x50, 0x3c, 0x91, 0xf9, 0x61, 0x3e,
 0x05, 0x31, 0xd0, 0xbd, 0x26, 0xb3, 0x87, 0xbe, 0x3d, 0x28, 0xac, 0x3d,
 0x7c, 0x39, 0x4f, 0x3e, 0x00, 0x28, 0x36, 0x3e, 0x29, 0xa3, 0x5c, 0xbd,
 0xbb, 0xa5, 0x43, 0xbe, 0x2a, 0xa3, 0x5e, 0xbc, 0x25, 0xa5, 0xde, 0xbd,
 0x6e, 0x46, 0x32, 0xbe, 0xdd, 0x5f, 0x92, 0xbd, 0xd2, 0xa5, 0x82, 0xbe,
 0x1b, 0xd6, 0x4e, 0xbc, 0x2e, 0xe2, 0xf4, 0x3c, 0x7e, 0x51, 0xa3, 0xbe,
 0x36, 0x41, 0xb3, 0x3e, 0xe3, 0x02, 0x64, 0xbe, 0xf9, 0x0f, 0xd4, 0xbd,
 0x37, 0x13, 0xd5, 0x3c, 0x15, 0xd2, 0x30, 0xbf, 0xf8, 0x53, 0x1b, 0x3f,
 0x16, 0x6f, 0xb4, 0x3e, 0xb6, 0x8e, 0x55, 0xbe, 0xa8, 0xfd, 0x80, 0xbe,
 0x31, 0x2c, 0x2a, 0xbe, 0xed, 0xd4, 0x7b, 0x3e, 0x47, 0xf3, 0x9e, 0x3e,
 0xf7, 0xac, 0x77, 0x3e, 0x31, 0xe1, 0x40, 0xbe, 0x0d, 0x02, 0xa6, 0xbe,
 0xe9, 0x06, 0x74, 0x3d, 0xd8, 0x26, 0x54, 0xbe, 0x32, 0x2f, 0xe7, 0xbd,
 0x38, 0x14, 0x3c, 0xbe, 0xcb, 0x89, 0x4c, 0x3e, 0xf8, 0x5b, 0x5b, 0x3e,
 0xef, 0xb0, 0x44, 0x3f, 0x97, 0xa7, 0xb0, 0x3e, 0x66, 0xbf, 0xe3, 0xbe,
 0x88, 0x69, 0x5c, 0xbe, 0xe3, 0x98, 0x02, 0xbd, 0x0f, 0x79, 0x95, 0xbe,
 0xdf, 0xd8, 0xba, 0xbe, 0xd9, 0x10, 0xa3, 0x3e, 0xd0, 0xcf, 0x6c, 0xbe,
 0xbb, 0x89, 0xa7, 0xbd, 0x2a, 0x07, 0x70, 0xbe, 0x5c, 0x5f, 0x27, 0x3d,
 0x85, 0x1f, 0xfd, 0xbe, 0xc6, 0xdc, 0x4a, 0xbe, 0xb8, 0x2b, 0x45, 0xbe,
 0x7c, 0x65, 0xc5, 0x3d, 0xf4, 0xfc, 0x39, 0xbe, 0xfd, 0x6d, 0x6c, 0xbe,
 0x6b, 0x66, 0x13, 0x3e, 0xf9, 0xd8, 0x25, 0x3e, 0x7e, 0xc1, 0xbc, 0x3d,
 0xd9, 0x39, 0xb6, 0xbc, 0x2e, 0x9e, 0x37, 0x3e, 0xc3, 0xa0, 0x9b, 0xbc,
 0xa5, 0x3e, 0xda, 0x3d, 0xd1, 0xb8, 0x8f, 0xbe, 0x97, 0x47, 0x4c, 0x3d,
 0x93, 0x8d, 0xd8, 0x3d, 0x2d, 0xef, 0x32, 0xbe, 0x78, 0x2f, 0x05, 0x3e,
 0x5a, 0x94, 0xdb, 0x3c, 0x0b, 0xc5, 0xea, 0xbd, 0x3c, 0x61, 0x14, 0xbe,
 0x0f, 0x2f, 0xa0, 0x3e, 0x1a, 0x86, 0x6f, 0x3a, 0xfe, 0x48, 0x2e, 0xbe,
 0x4a, 0xb5, 0x4c, 0x3e, 0xee, 0x39, 0x75, 0x3e, 0xfa, 0x6b, 0x6e, 0xbc,
 0x07, 0xcc, 0x0b, 0xbd, 0x5f, 0xa6, 0xc8, 0xbd, 0x36, 0x0f, 0x80, 0x3e,
 0xdf, 0xbf, 0x23, 0x3d, 0x4c, 0x91, 0x2c, 0xbe, 0x35, 0x66, 0x50, 0x3e,
 0x49, 0x53, 0xec, 0x3d, 0x96, 0x93, 0x29, 0xbe, 0xe2, 0xd4, 0xc3, 0x3d,
 0x86, 0x41, 0x1a, 0x3e, 0x0d, 0xa3, 0x2a, 0xbe, 0x37, 0xbb, 0x77, 0xbd,
 0x34, 0x84, 0x0f, 0xbe, 0x39, 0xe0, 0x11, 0xbe, 0xf0, 0x2a, 0xc9, 0xb9,
 0xb5, 0xf5, 0x8e, 0x3c, 0x30, 0x7f, 0x8a, 0x3e, 0x79, 0x01, 0x19, 0x3d,
 0xf7, 0xc6, 0x46, 0xbe, 0xa4, 0x42, 0x87, 0x3d, 0x88, 0x86, 0x81, 0x3d,
 0xcc, 0x2a, 0x90, 0x3e, 0xd5, 0x23, 0x96, 0xbe, 0x81, 0x32, 0xd3, 0x3d,
 0x37, 0xa2, 0xde, 0xbd, 0xa1, 0x2b, 0xf7, 0xbc, 0x27, 0x99, 0x92, 0xbd,
 0x8b, 0xad, 0x5b, 0x3d, 0xda, 0x05, 0xe6, 0x3d, 0x0a, 0xdb, 0xa3, 0xbd,
 0xdb, 0xdf, 0x87, 0x3e, 0x93, 0x03, 0x9d, 0xbd, 0x23, 0xe6, 0xe7, 0xbd,
 0xcb, 0x00, 0x0e, 0xbe, 0xe9, 0xcb, 0xd7, 0x3e, 0xb9, 0x7c, 0xb6, 0xbd,
 0x33, 0x0e, 0xe9, 0x3e, 0xa7, 0xc3, 0xd7, 0x3d, 0xc9, 0x7c, 0x52, 0x3c,
 0xf2, 0x0c, 0x16, 0x3c, 0x5c, 0x4d, 0xaf, 0x3e, 0x7d, 0x20, 0x54, 0xbd,
 0x51, 0xb7, 0x82, 0x3c, 0x65, 0xb1, 0xc5, 0x3e, 0xc9, 0xdb, 0x43, 0xbe,
 0x1f, 0x2f, 0xae, 0xbe, 0x2e, 0x1b, 0x12, 0x3e, 0xf5, 0xeb, 0xa2, 0xbd,
 0x82, 0xf7, 0x38, 0xbe, 0x59, 0x95, 0x02, 0xbf, 0x45, 0x7a, 0xe4, 0xbe,
 0x24, 0x87, 0xdd, 0xbe, 0x37, 0x94, 0xfb, 0xbd, 0xea, 0x0f, 0x97, 0xbe,
 0x76, 0x02, 0x8b, 0xbe, 0xa5, 0xad, 0x80, 0x3d, 0x51, 0xeb, 0x62, 0x3e,
 0x51, 0x9c, 0x87, 0x3e, 0x8d, 0xbc, 0xcd, 0xbd, 0xd2, 0x11, 0x5d, 0x3e,
 0x1b, 0xe8, 0x97, 0x3d, 0x1a, 0xc7, 0x29, 0x3e, 0x34, 0xe6, 0x9e, 0x3e,
 0xf8, 0x5a, 0x10, 0x3e, 0x45, 0xba, 0x4d, 0xbe, 0xc2, 0x77, 0xde, 0x3c,
 0x6e, 0xef, 0x55, 0xbb, 0x55, 0x58, 0x8e, 0xbe, 0x41, 0x0a, 0x7c, 0xbc,
 0xb2, 0x6e, 0x2b, 0x3e, 0x87, 0x3a, 0x95, 0x3e, 0xef, 0xaf, 0x14, 0x3f,
 0x90, 0x70, 0x8e, 0x3e, 0xb4, 0xca, 0xfd, 0x3c, 0x50, 0xeb, 0x68, 0x3e,
 0x9d, 0xf7, 0xea, 0xbd, 0x41, 0x7f, 0x96, 0xbc, 0xe2, 0xd9, 0xf3, 0xbb,
 0x72, 0x13, 0x0d, 0x3f, 0x9e, 0x36, 0xa4, 0xbe, 0x85, 0x88, 0x95, 0xbe,
 0xbe, 0xda, 0x84, 0x3d, 0xc5, 0xb6, 0x12, 0xbf, 0x88, 0xdc, 0xa7, 0xbe,
 0xfd, 0x6b, 0x3f, 0xbe, 0xdf, 0x8a, 0x5e, 0x3f, 0x8e, 0x0e, 0xe8, 0xbd,
 0x51, 0x1e, 0x15, 0xbe, 0x0d, 0x70, 0x22, 0xbf, 0x9c, 0x94, 0xfe, 0x3d,
 0xd1, 0x18, 0x2e, 0xbe, 0xf7, 0x6c, 0x0b, 0xbd, 0xe5, 0xf9, 0x5a, 0x3d,
 0xe2, 0x54, 0xcf, 0xbe, 0x63, 0x0a, 0x40, 0xbf, 0x83, 0xf3, 0x05, 0x3b,
 0x91, 0x1f, 0xf3, 0x3d, 0xf4, 0x03, 0x63, 0xbe, 0xeb, 0x9b, 0xbe, 0xbe,
 0x42, 0x83, 0x8d, 0x3e, 0x0a, 0x1c, 0xc2, 0xbe, 0xe1, 0x44, 0x4e, 0xbd,
 0x5a, 0x2e, 0x5f, 0x3e, 0xd9, 0xf0, 0x4e, 0xbe, 0x2b, 0x65, 0x89, 0x3d,
 0xeb, 0x6f, 0xdb, 0xbd, 0x6b, 0x70, 0x2f, 0xbe, 0xa8, 0x64, 0x06, 0xbf,
 0x44, 0xd1, 0x11, 0xbd, 0xe5, 0x07, 0x19, 0x3e, 0x09, 0x42, 0xac, 0x3e,
 0xda, 0xd0, 0x76, 0x3e, 0xde, 0x5d, 0xbd, 0xbd, 0x14, 0x15, 0x01, 0xbf,
 0x2b, 0x2e, 0xa3, 0x3f, 0xd6, 0xd6, 0x89, 0x3f, 0xa2, 0xd3, 0x88, 0x3d,
 0xc6, 0x96, 0x7d, 0x3e, 0xa6, 0x68, 0xcf, 0x3e, 0x57, 0x1a, 0x8f, 0xbd,
 0x6d, 0x40, 0x98, 0xbe, 0x71, 0x89, 0xc9, 0x3d, 0xc0, 0x44, 0x46, 0xbe,
 0xfb, 0x74, 0xe3, 0xbd, 0x28, 0x5e, 0x3d, 0xbe, 0x08, 0x91, 0x28, 0x3e,
 0x02, 0x9e, 0x09, 0x3f, 0xa9, 0xd5, 0x82, 0x3d, 0x6a, 0xb9, 0x51, 0xbe,
 0xe4, 0xe6, 0xd0, 0x3e, 0x1f, 0x5f, 0x71, 0x3e, 0xbf, 0xf4, 0x97, 0xbd,
 0xba, 0x3b, 0x60, 0x3d, 0x25, 0x80, 0x6a, 0x3f, 0x62, 0x47, 0xb4, 0xbe,
 0x12, 0x55, 0x33, 0xbe, 0xac, 0xc0, 0xc6, 0x3d, 0xdf, 0xb7, 0x09, 0x3e,
 0xf2, 0x19, 0x02, 0xbe, 0x0d, 0xcc, 0xf1, 0xbd, 0x60, 0x31, 0x4f, 0xbe,
 0xa8, 0xb8, 0x56, 0x3d, 0xd7, 0x36, 0xa6, 0xbd, 0xc3, 0x0d, 0xea, 0xbd,
 0xb5, 0xcb, 0x46, 0xbe, 0x42, 0x52, 0x4b, 0xbe, 0xcb, 0xbe, 0xaa, 0x3e,
 0x82, 0x4d, 0xb9, 0xbd, 0x5d, 0x8f, 0x75, 0x3e, 0x56, 0xe7, 0x37, 0xbe,
 0xcf, 0xf7, 0xd6, 0xbd, 0xcd, 0xc7, 0xb0, 0x3d, 0xbd, 0xfb, 0x27, 0xbe,
 0x3b, 0x5c, 0x36, 0x3e, 0x8a, 0xf4, 0xe1, 0x3d, 0xb3, 0x1a, 0x83, 0xbe,
 0x85, 0x73, 0x87, 0x3d, 0x69, 0x22, 0xe9, 0x3d, 0x4d, 0x88, 0x1b, 0xbe,
 0x77, 0x4e, 0x7b, 0x3d, 0xdb, 0xd0, 0x86, 0x3d, 0xff, 0x78, 0xc5, 0x3d,
 0xea, 0x96, 0xf2, 0xbd, 0x38, 0x82, 0x0f, 0xbd, 0x2b, 0x29, 0x82, 0xbe,
 0xe5, 0x92, 0xd1, 0xbd, 0x70, 0x52, 0x01, 0x3e, 0xee, 0x85, 0x2c, 0x3e,
 0x92, 0xae, 0x70, 0x3e, 0x50, 0xae, 0x35, 0xbe, 0x6f, 0xf9, 0x27, 0x3e,
 0xa0, 0xf8, 0x26, 0x3e, 0xbc, 0x44, 0x1d, 0x3d, 0x1a, 0x7f, 0x83, 0xbd,
 0xf5, 0x85, 0xa0, 0x3d, 0x51, 0x74, 0x1b, 0xbd, 0x6e, 0xd5, 0xaa, 0xbd,
 0x4d, 0xeb, 0xfb, 0xbd, 0x47, 0xfb, 0x49, 0x3e, 0x98, 0x3f, 0xd4, 0x3e,
 0xaf, 0xc4, 0x81, 0x3e, 0xa5, 0x89, 0x6a, 0xbe, 0xd6, 0xa1, 0xbb, 0xbe,
 0xa2, 0x15, 0x43, 0x3e, 0x39, 0xfa, 0x5a, 0x3e, 0x0d, 0x6e, 0xc9, 0xbd,
 0xbc, 0xb5, 0x43, 0xbd, 0x7b, 0x14, 0xe3, 0xbe, 0x94, 0x69, 0x04, 0x3d,
 0x9e, 0x93, 0xdb, 0xbc, 0x91, 0xb9, 0xae, 0xbe, 0x86, 0x91, 0x9a, 0x3e,
 0x27, 0x35, 0x60, 0x3b, 0xa8, 0x83, 0x8d, 0x3e, 0x47, 0x58, 0x4d, 0x3e,
 0x4c, 0xf1, 0xa6, 0x3d, 0x60, 0x8c, 0x5a, 0xbe, 0x12, 0xda, 0x22, 0x3e,
 0xf9, 0x12, 0x87, 0xbd, 0x48, 0xaf, 0x6d, 0x3e, 0x75, 0x93, 0xc9, 0x3e,
 0xef, 0x9d, 0x98, 0x3e, 0x26, 0xec, 0x34, 0x3e, 0x08, 0xfd, 0x17, 0xbf,
 0xfc, 0x4c, 0x1e, 0xbe, 0xd2, 0x46, 0xef, 0xbb, 0x90, 0x02, 0x69, 0x3e,
 0xfe, 0xe6, 0x58, 0x3e, 0x88, 0x38, 0x91, 0x3c, 0xd6, 0x11, 0xf1, 0x3e,
 0x08, 0x8b, 0x6d, 0xbc, 0xcc, 0xee, 0xd1, 0xbd, 0x5f, 0xa5, 0xf4, 0xbe,
 0x7a, 0x8b, 0xc1, 0xbe, 0xaf, 0xa7, 0x58, 0xbe, 0x96, 0xc4, 0x05, 0x3e,
 0x92, 0xce, 0x09, 0x3e, 0x20, 0x39, 0x30, 0x3e, 0x8a, 0xeb, 0x15, 0x3d,
 0xb3, 0xbf, 0x58, 0xbe, 0x75, 0x3f, 0xf2, 0x3e, 0xf7, 0x64, 0x22, 0x3e,
 0x53, 0x16, 0x35, 0x3e, 0xc6, 0xef, 0xc4, 0x3c, 0x86, 0x4b, 0xa6, 0x3e,
 0x9a, 0x5a, 0x97, 0xbd, 0x88, 0xf4, 0xed, 0xbd, 0x21, 0x42, 0x43, 0xbd,
 0x20, 0xef, 0x2d, 0xbf, 0x04, 0x36, 0x05, 0xbd, 0x80, 0x27, 0x30, 0x3e,
 0x04, 0xd7, 0x5f, 0x3d, 0x05, 0x20, 0x0d, 0x3f, 0x5e, 0x0d, 0x1f, 0xbe,
 0x98, 0x43, 0x1d, 0x3f, 0x77, 0xee, 0x00, 0x3f, 0xd0, 0x98, 0x87, 0xbe,
 0x1d, 0x71, 0x53, 0x3e, 0x26, 0x85, 0xd1, 0x3d, 0x6f, 0x13, 0xf9, 0x3a,
 0x00, 0xcb, 0xda, 0x3d, 0xa7, 0xe4, 0x99, 0x3e, 0x36, 0xe3, 0xea, 0xbe,
 0x05, 0x98, 0x2d, 0x3f, 0x4c, 0x1a, 0xa3, 0x3e, 0xb1, 0x14, 0x9b, 0xbd,
 0x67, 0x24, 0x29, 0xbe, 0x30, 0xf5, 0x98, 0xbd, 0xae, 0x07, 0x38, 0x3e,
 0x7c, 0xc5, 0xef, 0x3c, 0xcb, 0x73, 0x5c, 0x3e, 0x54, 0x15, 0x27, 0xbe,
 0xc3, 0xdf, 0x86, 0xbd, 0x4d, 0xdf, 0xde, 0xbe, 0x7b, 0x9e, 0x08, 0xbe,
 0xd2, 0xfd, 0x04, 0x3c, 0x1c, 0x70, 0x00, 0xbe, 0x2c, 0x87, 0x1c, 0x3a,
 0x03, 0x11, 0x30, 0x3e, 0x1e, 0xb7, 0x55, 0x3a, 0xcd, 0x74, 0xa2, 0x3e,
 0x93, 0x37, 0xc6, 0xbe, 0xa2, 0x6c, 0xa1, 0xbe, 0xdf, 0x7a, 0x89, 0x3e,
 0x3d, 0x66, 0x28, 0xbf, 0x48, 0x20, 0xf5, 0x3e, 0xeb, 0xa7, 0x0e, 0xbe,
 0xe5, 0xf6, 0xc5, 0x3e, 0x40, 0x61, 0x3e, 0x3e, 0x3d, 0x29, 0x1f, 0xbe,
 0xdf, 0x17, 0x5c, 0x3e, 0x0e, 0x5b, 0x91, 0xbd, 0x97, 0x26, 0xb8, 0x3e,
 0xba, 0x1a, 0x1d, 0xbd, 0x26, 0x9d, 0x2a, 0xbf, 0xd1, 0x61, 0x21, 0xbf,
 0x4d, 0xe7, 0x87, 0x3e, 0x4f, 0x94, 0x0a, 0xbd, 0x90, 0xf8, 0xe9, 0x3d,
 0xc7, 0x7e, 0x8f, 0xbe, 0x95, 0x42, 0x68, 0xbd, 0x88, 0xbd, 0xb3, 0x3e,
 0xa7, 0x9f, 0x94, 0xbd, 0x15, 0xa2, 0xc0, 0x3e, 0xf9, 0xb3, 0x07, 0xbf,
 0x70, 0x3d, 0x84, 0x3e, 0xf1, 0x08, 0x55, 0xbe, 0x4b, 0xb6, 0x36, 0xbf,
 0xbe, 0xf1, 0x08, 0xbe, 0xf7, 0xfc, 0x24, 0xbf, 0x1b, 0x25, 0xd6, 0x3c,
 0x68, 0x66, 0xaa, 0xbe, 0x70, 0x57, 0x90, 0x3d, 0xb9, 0x48, 0x82, 0xbe,
 0x67, 0x7a, 0x4a, 0xbe, 0xf4, 0x7c, 0x49, 0xbe, 0x16, 0xa2, 0x64, 0x3e,
 0x81, 0x00, 0x83, 0x3e, 0x35, 0x9e, 0x1e, 0xbd, 0xc4, 0x63, 0x76, 0x3e,
 0x24, 0x59, 0xaf, 0xbe, 0x83, 0xda, 0x61, 0x3e, 0x60, 0xc5, 0xc9, 0x3c,
 0x83, 0xe0, 0x77, 0xbe, 0x21, 0x9e, 0xba, 0x3d, 0x43, 0x5d, 0x6f, 0xbe,
 0x89, 0x7a, 0x34, 0x3e, 0xdf, 0x09, 0x9b, 0xbe, 0xf6, 0xe6, 0x2f, 0xbe,
 0x6f, 0x35, 0x5e, 0xbe, 0x7c, 0x16, 0xef, 0xbd, 0xd3, 0x42, 0xa9, 0x3d,
 0x0c, 0x39, 0x17, 0xbd, 0xfe, 0xf2, 0xea, 0x3d, 0x0a, 0x2e, 0x00, 0x3c,
 0x23, 0xae, 0x0b, 0xbd, 0x8c, 0xd5, 0xb4, 0x3d, 0xc1, 0x27, 0x78, 0x3e,
 0x7b, 0x0d, 0x44, 0x3e, 0xee, 0x82, 0x6c, 0x3e, 0x6e, 0xec, 0x43, 0x3d,
 0x9e, 0xde, 0x70, 0x3e, 0x9d, 0x8f, 0x06, 0x3d, 0xd0, 0x76, 0x34, 0x3d,
 0x35, 0xab, 0x26, 0xbd, 0xb0, 0x8a, 0x7a, 0x3e, 0x24, 0x29, 0x5f, 0xbe,
 0x5f, 0x6f, 0xdb, 0x3d, 0x64, 0x3d, 0x34, 0xbd, 0x43, 0x3f, 0x5c, 0xbd,
 0xfb, 0xa9, 0x8e, 0x3e, 0xab, 0xca, 0x4a, 0x3e, 0x65, 0x93, 0x8f, 0x3c,
 0xe7, 0x47, 0x6c, 0x3e, 0x24, 0x56, 0x12, 0xbe, 0x4c, 0xb9, 0x83, 0xbe,
 0x3a, 0x3f, 0x70, 0xbe, 0xe8, 0xda, 0x50, 0xbe, 0xa2, 0x1a, 0x13, 0xbe,
 0x3d, 0x24, 0xf4, 0xbd, 0xc2, 0xbf, 0x8c, 0xbe, 0x2e, 0x63, 0xaa, 0x3d,
 0xd1, 0x97, 0x2e, 0x3e, 0x91, 0xa0, 0x5f, 0xbe, 0x2b, 0x8c, 0x83, 0x3c,
 0x16, 0x5c, 0xb0, 0xbc, 0x55, 0x3e, 0x08, 0x3e, 0x95, 0xc6, 0x6c, 0x3d,
 0xe8, 0x93, 0x7c, 0xbd, 0xd2, 0x8f, 0x5b, 0xbe, 0x4a, 0x73, 0x03, 0x3e,
 0x49, 0xc1, 0x6c, 0x3e, 0x2d, 0x76, 0x57, 0x3d, 0x69, 0xcb, 0x24, 0xbe,
 0xcd, 0xbb, 0x95, 0xbd, 0x5f, 0xe7, 0x84, 0xbd, 0x07, 0xa1, 0xaa, 0x3d,
 0x50, 0x85, 0xb7, 0x3d, 0x78, 0x94, 0x3c, 0x3d, 0xd3, 0xa2, 0x2c, 0xbe,
 0x80, 0xd2, 0x91, 0x3e, 0xe1, 0xba, 0x39, 0xbe, 0x1c, 0x7b, 0x65, 0x3d,
 0xf0, 0x18, 0x02, 0x3e, 0x1f, 0x94, 0x17, 0xbe, 0xad, 0xd5, 0x94, 0x3d,
 0x9a, 0x07, 0x95, 0xbe, 0x93, 0x19, 0x89, 0x3c, 0x12, 0x51, 0xb3, 0xbd,
 0x64, 0x4c, 0x5d, 0xbd, 0xac, 0x96, 0x24, 0x3e, 0x75, 0xb9, 0xf1, 0x3c,
 0x6b, 0x2b, 0x55, 0x3e, 0x84, 0xc6, 0xa3, 0x3c, 0xb5, 0x1c, 0xac, 0x3d,
 0x11, 0x4f, 0x95, 0x3e, 0x5b, 0xab, 0x21, 0x3e, 0x36, 0xdd, 0x7a, 0x3e,
 0xa5, 0xa3, 0x05, 0x3e, 0xc3, 0x04, 0xd5, 0x3d, 0x25, 0xdb, 0x75, 0x3e,
 0xab, 0xd3, 0x8b, 0xbe, 0x3b, 0x00, 0x8d, 0x3e, 0x8f, 0x9b, 0x34, 0xbe,
 0xed, 0x1d, 0xf8, 0x3d, 0xf1, 0x77, 0x99, 0xbc, 0xc2, 0xa3, 0x3a, 0xbc,
 0xd0, 0x06, 0xaf, 0xbd, 0xed, 0x6b, 0xac, 0x3d, 0x37, 0x53, 0xef, 0xbd,
 0x81, 0x1a, 0x4a, 0xbe, 0xed, 0xdb, 0x81, 0x3e, 0x9b, 0x46, 0xf8, 0xbd,
 0x82, 0x2a, 0x05, 0x3d, 0xfd, 0xc7, 0x76, 0xbe, 0x10, 0x41, 0x14, 0x3e,
 0xe2, 0x10, 0x36, 0xbe, 0x7c, 0x39, 0xb3, 0x3c, 0x78, 0x39, 0x6b, 0xbe,
 0xa8, 0x5d, 0x28, 0xbc, 0x83, 0x92, 0x20, 0xbd, 0xac, 0x55, 0x00, 0x3e,
 0x0c, 0xe8, 0xdf, 0x3d, 0xe7, 0xc9, 0x74, 0xbe, 0x71, 0x74, 0x18, 0x3e,
 0x91, 0x8e, 0x8a, 0xbe, 0x91, 0x16, 0x40, 0xbe, 0xba, 0x2d, 0x0e, 0x3d,
 0x39, 0xc0, 0x84, 0xbc, 0x5d, 0xac, 0x23, 0xbe, 0x52, 0x6a, 0x86, 0xbd,
 0xf3, 0x0e, 0x46, 0x3d, 0x37, 0x07, 0x85, 0xbe, 0x56, 0x30, 0x96, 0xbb,
 0x9b, 0xff, 0x84, 0xbe, 0x17, 0x64, 0x7e, 0xbc, 0x34, 0xd6, 0x92, 0x3d,
 0x80, 0xb0, 0xff, 0x3c, 0xba, 0x58, 0xde, 0x3d, 0xa5, 0x08, 0x2b, 0xbe,
 0x72, 0xd8, 0xf4, 0xbd, 0xae, 0x5d, 0xce, 0x3d, 0xa6, 0x2c, 0x54, 0x3e,
 0x97, 0x0a, 0x4c, 0x3e, 0x11, 0x09, 0x42, 0x3e, 0x5e, 0xe4, 0xb7, 0xbd,
 0x65, 0xc6, 0x4a, 0xbe, 0x2f, 0x39, 0x8c, 0xbe, 0x7b, 0xb9, 0x1e, 0xbd,
 0xf9, 0x5d, 0xd6, 0x3c, 0x20, 0x94, 0x6e, 0x3e, 0xde, 0x5b, 0x06, 0xbe,
 0xa2, 0x36, 0x17, 0x3e, 0x82, 0x47, 0xf5, 0xbc, 0xcc, 0x57, 0x0b, 0xbe,
 0x77, 0x51, 0xeb, 0xbd, 0xe3, 0x08, 0xb5, 0xbd, 0x9c, 0x1b, 0x86, 0xbe,
 0xfb, 0x61, 0x97, 0x3d, 0x97, 0xab, 0x5e, 0x3e, 0x69, 0xba, 0xb6, 0xbb,
 0xe8, 0xb3, 0x9d, 0xbd, 0x8e, 0x31, 0x16, 0xbe, 0x89, 0x76, 0x49, 0xbd,
 0x4e, 0x47, 0x5a, 0xbe, 0x21, 0xf4, 0x17, 0x3e, 0x0d, 0xe0, 0xb8, 0x3d,
 0x96, 0x1a, 0x55, 0xbe, 0x6a, 0xd3, 0x92, 0x3e, 0xe9, 0xe0, 0x8d, 0xbd,
 0xf1, 0x6b, 0x85, 0xbe, 0x1f, 0x8b, 0x1b, 0xbd, 0x3f, 0x38, 0x6a, 0x3e,
 0x20, 0xae, 0xdb, 0xbd, 0x60, 0x5c, 0xd8, 0xbc, 0xe4, 0x34, 0x75, 0x3e,
 0x04, 0xb1, 0x28, 0xbe, 0xe4, 0x2c, 0xee, 0xbd, 0x50, 0x9a, 0xd7, 0xbd,
 0xf6, 0x77, 0x37, 0x3e, 0x26, 0xf8, 0x74, 0xbe, 0x40, 0xd5, 0x61, 0xbc,
 0x3c, 0x00, 0x8c, 0x3e, 0xec, 0x2e, 0x25, 0x3e, 0x77, 0x8a, 0x0b, 0xbe,
 0x78, 0x01, 0xc6, 0x3d, 0xac, 0xe8, 0x97, 0x3d, 0x72, 0xda, 0x1a, 0x3e,
 0x84, 0x1c, 0x82, 0xbe, 0x68, 0x7d, 0x96, 0x3d, 0x1c, 0x7d, 0x78, 0x3e,
 0x3c, 0x81, 0xa7, 0x3d, 0x90, 0x23, 0xca, 0xbd, 0x71, 0xc2, 0x15, 0xbe,
 0xc0, 0xd2, 0xc0, 0x3d, 0x32, 0x24, 0x2d, 0x3e, 0xba, 0x99, 0xe0, 0xbd,
 0xc8, 0x25, 0x44, 0x3d, 0x48, 0x46, 0x54, 0xbe, 0x38, 0x76, 0x78, 0xbe,
 0x2d, 0xc6, 0x1d, 0xbe, 0x65, 0x9e, 0x5a, 0xbe, 0x1f, 0x57, 0x80, 0xbe,
 0x18, 0x13, 0x55, 0xbe, 0xe4, 0x05, 0x30, 0xbd, 0xa6, 0x99, 0x33, 0xbe,
 0xa0, 0xa1, 0x72, 0x3c, 0x4c, 0xa2, 0xbd, 0x3d, 0x40, 0x69, 0x18, 0x3c,
 0x66, 0xc2, 0x2d, 0xbe, 0x0c, 0x40, 0x84, 0x3e, 0x14, 0x1a, 0x57, 0x3e,
 0x48, 0xc2, 0xd9, 0xbd, 0xc4, 0x98, 0xd0, 0x3d, 0x02, 0xfc, 0x49, 0xbe,
 0x76, 0xbe, 0x5b, 0xbe, 0x69, 0x66, 0x5c, 0xbe, 0xc8, 0xfe, 0xfc, 0xbd,
 0x8b, 0xcf, 0x25, 0xbe, 0xc0, 0x26, 0x21, 0x3e, 0xdd, 0xff, 0x3f, 0xbe,
 0x3f, 0x84, 0x9f, 0x3e, 0x63, 0x39, 0x9a, 0x3e, 0x22, 0x9d, 0x08, 0xbe,
 0x98, 0x61, 0x27, 0xbe, 0x96, 0xdc, 0x55, 0xbe, 0x90, 0x8e, 0xc0, 0xbd,
 0xc2, 0x02, 0xb6, 0xbb, 0x1c, 0xac, 0xf4, 0xbd, 0x69, 0xbc, 0x00, 0xbe,
 0xf6, 0x35, 0xce, 0x3c, 0xc1, 0x09, 0x3e, 0xbe, 0xd6, 0x24, 0xd1, 0x3d,
 0xc0, 0xe1, 0x34, 0xbe, 0xc0, 0x0f, 0x92, 0xbe, 0xf3, 0xbc, 0xa6, 0x3d,
 0xbc, 0xde, 0xa0, 0xbe, 0xdf, 0x94, 0x44, 0xbd, 0x20, 0x0a, 0x10, 0xbe,
 0x69, 0xdf, 0xb4, 0x3d, 0xe3, 0x4e, 0x51, 0xbd, 0x15, 0xc0, 0xe6, 0xbd,
 0x1f, 0xf7, 0x74, 0xbe, 0x01, 0xe2, 0xb9, 0x3b, 0x9f, 0x1b, 0x03, 0x3c,
 0x5e, 0x82, 0xeb, 0x3d, 0x4d, 0xfb, 0x05, 0xbe, 0x49, 0xdb, 0x5b, 0x3e,
 0x6a, 0x69, 0x57, 0x3e, 0x69, 0x5c, 0xf7, 0xbd, 0x30, 0x60, 0xbe, 0xbc,
 0xb6, 0xb2, 0xff, 0x3c, 0xe3, 0x07, 0xa1, 0x3c, 0xe6, 0x78, 0x6f, 0xbe,
 0x48, 0x4a, 0x5a, 0x3e, 0x89, 0x4f, 0xc0, 0xbd, 0xc4, 0xfe, 0xb3, 0xbd,
 0x4d, 0x8e, 0x78, 0x3c, 0x27, 0x6b, 0x8e, 0xbc, 0x55, 0xe0, 0x14, 0x3e,
 0x17, 0x66, 0x86, 0xbd, 0x0e, 0x91, 0xaa, 0x3c, 0x6c, 0x27, 0x88, 0x3e,
 0x75, 0x56, 0xa2, 0x3e, 0xd2, 0x3b, 0x07, 0xbe, 0x42, 0xe7, 0x56, 0x3d,
 0xcc, 0xbe, 0x67, 0x3e, 0xfc, 0xaa, 0xb5, 0x3d, 0x1a, 0xa3, 0xb6, 0x3d,
 0xad, 0xc4, 0x59, 0xbe, 0x02, 0xf7, 0x24, 0xbe, 0xa5, 0x1c, 0x27, 0xbd,
 0xd6, 0x03, 0x81, 0x3e, 0xdc, 0x54, 0x36, 0x3d, 0x26, 0x27, 0x7e, 0xbd,
 0xe1, 0xae, 0xf6, 0xbd, 0xd7, 0x0f, 0xba, 0xbe, 0x77, 0x66, 0x84, 0x3c,
 0x8e, 0xb1, 0x05, 0x3e, 0x66, 0x35, 0x89, 0xbe, 0x78, 0xfc, 0x6c, 0xbe,
 0xc4, 0x00, 0x00, 0xbe, 0xb9, 0xa3, 0x2b, 0x3d, 0xf3, 0x09, 0x87, 0x3e,
 0x7b, 0x75, 0xb0, 0x3e, 0x0e, 0xb0, 0x19, 0xbe, 0x9a, 0xfc, 0x91, 0x3e,
 0x98, 0x36, 0xc2, 0x3d, 0x50, 0x4d, 0x2f, 0xbe, 0xd5, 0xd7, 0x3d, 0xbc,
 0x1e, 0xc4, 0x57, 0x3c, 0x4c, 0x88, 0x02, 0x3e, 0xb6, 0x40, 0x86, 0x3e,
 0xd0, 0x1a, 0x23, 0x3f, 0x2c, 0x24, 0x64, 0x3e, 0x44, 0x6e, 0x2c, 0x3e,
 0x72, 0x89, 0x04, 0x3e, 0x60, 0x9c, 0x00, 0x3e, 0xe2, 0x72, 0x24, 0x3e,
 0x38, 0xbe, 0x62, 0xbe, 0xf3, 0xca, 0x02, 0xbe, 0x8c, 0x11, 0x08, 0x3e,
 0x68, 0x4c, 0x26, 0xbe, 0x50, 0xe3, 0x51, 0x3d, 0xae, 0x46, 0x8a, 0x3e,
 0xdc, 0x12, 0xce, 0xbd, 0xa4, 0xab, 0xe7, 0x3d, 0x2f, 0xe6, 0x4b, 0xbe,
 0xee, 0x31, 0x8c, 0xbd, 0x8d, 0x51, 0x70, 0xbe, 0xfe, 0xd6, 0x18, 0x3e,
 0xd0, 0x03, 0x96, 0x3d, 0xaa, 0xd0, 0x0f, 0x3e, 0x6e, 0x5a, 0x27, 0x3e,
 0xda, 0x28, 0x20, 0xbe, 0x62, 0xb5, 0x5e, 0xbe, 0xb6, 0x68, 0x03, 0x3e,
 0xe0, 0x08, 0x4d, 0x3d, 0x5c, 0x6d, 0x04, 0x3e, 0xb2, 0x01, 0x49, 0x3e,
 0xaa, 0x1d, 0x8b, 0x3e, 0x96, 0x35, 0xd9, 0xbd, 0xe4, 0xc9, 0xcf, 0xbd,
 0x14, 0x7e, 0x02, 0x3e, 0x4c, 0x0e, 0xfe, 0x3d, 0x92, 0x6a, 0x0e, 0x3e,
 0xed, 0xc1, 0x00, 0xbe, 0xe8, 0xaf, 0x7a, 0xbd, 0x7e, 0xe0, 0x3b, 0x3e,
 0x00, 0x5e, 0x82, 0xbd, 0x70, 0xf5, 0x8a, 0x3e, 0xb0, 0x4b, 0x2e, 0x3d,
 0x50, 0x1d, 0x77, 0x3e, 0x8a, 0xd8, 0x2e, 0x3e, 0xb4, 0xc8, 0xb5, 0x3d,
 0xba, 0xb5, 0x4d, 0x3e, 0x5d, 0xda, 0x5a, 0x3e, 0xb2, 0x10, 0x21, 0x3d,
 0xf3, 0x8f, 0x35, 0x3e, 0x02, 0x40, 0xb5, 0x3e, 0x75, 0x82, 0x59, 0x3d,
 0x4b, 0x55, 0x86, 0x3c, 0x00, 0xbf, 0x94, 0xbd, 0x29, 0x71, 0x30, 0xbd,
 0xb0, 0x4a, 0x9d, 0x3e, 0x05, 0xeb, 0x5e, 0x3d, 0x5b, 0x38, 0x69, 0x3e,
 0x2b, 0x5b, 0x0e, 0x3e, 0x0c, 0x79, 0x1b, 0xbe, 0x0f, 0xf0, 0xf4, 0x3e,
 0x19, 0x48, 0xd0, 0xbe, 0xde, 0x24, 0x67, 0x3e, 0x87, 0xf2, 0x26, 0x3f,
 0x2a, 0x41, 0x39, 0xbe, 0x5e, 0xc9, 0x1b, 0x3e, 0xca, 0x5d, 0x46, 0xbf,
 0xea, 0xbd, 0xc0, 0x3e, 0x54, 0x4f, 0xe3, 0x3c, 0x06, 0xfe, 0x48, 0x3e,
 0x4b, 0xc8, 0x10, 0xbe, 0x9d, 0x6b, 0x3b, 0xbd, 0xb1, 0x5b, 0x0c, 0x3d,
 0x17, 0x32, 0xc7, 0xbe, 0xe9, 0xb0, 0x0a, 0x3e, 0x02, 0x15, 0xf8, 0xbe,
 0xff, 0x04, 0x15, 0x3f, 0x6a, 0x7f, 0x56, 0x3e, 0x2f, 0x71, 0x33, 0x3f,
 0xa1, 0xee, 0xb7, 0x3e, 0x25, 0x3e, 0x8d, 0x3e, 0xeb, 0xdf, 0x5c, 0x3f,
 0xb1, 0x5b, 0x7d, 0x3f, 0x4b, 0xd4, 0x62, 0x3c, 0x91, 0xcf, 0xf3, 0xbe,
 0x0b, 0xe1, 0x62, 0x3f, 0xf3, 0x8e, 0xa5, 0xbc, 0xeb, 0x2f, 0x06, 0xbe,
 0x71, 0xf0, 0x9d, 0xbe, 0x8f, 0xbe, 0xad, 0x3d, 0xbc, 0xf3, 0xfc, 0xbd,
 0x11, 0xc4, 0xaf, 0xbe, 0x8c, 0x3c, 0x5d, 0xbe, 0x6b, 0x63, 0x78, 0xbe,
 0xfd, 0x7e, 0xf3, 0xbe, 0x90, 0x31, 0x8f, 0xbe, 0x79, 0x92, 0x07, 0xbe,
 0xb0, 0xf5, 0x9e, 0xbe, 0xcd, 0x77, 0x5d, 0x3e, 0xe9, 0x6b, 0x61, 0x3d,
 0x17, 0x2f, 0x13, 0xbe, 0x53, 0x01, 0x65, 0x3d, 0x8e, 0xa9, 0x2d, 0x3e,
 0x18, 0xe8, 0x3e, 0x3d, 0xfb, 0xd1, 0x97, 0x3c, 0x79, 0xd8, 0x5f, 0xbc,
 0x0a, 0x3d, 0x88, 0xbe, 0xd7, 0x08, 0x05, 0x3d, 0xb5, 0x90, 0x82, 0x3c,
 0xc8, 0xd2, 0xaf, 0x3d, 0x6c, 0x6a, 0x30, 0x3e, 0x24, 0xff, 0x21, 0x3e,
 0x49, 0x01, 0x6b, 0xbe, 0x6e, 0x2d, 0xe7, 0xbe, 0x13, 0x39, 0x19, 0x3e,
 0xa2, 0x79, 0x84, 0xbd, 0x81, 0xc5, 0x1c, 0xbe, 0xf8, 0x2f, 0x76, 0x3e,
 0xea, 0x01, 0x06, 0xbe, 0xc7, 0x8f, 0x51, 0xbe, 0xab, 0xd6, 0x39, 0xbd,
 0x68, 0x31, 0xbc, 0x3d, 0x89, 0x7b, 0x58, 0xbe, 0x38, 0xbc, 0x39, 0x3f,
 0x54, 0xf0, 0x3c, 0xbd, 0x27, 0xe7, 0xff, 0xbc, 0xf0, 0x35, 0x6d, 0x3e,
 0x03, 0xce, 0x3c, 0x3e, 0xc4, 0x0d, 0xe8, 0xbd, 0x48, 0xb9, 0x88, 0xbe,
 0x21, 0x40, 0xbe, 0x3d, 0x14, 0x39, 0x2a, 0x3e, 0xa6, 0x65, 0xd7, 0x3c,
 0xaa, 0xc8, 0x83, 0xbd, 0x33, 0x10, 0x29, 0x3e, 0x3f, 0x29, 0x68, 0xbd,
 0x5e, 0xb5, 0x86, 0xbe, 0x1e, 0x63, 0x6e, 0x3e, 0xf4, 0x1f, 0xb5, 0x3d,
 0x77, 0x29, 0x87, 0x3e, 0xf6, 0xad, 0x15, 0x3e, 0x1d, 0xf4, 0xa2, 0xbd,
 0x23, 0xc0, 0xc9, 0xbd, 0xd9, 0xfe, 0x4c, 0xbe, 0xc9, 0x9d, 0x66, 0xbd,
 0xa4, 0xa1, 0x4e, 0xbe, 0xa4, 0xd5, 0x90, 0xbe, 0x8b, 0x71, 0xd5, 0x3d,
 0xfa, 0x35, 0x20, 0x3e, 0x7f, 0x0c, 0x64, 0x3e, 0x24, 0xba, 0xad, 0xbb,
 0x3a, 0x9e, 0x50, 0xbe, 0xdf, 0x84, 0xdd, 0x3d, 0x95, 0x6d, 0x39, 0x3e,
 0x1c, 0x09, 0x36, 0x3e, 0xe3, 0xfb, 0xd8, 0x3d, 0x18, 0x68, 0xa6, 0x3d,
 0x0d, 0x19, 0x51, 0xbe, 0x60, 0xd7, 0xab, 0xbd, 0x9e, 0x1f, 0xdc, 0xbd,
 0xc5, 0x06, 0x6a, 0x3e, 0x54, 0xbc, 0x3d, 0xbe, 0x80, 0x6c, 0x5e, 0x3e,
 0x27, 0xc3, 0x02, 0xbe, 0x73, 0xb0, 0x86, 0xbe, 0x0a, 0x50, 0xcb, 0x3d,
 0xc4, 0x4f, 0x67, 0xbe, 0xc3, 0x01, 0x2b, 0xbe, 0x3d, 0x3b, 0x06, 0xbe,
 0xc5, 0x94, 0x6e, 0x3e, 0x23, 0x04, 0x8a, 0x3e, 0xe5, 0x13, 0x99, 0xbe,
 0xed, 0x68, 0x7b, 0xbe, 0xd6, 0x02, 0xb4, 0x3d, 0x89, 0xda, 0x3b, 0x3e,
 0x09, 0xd2, 0x47, 0xbe, 0x24, 0xc8, 0x85, 0xbe, 0xac, 0xc1, 0x3c, 0x3e,
 0xef, 0x6b, 0xc1, 0xbd, 0x45, 0x79, 0xf8, 0xbd, 0x9c, 0xa0, 0x81, 0x3d,
 0xa5, 0x5a, 0x1c, 0x3d, 0x7f, 0x33, 0x1f, 0xbe, 0x3c, 0x3d, 0x10, 0xbd,
 0x34, 0x6e, 0x74, 0xbe, 0xbf, 0x84, 0x92, 0x3e, 0xac, 0x24, 0xa9, 0x3e,
 0x46, 0x61, 0x1b, 0xbb, 0x02, 0xde, 0x20, 0xbe, 0x02, 0xb5, 0x1a, 0xbe,
 0xd6, 0x09, 0x19, 0xbd, 0x90, 0x9c, 0xb1, 0x3e, 0x7f, 0x4f, 0x17, 0x3d,
 0xe1, 0x5d, 0xa9, 0x3d, 0x66, 0x57, 0x3c, 0x3e, 0xea, 0xd4, 0x1f, 0xbe,
 0x76, 0xbf, 0xf9, 0xbd, 0x7d, 0xc6, 0x5d, 0xbe, 0x28, 0x41, 0xff, 0xbd,
 0xe3, 0xe3, 0x18, 0x3e, 0xac, 0xff, 0x3f, 0x3e, 0xf2, 0xb8, 0x7f, 0xbe,
 0xc1, 0x01, 0x12, 0xbe, 0xf9, 0x3c, 0x97, 0x3d, 0x2a, 0x24, 0xc6, 0xbd,
 0xf9, 0x57, 0x5b, 0xbc, 0xb7, 0xd5, 0x2b, 0xbc, 0x29, 0xad, 0xcf, 0xbd,
 0xbb, 0xe9, 0x2e, 0xbe, 0x89, 0xde, 0xad, 0xbe, 0x1b, 0xd0, 0x28, 0x3e,
 0xc4, 0xda, 0x65, 0x3e, 0xad, 0x6e, 0x37, 0xbd, 0x62, 0x23, 0x56, 0xbe,
 0x56, 0x48, 0x78, 0x3e, 0x9c, 0xe3, 0x93, 0x3e, 0x79, 0xf1, 0x03, 0xbf,
 0x8e, 0xb8, 0xd0, 0xbe, 0xb6, 0x64, 0x05, 0xbf, 0x94, 0x4d, 0x0a, 0xbf,
 0x6c, 0xef, 0x91, 0x3b, 0x68, 0x3e, 0x80, 0x3e, 0xe8, 0xd2, 0x6d, 0x3e,
 0xc2, 0xa4, 0xec, 0x3d, 0x68, 0x15, 0x92, 0x3d, 0x23, 0x32, 0x05, 0xbd,
 0x7e, 0x76, 0x90, 0x3e, 0xd8, 0x2e, 0xa1, 0xbc, 0xbe, 0x4e, 0x12, 0xbf,
 0xd6, 0xa7, 0xca, 0x3c, 0x3f, 0x72, 0x77, 0xbe, 0xf6, 0xf0, 0x41, 0x3e,
 0x34, 0x13, 0xb4, 0x3e, 0x8e, 0xe9, 0xcf, 0xbe, 0x3d, 0xa5, 0x8b, 0xbe,
 0x5c, 0x30, 0x04, 0xbe, 0x88, 0x08, 0xd6, 0x3e, 0xb3, 0x6c, 0xc8, 0x3e,
 0x30, 0x18, 0xab, 0xbd, 0x0c, 0xdb, 0x10, 0xbf, 0xde, 0x4c, 0x3b, 0x3e,
 0x01, 0x61, 0xb5, 0x3e, 0x28, 0x67, 0x86, 0x3d, 0x3e, 0x94, 0x8b, 0xbe,
 0x07, 0xed, 0x55, 0xbf, 0xd4, 0x5b, 0xb3, 0x3e, 0x76, 0xef, 0x2c, 0xbd,
 0xf0, 0x1a, 0x94, 0xbd, 0x62, 0x95, 0xe1, 0x3a, 0x19, 0x13, 0x94, 0xbe,
 0x05, 0x6b, 0x4d, 0xbd, 0x6b, 0x2b, 0x7d, 0x3e, 0x15, 0x55, 0x0f, 0xbe,
 0x72, 0xfb, 0xcc, 0xbe, 0xb3, 0xf3, 0x15, 0xbd, 0x42, 0xbc, 0x9b, 0xbe,
 0x69, 0xc0, 0x69, 0xbd, 0x79, 0x00, 0x06, 0x3d, 0x07, 0x9b, 0xe9, 0xbe,
 0x22, 0x1c, 0x81, 0x3e, 0xe6, 0xac, 0x54, 0xbc, 0x13, 0xed, 0x5d, 0xbe,
 0xbf, 0xe9, 0x18, 0x3f, 0x45, 0x89, 0xb8, 0x3d, 0x11, 0x3d, 0xd5, 0x3e,
 0x30, 0x5f, 0x9c, 0xbd, 0x08, 0xb8, 0xdf, 0x3c, 0x09, 0x19, 0x78, 0x3e,
 0x83, 0x04, 0x63, 0xbe, 0x06, 0x5b, 0xcd, 0x3d, 0xc6, 0x2d, 0xf4, 0xbd,
 0xb6, 0xa2, 0x0e, 0xbe, 0x14, 0x50, 0x04, 0x3e, 0xa2, 0x53, 0xb1, 0x3d,
 0x21, 0x07, 0x16, 0xbd, 0x30, 0xaa, 0x2d, 0x3f, 0x0b, 0x8c, 0x11, 0x3d,
 0x8b, 0x8a, 0xe2, 0x3e, 0xf9, 0x38, 0x24, 0xbe, 0x7d, 0xf7, 0x96, 0xbd,
 0x4c, 0x60, 0xc8, 0xbd, 0xec, 0x15, 0xe6, 0xbe, 0x91, 0xb8, 0xac, 0x3e,
 0x50, 0xfd, 0xda, 0x3e, 0xef, 0x7c, 0x15, 0x3e, 0x06, 0x41, 0xec, 0xbc,
 0x5e, 0x30, 0x35, 0xbe, 0xc0, 0x23, 0x14, 0x3e, 0xc6, 0x13, 0x7f, 0x3e,
 0xca, 0xa8, 0x1b, 0x3e, 0x16, 0xd2, 0x59, 0xbe, 0x98, 0x7c, 0xd4, 0x3d,
 0x51, 0x31, 0xbb, 0xbd, 0x37, 0xbe, 0x7c, 0xbe, 0x95, 0x49, 0xc0, 0xbd,
 0x4a, 0x5c, 0x28, 0x3e, 0x78, 0x8f, 0x37, 0x3e, 0x83, 0xc2, 0x62, 0x3e,
 0x71, 0xab, 0x5b, 0x3e, 0x85, 0x10, 0x63, 0xbc, 0x6d, 0xcd, 0x37, 0xbe,
 0x7c, 0x10, 0xc0, 0x3d, 0x92, 0xd1, 0xa3, 0x3e, 0xe7, 0xb6, 0xd1, 0xbd,
 0xe8, 0xcb, 0x2f, 0xbe, 0x4e, 0x66, 0x37, 0xbe, 0x3a, 0xf4, 0x6a, 0x3e,
 0x9e, 0x48, 0xfc, 0xbd, 0x09, 0xd1, 0xd4, 0xbd, 0x3b, 0x4e, 0x86, 0x3d,
 0x41, 0x40, 0x02, 0xbd, 0xa8, 0xee, 0x9a, 0x3d, 0xe8, 0xc7, 0x5f, 0x3e,
 0xa6, 0x7b, 0x56, 0x3e, 0x57, 0x86, 0xa1, 0x3d, 0x13, 0xdd, 0x6c, 0x3c,
 0x67, 0x32, 0x62, 0x3e, 0x99, 0xe2, 0x82, 0x3e, 0x2c, 0x09, 0xbc, 0x3d,
 0x57, 0x88, 0x76, 0x3e, 0x10, 0xe8, 0x69, 0xbe, 0x60, 0x69, 0x05, 0x3d,
 0x3a, 0x63, 0xc7, 0x3c, 0x51, 0x71, 0x54, 0xbe, 0xe0, 0xa6, 0x77, 0xbe,
 0xac, 0xf7, 0xf0, 0x3c, 0xf4, 0x42, 0x8f, 0x3d, 0xf4, 0x0b, 0x57, 0xbe,
 0xe0, 0xb8, 0x37, 0xbd, 0x82, 0xd7, 0x63, 0xbe, 0x60, 0x7c, 0xab, 0xbd,
 0x80, 0x3f, 0x17, 0xbe, 0x4e, 0x83, 0x0e, 0xbe, 0x5c, 0x5b, 0x1c, 0xbd,
 0xe8, 0x60, 0x2d, 0x3d, 0x5a, 0xa3, 0x46, 0x3e, 0x08, 0xb7, 0x0d, 0x3d,
 0xe8, 0xb1, 0x24, 0x3e, 0x94, 0xce, 0x4b, 0xbe, 0x66, 0x53, 0x83, 0x3e,
 0xe8, 0x81, 0xb9, 0x3d, 0x0f, 0x2b, 0x72, 0xbe, 0x5c, 0xd4, 0x9a, 0x3d,
 0x34, 0xa0, 0x16, 0x3e, 0xf0, 0xf9, 0x5a, 0x3e, 0x14, 0x68, 0x4e, 0x3e,
 0x00, 0x6c, 0x48, 0x3e, 0x62, 0xda, 0x65, 0xbe, 0xa7, 0x14, 0x46, 0xbe,
 0xba, 0x88, 0xc1, 0xbd, 0x84, 0x4c, 0x55, 0xbd, 0xa0, 0x91, 0x39, 0xbc,
 0xcc, 0x91, 0x1c, 0xbd, 0xc8, 0x77, 0x3d, 0x3e, 0x6e, 0xda, 0x83, 0xbe,
 0x10, 0x62, 0x60, 0x3d, 0x6c, 0xf5, 0x9b, 0x3d, 0x9e, 0x09, 0xb0, 0xbd,
 0xb8, 0x39, 0x51, 0xbd, 0xb8, 0x13, 0x0e, 0x3d, 0x40, 0xa3, 0x04, 0x3c,
 0x00, 0xf0, 0x26, 0xba, 0x2a, 0x54, 0x80, 0xbd, 0xf0, 0x3d, 0x5b, 0x3e,
 0x24, 0x99, 0x06, 0x3e, 0xe0, 0x04, 0x56, 0x3e, 0xf0, 0x64, 0x14, 0xbe,
 0x80, 0x7b, 0x1c, 0x3e, 0x8c, 0xa0, 0x1a, 0x3d, 0x27, 0x12, 0x0d, 0xbe,
 0x4d, 0x7a, 0xb1, 0xbd, 0xcf, 0xa1, 0x9d, 0x3d, 0x89, 0xcc, 0x9f, 0xbd,
 0xea, 0x4e, 0x64, 0xbe, 0xb7, 0xc6, 0xd7, 0xbc, 0x02, 0xed, 0xe4, 0x3d,
 0xef, 0xc7, 0x46, 0xbe, 0x52, 0x31, 0x93, 0xbe, 0x0c, 0x09, 0x23, 0x3e,
 0x8a, 0x22, 0x42, 0x3e, 0xda, 0x92, 0x3d, 0x3d, 0xaa, 0x4c, 0x83, 0x3e,
 0xe0, 0xf0, 0xcf, 0xbc, 0x14, 0xcc, 0x89, 0xbe, 0x08, 0x4e, 0x86, 0xbe,
 0x17, 0x70, 0xa1, 0x3e, 0x77, 0x39, 0xbd, 0x3c, 0x6c, 0xd7, 0x12, 0xbe,
 0xf9, 0xb4, 0x88, 0xbe, 0x30, 0x2a, 0x26, 0x3e, 0x65, 0x95, 0x8f, 0x3d,
 0x99, 0x4b, 0xc6, 0x3e, 0x67, 0xd0, 0x90, 0xbc, 0x72, 0x20, 0x27, 0xbd,
 0x8e, 0x47, 0xeb, 0x3d, 0x6a, 0xd2, 0xb5, 0xbc, 0x25, 0x80, 0x11, 0xbe,
 0xac, 0x57, 0xdd, 0xbd, 0xaa, 0x8d, 0x75, 0xbc, 0x62, 0x64, 0xce, 0x3d,
 0xd3, 0x2b, 0xa1, 0x3e, 0xa8, 0x36, 0xe3, 0xbd, 0xcf, 0xd0, 0x2b, 0x3e,
 0x6e, 0xf2, 0xf7, 0xbd, 0x0a, 0x79, 0xc8, 0x3c, 0x8d, 0xc4, 0x58, 0x3e,
 0xdf, 0x4c, 0xbc, 0xbd, 0xd4, 0xa8, 0x37, 0xbe, 0x04, 0xc5, 0x98, 0xbe,
 0xaf, 0x59, 0x4b, 0xbe, 0x27, 0x5b, 0x8e, 0x3e, 0xc7, 0x43, 0xbc, 0xbd,
 0xd4, 0x32, 0x16, 0xbe, 0x8b, 0x7c, 0x8a, 0x3b, 0x93, 0x11, 0x98, 0x3d,
 0x97, 0x1d, 0x05, 0xbc, 0x79, 0x9d, 0xce, 0x3d, 0x11, 0xb2, 0x10, 0x3d,
 0xd1, 0xab, 0x9a, 0x3d, 0xe0, 0xa2, 0x84, 0x3e, 0xcd, 0x34, 0x9c, 0x3e,
 0x4f, 0x77, 0x8b, 0xbe, 0xd9, 0x82, 0xdd, 0x3d, 0x0f, 0x50, 0x92, 0x3d,
 0xce, 0x36, 0x8b, 0x3c, 0xae, 0xdd, 0x04, 0x3e, 0x43, 0x7c, 0x85, 0x3e,
 0x6c, 0x42, 0x3d, 0xbe, 0xef, 0x5e, 0x63, 0xbe, 0x65, 0x54, 0x87, 0xbe,
 0x03, 0x8c, 0x7d, 0xbe, 0x8b, 0xca, 0x92, 0xbb, 0xa6, 0xe5, 0x75, 0x3e,
 0xf1, 0x50, 0x3d, 0xbc, 0xbf, 0x2b, 0x91, 0xbe, 0x78, 0x45, 0x8a, 0x3d,
 0xc9, 0xf2, 0xa8, 0xbc, 0xce, 0xbf, 0x77, 0xbe, 0x29, 0x50, 0x64, 0x3e,
 0xcc, 0xb2, 0x94, 0x3e, 0xd6, 0xde, 0xbc, 0xbe, 0x90, 0x8f, 0x93, 0xbe,
 0xf0, 0x85, 0x3a, 0x3e, 0x20, 0xf3, 0xa8, 0xbd, 0x42, 0xbd, 0x7c, 0xbd,
 0xb6, 0x0e, 0x65, 0xbe, 0x39, 0x42, 0x18, 0xbe, 0x9d, 0x2b, 0xa7, 0xbd,
 0xc3, 0xc6, 0x81, 0x3e, 0x8c, 0xe7, 0x99, 0x3b, 0x75, 0x7e, 0xb5, 0xbd,
 0xfd, 0x6c, 0x30, 0xbe, 0x25, 0x0b, 0xc7, 0x3c, 0xd4, 0xa9, 0x78, 0x3e,
 0xa7, 0xf3, 0x8a, 0xbe, 0xdb, 0x60, 0xb3, 0xbd, 0x8a, 0xe4, 0x4e, 0x3e,
 0x96, 0x80, 0x7d, 0x3d, 0x61, 0x41, 0xd3, 0xbc, 0xce, 0xa8, 0x6a, 0xbc,
 0xf4, 0x98, 0x81, 0xbc, 0x18, 0x7a, 0xa8, 0xbb, 0x4c, 0x58, 0x62, 0x3e,
 0x06, 0xbb, 0x5b, 0xbe, 0x25, 0x28, 0x7c, 0xbe, 0xec, 0x19, 0x84, 0x3c,
 0xac, 0xa6, 0x26, 0x3c, 0xc0, 0xe9, 0xc3, 0xbd, 0x31, 0x2e, 0xfc, 0xbd,
 0xf7, 0x4f, 0x81, 0xbd, 0x5b, 0x52, 0x6e, 0x3e, 0x82, 0x2a, 0x33, 0xbd,
 0x14, 0x81, 0x4c, 0x3e, 0x21, 0x6f, 0x5f, 0xbe, 0x79, 0x21, 0x72, 0xbe,
 0xdb, 0xaa, 0x35, 0x3e, 0x64, 0x09, 0x8d, 0x3d, 0x9f, 0x03, 0x13, 0x3e,
 0xd1, 0xa6, 0x88, 0x3e, 0x39, 0x85, 0x8c, 0x3e, 0xb6, 0xc6, 0xc7, 0x3e,
 0x2b, 0x54, 0x67, 0xbe, 0x17, 0x65, 0x9a, 0x3e, 0xb3, 0x35, 0x6b, 0xbe,
 0x49, 0xe7, 0x6f, 0xbd, 0x10, 0x17, 0xf1, 0x3d, 0x50, 0x6f, 0x13, 0x3e,
 0x3f, 0x0a, 0x75, 0xbd, 0x2b, 0xb5, 0x85, 0xbd, 0x66, 0x9d, 0x80, 0xbe,
 0xbd, 0xfc, 0xc6, 0xbc, 0x50, 0xbb, 0xec, 0x3d, 0x25, 0x64, 0xf0, 0xbd,
 0x93, 0x28, 0xb5, 0xbd, 0x4f, 0x40, 0x55, 0xbd, 0x32, 0x2e, 0x7b, 0xbe,
 0xb3, 0xbf, 0x0b, 0x3d, 0x0b, 0x09, 0x00, 0xbe, 0xa0, 0xfe, 0xef, 0x3d,
 0x35, 0x1d, 0x85, 0xbe, 0xbd, 0xe3, 0xd5, 0xbd, 0xc5, 0x72, 0x57, 0xbe,
 0x84, 0x3c, 0xb2, 0x3d, 0x5f, 0x8b, 0x9c, 0x3d, 0xb2, 0x66, 0x29, 0xbd,
 0x19, 0x94, 0xc2, 0x3d, 0x04, 0x42, 0x66, 0xbb, 0x44, 0x60, 0x11, 0x3d,
 0xa5, 0x34, 0x2f, 0x3e, 0xb9, 0x57, 0x93, 0x3d, 0x4c, 0xeb, 0x4b, 0x3e,
 0x2f, 0xae, 0xeb, 0x3d, 0x87, 0xb6, 0xdb, 0x3d, 0x5f, 0xb0, 0x3f, 0xbe,
 0x23, 0xa8, 0x52, 0xbd, 0x9f, 0x51, 0x51, 0xbe, 0xf8, 0x52, 0x08, 0xbe,
 0x4b, 0xe7, 0xa7, 0x3d, 0xa6, 0x1a, 0x76, 0xbe, 0x4f, 0x33, 0x31, 0x3c,
 0xe4, 0x22, 0x28, 0x3e, 0x21, 0x1c, 0x19, 0x3e, 0xc0, 0x01, 0x55, 0x3e,
 0x61, 0x41, 0x73, 0x3e, 0x52, 0xc1, 0xb9, 0xbd, 0x58, 0xdf, 0x65, 0x3e,
 0x55, 0xb3, 0x03, 0x3d, 0x52, 0x84, 0xfe, 0x3d, 0x5a, 0x7a, 0xe7, 0xbd,
 0x18, 0x1c, 0x5a, 0x3d, 0x57, 0xc5, 0x5e, 0x3e, 0xa6, 0xc8, 0xde, 0x3c,
 0xf6, 0x73, 0x6e, 0x3d, 0x30, 0x67, 0x1d, 0xbe, 0xbb, 0xb9, 0xaa, 0x3d,
 0xdc, 0x56, 0x77, 0x3e, 0x51, 0x8d, 0xb4, 0x3c, 0xe0, 0xc5, 0x0b, 0xbe,
 0x25, 0x95, 0x44, 0x3e, 0x51, 0xd2, 0x3f, 0xbd, 0x3c, 0xc6, 0x17, 0xbe,
 0xc3, 0xd7, 0xfa, 0xbc, 0x52, 0x3f, 0x2e, 0x3e, 0xb8, 0x1d, 0x79, 0xbc,
 0x48, 0xf6, 0x8d, 0x3e, 0x70, 0x38, 0x6c, 0x3c, 0x0b, 0x0d, 0x88, 0xbe,
 0xe3, 0x04, 0xb3, 0x3d, 0x76, 0x6a, 0x8a, 0x3e, 0x50, 0x04, 0x83, 0x3d,
 0x49, 0x66, 0xc8, 0xbd, 0x39, 0xed, 0x97, 0xbe, 0x4b, 0x87, 0xe7, 0xbc,
 0xad, 0x2f, 0x59, 0x3d, 0x5c, 0x14, 0x13, 0xbe, 0x74, 0xe4, 0xe2, 0xbd,
 0x95, 0xcb, 0x77, 0x3d, 0xa7, 0x54, 0xbc, 0xbd, 0x21, 0xf2, 0x84, 0xbc,
 0x5d, 0x61, 0x5c, 0xbe, 0x1f, 0xd4, 0x99, 0x3d, 0x8c, 0x72, 0x33, 0xbe,
 0x9e, 0x23, 0x54, 0x3e, 0x26, 0x65, 0x01, 0xbe, 0x5e, 0xc6, 0x3a, 0x3e,
 0xe9, 0xd4, 0xa0, 0xbe, 0xb7, 0x29, 0x08, 0xbe, 0xe0, 0xd9, 0xf2, 0xbd,
 0x1a, 0x36, 0xad, 0xbd, 0x20, 0x9e, 0xeb, 0xbd, 0x3c, 0xa7, 0xec, 0xbd,
 0x7e, 0x0f, 0x0c, 0xbe, 0x59, 0x0a, 0x80, 0xbe, 0x5b, 0x9d, 0xdd, 0x3d,
 0x6a, 0x4e, 0x3c, 0xbe, 0xa9, 0x5a, 0x89, 0xbe, 0x46, 0x56, 0xca, 0x3d,
 0x14, 0x17, 0x12, 0xba, 0x2b, 0x59, 0x38, 0x3e, 0x36, 0x6a, 0x82, 0xbe,
 0x6c, 0x80, 0x26, 0x3e, 0xe3, 0xed, 0xe0, 0xbc, 0x59, 0xf6, 0x81, 0xbe,
 0xdd, 0xdf, 0xd9, 0x3d, 0x40, 0x2a, 0xba, 0xbd, 0xc7, 0xb1, 0x8c, 0x3e,
 0x72, 0xde, 0xa7, 0x3c, 0xb6, 0x33, 0xb3, 0xbd, 0x30, 0x49, 0xa0, 0xbe,
 0x1f, 0xfc, 0x46, 0xbe, 0x0e, 0xab, 0x1c, 0xbe, 0x4a, 0x50, 0x1c, 0x3e,
 0x72, 0x52, 0x0a, 0x3b, 0x7e, 0x1a, 0xba, 0x3d, 0xfd, 0x3a, 0x38, 0x3e,
 0x8a, 0x6b, 0x40, 0x3d, 0x27, 0x02, 0x1b, 0x3d, 0xbd, 0xdb, 0x23, 0xbe,
 0x96, 0x74, 0x7c, 0x3e, 0x7d, 0x22, 0x69, 0xbd, 0x64, 0x08, 0x0b, 0x3e,
 0xb5, 0xac, 0x20, 0x3e, 0xd0, 0x55, 0xea, 0x3d, 0xe8, 0xb5, 0x34, 0xbe,
 0x7e, 0x85, 0x62, 0x3d, 0xf5, 0xb9, 0x6a, 0x3d, 0x82, 0x01, 0x75, 0xbe,
 0xec, 0x3d, 0xd1, 0xbd, 0xdf, 0x22, 0x49, 0xbd, 0xda, 0xc8, 0x94, 0xbd,
 0xf3, 0x6a, 0x20, 0xbe, 0xdb, 0x85, 0xf2, 0x3d, 0x73, 0xff, 0x51, 0xbe,
 0x2e, 0xfb, 0x8e, 0x3e, 0x78, 0x6b, 0x2d, 0x3d, 0xed, 0xab, 0xaa, 0x3d,
 0xa2, 0x40, 0x45, 0xbe, 0x95, 0x4f, 0x56, 0xbd, 0x98, 0x15, 0xc3, 0xbb,
 0x32, 0x5e, 0x14, 0xbe, 0x69, 0xbc, 0xe6, 0x3d, 0xc9, 0x33, 0x8e, 0x3c,
 0x10, 0xd7, 0x37, 0x3e, 0xbd, 0x93, 0x43, 0xbe, 0x31, 0x09, 0x9a, 0xbd,
 0xab, 0x02, 0xe9, 0xbb, 0xba, 0xd4, 0xfc, 0x3d, 0x2b, 0x0f, 0x41, 0x3d,
 0x07, 0x58, 0xb1, 0x3e, 0x23, 0xc1, 0x24, 0xbe, 0x66, 0x48, 0x52, 0x3e,
 0xbd, 0x51, 0x65, 0xbd, 0xd3, 0xc5, 0x27, 0x3c, 0x45, 0xed, 0x84, 0x3d,
 0x32, 0xdf, 0x13, 0x3e, 0x3e, 0x33, 0x48, 0xbe, 0x55, 0x32, 0x03, 0x3e,
 0x19, 0xbf, 0x59, 0xbd, 0x82, 0x36, 0x23, 0xbe, 0x8a, 0x36, 0x1d, 0x3e,
 0xa3, 0x04, 0xdc, 0x3d, 0xc9, 0x1c, 0xa9, 0x3d, 0x01, 0x6c, 0x8c, 0xbe,
 0xda, 0xda, 0x9d, 0x3d, 0xaa, 0x1b, 0x89, 0xbe, 0x57, 0x8b, 0x21, 0x3e,
 0x4a, 0xdd, 0x31, 0x3e, 0x78, 0x6c, 0x36, 0xbd, 0x5c, 0x23, 0xf4, 0xbd,
 0x40, 0x4f, 0x22, 0x3d, 0x1c, 0x31, 0x7a, 0x3e, 0x70, 0xef, 0x2c, 0x3e,
 0xe0, 0x1e, 0x7d, 0xbd, 0x46, 0x45, 0x77, 0xbe, 0xad, 0x7d, 0x6c, 0xbe,
 0x24, 0xf4, 0x9c, 0x3d, 0x6e, 0x98, 0xa9, 0xbd, 0xa6, 0x21, 0x83, 0x3e,
 0x86, 0x5d, 0x45, 0x3e, 0x31, 0x57, 0x85, 0xbe, 0x23, 0x98, 0x51, 0xbe,
 0x34, 0x62, 0x2b, 0xbe, 0xa4, 0xc5, 0x3b, 0xbe, 0x89, 0x6b, 0x1a, 0xbe,
 0xf8, 0x96, 0x70, 0x3e, 0x38, 0xa4, 0x74, 0x3e, 0x80, 0x7c, 0xcc, 0x3b,
 0x80, 0xa1, 0x0c, 0x3c, 0xdc, 0x90, 0x82, 0x3e, 0xb4, 0x90, 0x7a, 0x3e,
 0x80, 0x9b, 0xcb, 0x3b, 0x88, 0xb7, 0x00, 0x3d, 0xc2, 0xd1, 0x7e, 0xbe,
 0x7a, 0xb9, 0x55, 0x3e, 0xbc, 0xb6, 0x7d, 0x3e, 0xc0, 0xfb, 0xb5, 0xbb,
 0x86, 0xc5, 0x36, 0x3e, 0x08, 0xf6, 0x02, 0xbd, 0x9f, 0x09, 0x5e, 0xbe,
 0x0e, 0x6d, 0xdb, 0xbd, 0x3e, 0xbe, 0x84, 0xbe, 0xf3, 0x81, 0x71, 0xbe,
 0xb8, 0x73, 0x04, 0x3d, 0x76, 0x00, 0x24, 0xbe, 0x98, 0x5b, 0xa5, 0x3d,
 0xa4, 0xe5, 0x01, 0x3e, 0xd6, 0xc1, 0x0f, 0x3e, 0xee, 0xb9, 0x2f, 0xbe,
 0x94, 0x12, 0xe0, 0x3d, 0x14, 0x5c, 0x12, 0x3e, 0xf0, 0x4d, 0xc2, 0x3d,
 0xac, 0x9c, 0x6c, 0x3e, 0x08, 0x3c, 0xae, 0x3d, 0x48, 0xd2, 0x2c, 0x3d,
 0x66, 0x8c, 0xc4, 0xbd, 0x58, 0xe3, 0x44, 0x3d, 0x34, 0xc1, 0x29, 0xbd,
 0x90, 0x63, 0x52, 0x3e, 0x1a, 0x5c, 0x52, 0xbe, 0x19, 0x1d, 0x17, 0xbe,
 0x00, 0xd0, 0xb8, 0xbc, 0x00, 0x66, 0xad, 0x3d, 0x80, 0x58, 0x26, 0xbb,
 0x6a, 0x91, 0x26, 0x3e, 0xc8, 0x04, 0xec, 0xbd, 0x30, 0x28, 0x26, 0xbe,
 0x02, 0x7d, 0x4f, 0x3e, 0xd2, 0x4f, 0x40, 0xbe, 0x2a, 0xa6, 0xda, 0xbd,
 0x60, 0x5b, 0x80, 0xbe, 0x9c, 0x35, 0xcd, 0xbd, 0xa1, 0xc7, 0x30, 0xbe,
 0x0c, 0x72, 0xa6, 0xbd, 0x5a, 0x2f, 0x6e, 0xbe, 0x5c, 0x15, 0xeb, 0xbd,
 0x36, 0xb9, 0x2f, 0x3e, 0x3c, 0xf6, 0xc9, 0x3d, 0x46, 0x1a, 0x4e, 0x3e,
 0x88, 0x0c, 0x27, 0x3d, 0x06, 0xc0, 0x11, 0x3e, 0xbf, 0x27, 0x8a, 0xbe,
 0x16, 0x49, 0x02, 0x3e, 0x32, 0x9a, 0x11, 0x3e, 0xd5, 0x59, 0x3a, 0xbe,
 0x4c, 0xe6, 0x7f, 0x3e, 0xd7, 0x4f, 0x14, 0xbe, 0x35, 0x80, 0xb7, 0xbd,
 0xb5, 0x1a, 0x66, 0xbe, 0x18, 0xe1, 0x82, 0xbe, 0x1a, 0x88, 0x8c, 0xbe,
 0x05, 0xce, 0x35, 0xbe, 0x3c, 0x01, 0xa3, 0xbc, 0x3d, 0xe7, 0xa0, 0x3d,
 0xea, 0xce, 0x3d, 0xbe, 0xc1, 0x64, 0x57, 0x3e, 0x51, 0xe2, 0x37, 0x3e,
 0xa6, 0xb3, 0xae, 0x3e, 0x6a, 0xf5, 0x5c, 0x3e, 0xa8, 0x4e, 0x63, 0xbe,
 0x06, 0xe8, 0xb4, 0xbe, 0x97, 0x65, 0xc3, 0xbe, 0xa5, 0x2b, 0x45, 0x3d,
 0xd0, 0x9f, 0x98, 0x3c, 0x15, 0xbb, 0xce, 0x3e, 0x64, 0x2b, 0x2a, 0x3e,
 0x62, 0x11, 0xa1, 0x3e, 0xe0, 0x47, 0x9a, 0xbc, 0x71, 0xf0, 0x83, 0x3e,
 0xdf, 0x13, 0x80, 0xbb, 0x57, 0xb0, 0x92, 0x3e, 0x61, 0x7d, 0x09, 0x3e,
 0x9e, 0x36, 0xe6, 0x3c, 0x68, 0x87, 0xc2, 0xbd, 0xec, 0x20, 0x84, 0xbe,
 0xe9, 0x2a, 0xfe, 0x3d, 0xfb, 0xda, 0x1f, 0x3e, 0xa6, 0x6f, 0xbf, 0x3e,
 0x09, 0x25, 0x41, 0xbe, 0x44, 0x5b, 0x04, 0xbf, 0xac, 0x8e, 0x61, 0xbe,
 0x4d, 0xd3, 0x9b, 0x3e, 0xb9, 0x86, 0xaa, 0x3e, 0xe9, 0x37, 0x07, 0xbf,
 0x45, 0x65, 0x3e, 0x3d, 0x40, 0x43, 0xb3, 0xbe, 0xbd, 0x0b, 0xad, 0xbe,
 0xc7, 0x12, 0xe3, 0xbc, 0xa8, 0x53, 0x39, 0xbc, 0x9f, 0x98, 0x7d, 0xbc,
 0x62, 0x42, 0x2f, 0xbd, 0x39, 0x59, 0xcb, 0x3d, 0xb3, 0xcf, 0x6b, 0xbe,
 0x2d, 0x43, 0x4b, 0x3d, 0x6d, 0x69, 0xbc, 0xbe, 0xea, 0xd7, 0x1c, 0x3f,
 0xc3, 0xc6, 0x53, 0xbe, 0x34, 0x23, 0x69, 0xbd, 0xd6, 0xe8, 0xf8, 0x3b,
 0x3b, 0xaa, 0xdd, 0x3d, 0x27, 0x65, 0x2a, 0xbd, 0x8c, 0xf9, 0x10, 0xbe,
 0xaf, 0x96, 0xbb, 0xbd, 0x42, 0x07, 0xb0, 0x3e, 0x06, 0x32, 0x57, 0x3e,
 0x4b, 0xbc, 0x07, 0xbe, 0x75, 0xe4, 0xfd, 0x3d, 0x3d, 0xb4, 0x96, 0xbe,
 0x16, 0xda, 0x99, 0x3d, 0x66, 0x1f, 0xaf, 0xbe, 0x9a, 0x41, 0x5d, 0x3e,
 0x09, 0x3c, 0x19, 0xbe, 0x31, 0x7a, 0x41, 0xbf, 0xac, 0xb8, 0x04, 0xbd,
 0x72, 0x11, 0x19, 0xbf, 0x2f, 0xc4, 0x34, 0x3e, 0x7d, 0x6d, 0xdf, 0xbe,
 0x52, 0x10, 0x1c, 0x3f, 0x08, 0x80, 0x3e, 0x3f, 0xb4, 0x7b, 0x9c, 0x3e,
 0x05, 0x7e, 0x85, 0x3e, 0x9e, 0xa5, 0x8b, 0xbe, 0x3a, 0xf3, 0x48, 0x3f,
 0x44, 0xe7, 0x85, 0xbe, 0x36, 0x3f, 0x3d, 0x3f, 0xe0, 0xe3, 0xb0, 0xbe,
 0xd4, 0x0e, 0x81, 0x3f, 0x02, 0x53, 0x24, 0x3e, 0xa8, 0x74, 0x53, 0xbe,
 0x6a, 0xc4, 0x8a, 0xbe, 0x08, 0xbf, 0x44, 0x3e, 0x9a, 0x4b, 0x1d, 0x3e,
 0x07, 0xc5, 0x2e, 0xbe, 0xc0, 0x4a, 0x93, 0x3c, 0x87, 0xd0, 0x15, 0xbe,
 0xd2, 0xcf, 0x07, 0x3e, 0xec, 0x52, 0x24, 0x3e, 0x34, 0x5a, 0xd1, 0x3d,
 0xd2, 0x44, 0x89, 0xbe, 0x04, 0x90, 0x39, 0x3e, 0xa0, 0x16, 0xde, 0x3d,
 0x68, 0xbf, 0x84, 0x3e, 0xe0, 0xe3, 0x43, 0xbc, 0x60, 0xdf, 0xd6, 0xbc,
 0xb0, 0x1f, 0xa9, 0x3d, 0xf6, 0x1d, 0x55, 0x3e, 0xe4, 0x07, 0x71, 0xbd,
 0x72, 0x29, 0x98, 0xbd, 0x50, 0xf4, 0xe0, 0x3d, 0xbf, 0x54, 0x85, 0xbe,
 0xb8, 0xcd, 0x0d, 0xbe, 0x54, 0x1b, 0x85, 0xbd, 0x48, 0xf8, 0x84, 0xbe,
 0xd0, 0xce, 0x18, 0x3d, 0x1a, 0x5a, 0x5e, 0xbe, 0x37, 0x56, 0x7e, 0xbe,
 0xc0, 0x67, 0x99, 0x3b, 0x04, 0x46, 0x44, 0x3e, 0x38, 0x09, 0x7f, 0xbd,
 0x68, 0x8c, 0x08, 0x3d, 0x80, 0x7d, 0x1e, 0x3d, 0x19, 0xf5, 0x44, 0xbe,
 0x8e, 0x4b, 0x23, 0xbe, 0xd0, 0xd1, 0x83, 0x3e, 0x34, 0x00, 0xc6, 0x3d,
 0xb8, 0x2a, 0xe7, 0xbd, 0x20, 0x12, 0x09, 0x3d, 0x52, 0xff, 0xff, 0xff,
 0x04, 0x00, 0x00, 0x00, 0xa0, 0x00, 0x00, 0x00, 0x6d, 0xc1, 0x97, 0xbd,
 0x87, 0x88, 0xd2, 0x3d, 0xd1, 0x3c, 0x9c, 0xbc, 0x20, 0x31, 0xda, 0x3d,
 0x70, 0x5a, 0x1d, 0xbe, 0x63, 0x56, 0x40, 0xbe, 0xa0, 0x9f, 0xe2, 0xbd,
 0x8d, 0xf6, 0xb7, 0xbe, 0xeb, 0x85, 0xc4, 0x3d, 0xbc, 0x07, 0xed, 0xbd,
 0xf1, 0x35, 0x53, 0x3d, 0xd4, 0x06, 0x5e, 0xbd, 0x18, 0x4a, 0x4a, 0xbe,
 0x10, 0x9a, 0xf3, 0xbd, 0x8e, 0x74, 0xb1, 0xbc, 0xf8, 0x79, 0x02, 0xbe,
 0x00, 0x00, 0x00, 0x00, 0x40, 0x57, 0xe5, 0x3d, 0x74, 0xd5, 0x06, 0x3e,
 0x00, 0x00, 0x00, 0x00, 0x5b, 0xf7, 0x97, 0xbd, 0xb1, 0xf6, 0x36, 0x3d,
 0xdf, 0x97, 0x20, 0xbc, 0x52, 0xd4, 0x17, 0xbe, 0x4b, 0x9a, 0xbf, 0xbe,
 0xce, 0x0a, 0x3f, 0xbe, 0xbe, 0x68, 0xb0, 0x3d, 0x00, 0x00, 0x00, 0x00,
 0x23, 0xcf, 0x13, 0xbe, 0x19, 0xdc, 0xd4, 0x3d, 0xb0, 0xf3, 0x07, 0xbe,
 0x9a, 0x25, 0x21, 0xbc, 0x3b, 0xd4, 0x57, 0x3d, 0x29, 0xbd, 0xf6, 0xbd,
 0x39, 0x58, 0xc9, 0x3d, 0x00, 0x00, 0x00, 0x00, 0x00, 0x00, 0x00, 0x00,
 0xc8, 0x05, 0x07, 0x3d, 0xfe, 0xf8, 0xf5, 0xbd, 0x00, 0x00, 0x00, 0x00,
 0x00, 0x00, 0x06, 0x00, 0x08, 0x00, 0x04, 0x00, 0x06, 0x00, 0x00, 0x00,
 0x04, 0x00, 0x00, 0x00, 0x04, 0x00, 0x00, 0x00, 0x10, 0x09, 0xe4, 0x3d,
 0xe4, 0xfb, 0xff, 0xff, 0xe8, 0xfb, 0xff, 0xff, 0x0f, 0x00, 0x00, 0x00,
 0x4d, 0x4c, 0x49, 0x52, 0x20, 0x43, 0x6f, 0x6e, 0x76, 0x65, 0x72, 0x74,
 0x65, 0x64, 0x2e, 0x00, 0x01, 0x00, 0x00, 0x00, 0x14, 0x00, 0x00, 0x00,
 0x00, 0x00, 0x0e, 0x00, 0x18, 0x00, 0x14, 0x00, 0x10, 0x00, 0x0c, 0x00,
 0x08, 0x00, 0x04, 0x00, 0x0e, 0x00, 0x00, 0x00, 0x14, 0x00, 0x00, 0x00,
 0x1c, 0x00, 0x00, 0x00, 0xd0, 0x00, 0x00, 0x00, 0xd4, 0x00, 0x00, 0x00,
 0xd8, 0x00, 0x00, 0x00, 0x04, 0x00, 0x00, 0x00, 0x6d, 0x61, 0x69, 0x6e,
 0x00, 0x00, 0x00, 0x00, 0x03, 0x00, 0x00, 0x00, 0x78, 0x00, 0x00, 0x00,
 0x34, 0x00, 0x00, 0x00, 0x10, 0x00, 0x00, 0x00, 0x00, 0x00, 0x0a, 0x00,
 0x10, 0x00, 0x0c, 0x00, 0x08, 0x00, 0x04, 0x00, 0x0a, 0x00, 0x00, 0x00,
 0x0c, 0x00, 0x00, 0x00, 0x10, 0x00, 0x00, 0x00, 0x01, 0x00, 0x00, 0x00,
 0x01, 0x00, 0x00, 0x00, 0x07, 0x00, 0x00, 0x00, 0x01, 0x00, 0x00, 0x00,
 0x06, 0x00, 0x00, 0x00, 0xce, 0xff, 0xff, 0xff, 0x10, 0x00, 0x00, 0x00,
 0x00, 0x00, 0x00, 0x08, 0x0c, 0x00, 0x00, 0x00, 0x10, 0x00, 0x00, 0x00,
 0x8c, 0xfc, 0xff, 0xff, 0x01, 0x00, 0x00, 0x00, 0x06, 0x00, 0x00, 0x00,
 0x03, 0x00, 0x00, 0x00, 0x05, 0x00, 0x00, 0x00, 0x04, 0x00, 0x00, 0x00,
 0x01, 0x00, 0x00, 0x00, 0x00, 0x00, 0x0e, 0x00, 0x16, 0x00, 0x00, 0x00,
 0x10, 0x00, 0x0c, 0x00, 0x0b, 0x00, 0x04, 0x00, 0x0e, 0x00, 0x00, 0x00,
 0x18, 0x00, 0x00, 0x00, 0x00, 0x00, 0x00, 0x08, 0x18, 0x00, 0x00, 0x00,
 0x1c, 0x00, 0x00, 0x00, 0x00, 0x00, 0x06, 0x00, 0x08, 0x00, 0x07, 0x00,
 0x06, 0x00, 0x00, 0x00, 0x00, 0x00, 0x00, 0x01, 0x01, 0x00, 0x00, 0x00,
 0x05, 0x00, 0x00, 0x00, 0x03, 0x00, 0x00, 0x00, 0x00, 0x00, 0x00, 0x00,
 0x03, 0x00, 0x00, 0x00, 0x02, 0x00, 0x00, 0x00, 0x01, 0x00, 0x00, 0x00,
 0x07, 0x00, 0x00, 0x00, 0x01, 0x00, 0x00, 0x00, 0x00, 0x00, 0x00, 0x00,
 0x08, 0x00, 0x00, 0x00, 0xd0, 0x02, 0x00, 0x00, 0x60, 0x02, 0x00, 0x00,
 0xf4, 0x01, 0x00, 0x00, 0xac, 0x01, 0x00, 0x00, 0x60, 0x01, 0x00, 0x00,
 0xd8, 0x00, 0x00, 0x00, 0x60, 0x00, 0x00, 0x00, 0x04, 0x00, 0x00, 0x00,
 0x66, 0xfd, 0xff, 0xff, 0x00, 0x00, 0x00, 0x01, 0x14, 0x00, 0x00, 0x00,
 0x1c, 0x00, 0x00, 0x00, 0x1c, 0x00, 0x00, 0x00, 0x08, 0x00, 0x00, 0x00,
 0x34, 0x00, 0x00, 0x00, 0x02, 0x00, 0x00, 0x00, 0xff, 0xff, 0xff, 0xff,
 0x01, 0x00, 0x00, 0x00, 0x50, 0xfd, 0xff, 0xff, 0x19, 0x00, 0x00, 0x00,
 0x53, 0x74, 0x61, 0x74, 0x65, 0x66, 0x75, 0x6c, 0x50, 0x61, 0x72, 0x74,
 0x69, 0x74, 0x69, 0x6f, 0x6e, 0x65, 0x64, 0x43, 0x61, 0x6c, 0x6c, 0x3a,
 0x30, 0x00, 0x00, 0x00, 0x02, 0x00, 0x00, 0x00, 0x01, 0x00, 0x00, 0x00,
 0x01, 0x00, 0x00, 0x00, 0xbe, 0xfd, 0xff, 0xff, 0x00, 0x00, 0x00, 0x01,
 0x14, 0x00, 0x00, 0x00, 0x1c, 0x00, 0x00, 0x00, 0x1c, 0x00, 0x00, 0x00,
 0x07, 0x00, 0x00, 0x00, 0x50, 0x00, 0x00, 0x00, 0x02, 0x00, 0x00, 0x00,
 0xff, 0xff, 0xff, 0xff, 0x01, 0x00, 0x00, 0x00, 0xa8, 0xfd, 0xff, 0xff,
 0x34, 0x00, 0x00, 0x00, 0x73, 0x65, 0x71, 0x75, 0x65, 0x6e, 0x74, 0x69,
 0x61, 0x6c, 0x2f, 0x64, 0x65, 0x6e, 0x73, 0x65, 0x5f, 0x31, 0x2f, 0x4d,
 0x61, 0x74, 0x4d, 0x75, 0x6c, 0x3b, 0x73, 0x65, 0x71, 0x75, 0x65, 0x6e,
 0x74, 0x69, 0x61, 0x6c, 0x2f, 0x64, 0x65, 0x6e, 0x73, 0x65, 0x5f, 0x31,
 0x2f, 0x42, 0x69, 0x61, 0x73, 0x41, 0x64, 0x64, 0x00, 0x00, 0x00, 0x00,
 0x02, 0x00, 0x00, 0x00, 0x01, 0x00, 0x00, 0x00, 0x01, 0x00, 0x00, 0x00,
 0x32, 0xfe, 0xff, 0xff, 0x00, 0x00, 0x00, 0x01, 0x14, 0x00, 0x00, 0x00,
 0x1c, 0x00, 0x00, 0x00, 0x1c, 0x00, 0x00, 0x00, 0x06, 0x00, 0x00, 0x00,
 0x60, 0x00, 0x00, 0x00, 0x02, 0x00, 0x00, 0x00, 0xff, 0xff, 0xff, 0xff,
 0x28, 0x00, 0x00, 0x00, 0x1c, 0xfe, 0xff, 0xff, 0x46, 0x00, 0x00, 0x00,
 0x73, 0x65, 0x71, 0x75, 0x65, 0x6e, 0x74, 0x69, 0x61, 0x6c, 0x2f, 0x64,
 0x65, 0x6e, 0x73, 0x65, 0x2f, 0x4d, 0x61, 0x74, 0x4d, 0x75, 0x6c, 0x3b,
 0x73, 0x65, 0x71, 0x75, 0x65, 0x6e, 0x74, 0x69, 0x61, 0x6c, 0x2f, 0x64,
 0x65, 0x6e, 0x73, 0x65, 0x2f, 0x52, 0x65, 0x6c, 0x75, 0x3b, 0x73, 0x65,
 0x71, 0x75, 0x65, 0x6e, 0x74, 0x69, 0x61, 0x6c, 0x2f, 0x64, 0x65, 0x6e,
 0x73, 0x65, 0x2f, 0x42, 0x69, 0x61, 0x73, 0x41, 0x64, 0x64, 0x00, 0x00,
 0x02, 0x00, 0x00, 0x00, 0x01, 0x00, 0x00, 0x00, 0x28, 0x00, 0x00, 0x00,
 0x22, 0xff, 0xff, 0xff, 0x00, 0x00, 0x00, 0x01, 0x10, 0x00, 0x00, 0x00,
 0x10, 0x00, 0x00, 0x00, 0x05, 0x00, 0x00, 0x00, 0x28, 0x00, 0x00, 0x00,
 0x90, 0xfe, 0xff, 0xff, 0x19, 0x00, 0x00, 0x00, 0x73, 0x65, 0x71, 0x75,
 0x65, 0x6e, 0x74, 0x69, 0x61, 0x6c, 0x2f, 0x64, 0x65, 0x6e, 0x73, 0x65,
 0x5f, 0x31, 0x2f, 0x4d, 0x61, 0x74, 0x4d, 0x75, 0x6c, 0x00, 0x00, 0x00,
 0x02, 0x00, 0x00, 0x00, 0x01, 0x00, 0x00, 0x00, 0x28, 0x00, 0x00, 0x00,
 0x6a, 0xff, 0xff, 0xff, 0x00, 0x00, 0x00, 0x01, 0x10, 0x00, 0x00, 0x00,
 0x10, 0x00, 0x00, 0x00, 0x04, 0x00, 0x00, 0x00, 0x24, 0x00, 0x00, 0x00,
 0xd8, 0xfe, 0xff, 0xff, 0x17, 0x00, 0x00, 0x00, 0x73, 0x65, 0x71, 0x75,
 0x65, 0x6e, 0x74, 0x69, 0x61, 0x6c, 0x2f, 0x64, 0x65, 0x6e, 0x73, 0x65,
 0x2f, 0x4d, 0x61, 0x74, 0x4d, 0x75, 0x6c, 0x00, 0x02, 0x00, 0x00, 0x00,
 0x28, 0x00, 0x00, 0x00, 0x28, 0x00, 0x00, 0x00, 0xae, 0xff, 0xff, 0xff,
 0x00, 0x00, 0x00, 0x01, 0x10, 0x00, 0x00, 0x00, 0x10, 0x00, 0x00, 0x00,
 0x03, 0x00, 0x00, 0x00, 0x34, 0x00, 0x00, 0x00, 0x1c, 0xff, 0xff, 0xff,
 0x27, 0x00, 0x00, 0x00, 0x73, 0x65, 0x71, 0x75, 0x65, 0x6e, 0x74, 0x69,
 0x61, 0x6c, 0x2f, 0x64, 0x65, 0x6e, 0x73, 0x65, 0x2f, 0x42, 0x69, 0x61,
 0x73, 0x41, 0x64, 0x64, 0x2f, 0x52, 0x65, 0x61, 0x64, 0x56, 0x61, 0x72,
 0x69, 0x61, 0x62, 0x6c, 0x65, 0x4f, 0x70, 0x00, 0x01, 0x00, 0x00, 0x00,
 0x28, 0x00, 0x00, 0x00, 0x00, 0x00, 0x16, 0x00, 0x18, 0x00, 0x14, 0x00,
 0x00, 0x00, 0x10, 0x00, 0x0c, 0x00, 0x08, 0x00, 0x00, 0x00, 0x00, 0x00,
 0x00, 0x00, 0x07, 0x00, 0x16, 0x00, 0x00, 0x00, 0x00, 0x00, 0x00, 0x01,
 0x10, 0x00, 0x00, 0x00, 0x10, 0x00, 0x00, 0x00, 0x02, 0x00, 0x00, 0x00,
 0x38, 0x00, 0x00, 0x00, 0x84, 0xff, 0xff, 0xff, 0x29, 0x00, 0x00, 0x00,
 0x73, 0x65, 0x71, 0x75, 0x65, 0x6e, 0x74, 0x69, 0x61, 0x6c, 0x2f, 0x64,
 0x65, 0x6e, 0x73, 0x65, 0x5f, 0x31, 0x2f, 0x42, 0x69, 0x61, 0x73, 0x41,
 0x64, 0x64, 0x2f, 0x52, 0x65, 0x61, 0x64, 0x56, 0x61, 0x72, 0x69, 0x61,
 0x62, 0x6c, 0x65, 0x4f, 0x70, 0x00, 0x00, 0x00, 0x01, 0x00, 0x00, 0x00,
 0x01, 0x00, 0x00, 0x00, 0x00, 0x00, 0x16, 0x00, 0x1c, 0x00, 0x18, 0x00,
 0x00, 0x00, 0x14, 0x00, 0x10, 0x00, 0x0c, 0x00, 0x00, 0x00, 0x00, 0x00,
 0x08, 0x00, 0x07, 0x00, 0x16, 0x00, 0x00, 0x00, 0x00, 0x00, 0x00, 0x01,
 0x14, 0x00, 0x00, 0x00, 0x20, 0x00, 0x00, 0x00, 0x20, 0x00, 0x00, 0x00,
 0x01, 0x00, 0x00, 0x00, 0x3c, 0x00, 0x00, 0x00, 0x02, 0x00, 0x00, 0x00,
 0xff, 0xff, 0xff, 0xff, 0x28, 0x00, 0x00, 0x00, 0x04, 0x00, 0x04, 0x00,
 0x04, 0x00, 0x00, 0x00, 0x1d, 0x00, 0x00, 0x00, 0x73, 0x65, 0x72, 0x76,
 0x69, 0x6e, 0x67, 0x5f, 0x64, 0x65, 0x66, 0x61, 0x75, 0x6c, 0x74, 0x5f,
 0x64, 0x65, 0x6e, 0x73, 0x65, 0x5f, 0x69, 0x6e, 0x70, 0x75, 0x74, 0x3a,
 0x30, 0x00, 0x00, 0x00, 0x02, 0x00, 0x00, 0x00, 0x01, 0x00, 0x00, 0x00,
 0x28, 0x00, 0x00, 0x00, 0x02, 0x00, 0x00, 0x00, 0x20, 0x00, 0x00, 0x00,
 0x04, 0x00, 0x00, 0x00, 0xf4, 0xff, 0xff, 0xff, 0x0e, 0x00, 0x00, 0x00,
 0x00, 0x00, 0x00, 0x0e, 0x0c, 0x00, 0x0c, 0x00, 0x0b, 0x00, 0x00, 0x00,
 0x00, 0x00, 0x04, 0x00, 0x0c, 0x00, 0x00, 0x00, 0x09, 0x00, 0x00, 0x00,
 0x00, 0x00, 0x00, 0x09
};

#endif //TINYML_MODEL_H